{
  "version": "1.0",
  "truncation": null,
  "padding": null,
  "added_tokens": [
    {
      "id": 2,
      "content": "<|endoftext|>",
      "single_word": false,
      "lstrip": false,
      "rstrip": false,
      "normalized": false,
      "special": true
    },
    {
      "id": 50261,
      "content": "<|mask:0|>",
      "single_word": false,
      "lstrip": false,
      "rstrip": false,
      "normalized": false,
      "special": true
    },
    {
      "id": 50262,
      "content": "<|mask:1|>",
      "single_word": false,
      "lstrip": false,
      "rstrip": false,
      "normalized": false,
      "special": true
    },
    {
      "id": 50263,
      "content": "<|mask:2|>",
      "single_word": false,
      "lstrip": false,
      "rstrip": false,
      "normalized": false,
      "special": true
    },
    {
      "id": 50264,
      "content": "<|mask:3|>",
      "single_word": false,
      "lstrip": false,
      "rstrip": false,
      "normalized": false,
      "special": true
    },
    {
      "id": 50265,
      "content": "<|mask:4|>",
      "single_word": false,
      "lstrip": false,
      "rstrip": false,
      "normalized": false,
      "special": true
    },
    {
      "id": 50266,
      "content": "<|mask:5|>",
      "single_word": false,
      "lstrip": false,
      "rstrip": false,
      "normalized": false,
      "special": true
    },
    {
      "id": 50267,
      "content": "<|mask:6|>",
      "single_word": false,
      "lstrip": false,
      "rstrip": false,
      "normalized": false,
      "special": true
    },
    {
      "id": 50268,
      "content": "<|mask:7|>",
      "single_word": false,
      "lstrip": false,
      "rstrip": false,
      "normalized": false,
      "special": true
    },
    {
      "id": 50269,
      "content": "<|mask:8|>",
      "single_word": false,
      "lstrip": false,
      "rstrip": false,
      "normalized": false,
      "special": true
    },
    {
      "id": 50270,
      "content": "<|mask:9|>",
      "single_word": false,
      "lstrip": false,
      "rstrip": false,
      "normalized": false,
      "special": true
    },
    {
      "id": 50271,
      "content": "<|mask:10|>",
      "single_word": false,
      "lstrip": false,
      "rstrip": false,
      "normalized": false,
      "special": true
    },
    {
      "id": 50272,
      "content": "<|mask:11|>",
      "single_word": false,
      "lstrip": false,
      "rstrip": false,
      "normalized": false,
      "special": true
    },
    {
      "id": 50273,
      "content": "<|mask:12|>",
      "single_word": false,
      "lstrip": false,
      "rstrip": false,
      "normalized": false,
      "special": true
    },
    {
      "id": 50274,
      "content": "<|mask:13|>",
      "single_word": false,
      "lstrip": false,
      "rstrip": false,
      "normalized": false,
      "special": true
    },
    {
      "id": 50275,
      "content": "<|mask:14|>",
      "single_word": false,
      "lstrip": false,
      "rstrip": false,
      "normalized": false,
      "special": true
    },
    {
      "id": 50276,
      "content": "<|mask:15|>",
      "single_word": false,
      "lstrip": false,
      "rstrip": false,
      "normalized": false,
      "special": true
    },
    {
      "id": 50277,
      "content": "<|mask:16|>",
      "single_word": false,
      "lstrip": false,
      "rstrip": false,
      "normalized": false,
      "special": true
    },
    {
      "id": 50278,
      "content": "<|mask:17|>",
      "single_word": false,
      "lstrip": false,
      "rstrip": false,
      "normalized": false,
      "special": true
    },
    {
      "id": 50279,
      "content": "<|mask:18|>",
      "single_word": false,
      "lstrip": false,
      "rstrip": false,
      "normalized": false,
      "special": true
    },
    {
      "id": 50280,
      "content": "<|mask:19|>",
      "single_word": false,
      "lstrip": false,
      "rstrip": false,
      "normalized": false,
      "special": true
    },
    {
      "id": 50281,
      "content": "<|mask:20|>",
      "single_word": false,
      "lstrip": false,
      "rstrip": false,
      "normalized": false,
      "special": true
    },
    {
      "id": 50282,
      "content": "<|mask:21|>",
      "single_word": false,
      "lstrip": false,
      "rstrip": false,
      "normalized": false,
      "special": true
    },
    {
      "id": 50283,
      "content": "<|mask:22|>",
      "single_word": false,
      "lstrip": false,
      "rstrip": false,
      "normalized": false,
      "special": true
    },
    {
      "id": 50284,
      "content": "<|mask:23|>",
      "single_word": false,
      "lstrip": false,
      "rstrip": false,
      "normalized": false,
      "special": true
    },
    {
      "id": 50285,
      "content": "<|mask:24|>",
      "single_word": false,
      "lstrip": false,
      "rstrip": false,
      "normalized": false,
      "special": true
    },
    {
      "id": 50286,
      "content": "<|mask:25|>",
      "single_word": false,
      "lstrip": false,
      "rstrip": false,
      "normalized": false,
      "special": true
    },
    {
      "id": 50287,
      "content": "<|mask:26|>",
      "single_word": false,
      "lstrip": false,
      "rstrip": false,
      "normalized": false,
      "special": true
    },
    {
      "id": 50288,
      "content": "<|mask:27|>",
      "single_word": false,
      "lstrip": false,
      "rstrip": false,
      "normalized": false,
      "special": true
    },
    {
      "id": 50289,
      "content": "<|mask:28|>",
      "single_word": false,
      "lstrip": false,
      "rstrip": false,
      "normalized": false,
      "special": true
    },
    {
      "id": 50290,
      "content": "<|mask:29|>",
      "single_word": false,
      "lstrip": false,
      "rstrip": false,
      "normalized": false,
      "special": true
    },
    {
      "id": 50291,
      "content": "<|mask:30|>",
      "single_word": false,
      "lstrip": false,
      "rstrip": false,
      "normalized": false,
      "special": true
    },
    {
      "id": 50292,
      "content": "<|mask:31|>",
      "single_word": false,
      "lstrip": false,
      "rstrip": false,
      "normalized": false,
      "special": true
    },
    {
      "id": 50293,
      "content": "<|mask:32|>",
      "single_word": false,
      "lstrip": false,
      "rstrip": false,
      "normalized": false,
      "special": true
    },
    {
      "id": 50294,
      "content": "<|mask:33|>",
      "single_word": false,
      "lstrip": false,
      "rstrip": false,
      "normalized": false,
      "special": true
    },
    {
      "id": 50295,
      "content": "<|mask:34|>",
      "single_word": false,
      "lstrip": false,
      "rstrip": false,
      "normalized": false,
      "special": true
    },
    {
      "id": 50296,
      "content": "<|mask:35|>",
      "single_word": false,
      "lstrip": false,
      "rstrip": false,
      "normalized": false,
      "special": true
    },
    {
      "id": 50297,
      "content": "<|mask:36|>",
      "single_word": false,
      "lstrip": false,
      "rstrip": false,
      "normalized": false,
      "special": true
    },
    {
      "id": 50298,
      "content": "<|mask:37|>",
      "single_word": false,
      "lstrip": false,
      "rstrip": false,
      "normalized": false,
      "special": true
    },
    {
      "id": 50299,
      "content": "<|mask:38|>",
      "single_word": false,
      "lstrip": false,
      "rstrip": false,
      "normalized": false,
      "special": true
    },
    {
      "id": 50300,
      "content": "<|mask:39|>",
      "single_word": false,
      "lstrip": false,
      "rstrip": false,
      "normalized": false,
      "special": true
    },
    {
      "id": 50301,
      "content": "<|mask:40|>",
      "single_word": false,
      "lstrip": false,
      "rstrip": false,
      "normalized": false,
      "special": true
    },
    {
      "id": 50302,
      "content": "<|mask:41|>",
      "single_word": false,
      "lstrip": false,
      "rstrip": false,
      "normalized": false,
      "special": true
    },
    {
      "id": 50303,
      "content": "<|mask:42|>",
      "single_word": false,
      "lstrip": false,
      "rstrip": false,
      "normalized": false,
      "special": true
    },
    {
      "id": 50304,
      "content": "<|mask:43|>",
      "single_word": false,
      "lstrip": false,
      "rstrip": false,
      "normalized": false,
      "special": true
    },
    {
      "id": 50305,
      "content": "<|mask:44|>",
      "single_word": false,
      "lstrip": false,
      "rstrip": false,
      "normalized": false,
      "special": true
    },
    {
      "id": 50306,
      "content": "<|mask:45|>",
      "single_word": false,
      "lstrip": false,
      "rstrip": false,
      "normalized": false,
      "special": true
    },
    {
      "id": 50307,
      "content": "<|mask:46|>",
      "single_word": false,
      "lstrip": false,
      "rstrip": false,
      "normalized": false,
      "special": true
    },
    {
      "id": 50308,
      "content": "<|mask:47|>",
      "single_word": false,
      "lstrip": false,
      "rstrip": false,
      "normalized": false,
      "special": true
    },
    {
      "id": 50309,
      "content": "<|mask:48|>",
      "single_word": false,
      "lstrip": false,
      "rstrip": false,
      "normalized": false,
      "special": true
    },
    {
      "id": 50310,
      "content": "<|mask:49|>",
      "single_word": false,
      "lstrip": false,
      "rstrip": false,
      "normalized": false,
      "special": true
    },
    {
      "id": 50311,
      "content": "<|mask:50|>",
      "single_word": false,
      "lstrip": false,
      "rstrip": false,
      "normalized": false,
      "special": true
    },
    {
      "id": 50312,
      "content": "<|mask:51|>",
      "single_word": false,
      "lstrip": false,
      "rstrip": false,
      "normalized": false,
      "special": true
    },
    {
      "id": 50313,
      "content": "<|mask:52|>",
      "single_word": false,
      "lstrip": false,
      "rstrip": false,
      "normalized": false,
      "special": true
    },
    {
      "id": 50314,
      "content": "<|mask:53|>",
      "single_word": false,
      "lstrip": false,
      "rstrip": false,
      "normalized": false,
      "special": true
    },
    {
      "id": 50315,
      "content": "<|mask:54|>",
      "single_word": false,
      "lstrip": false,
      "rstrip": false,
      "normalized": false,
      "special": true
    },
    {
      "id": 50316,
      "content": "<|mask:55|>",
      "single_word": false,
      "lstrip": false,
      "rstrip": false,
      "normalized": false,
      "special": true
    },
    {
      "id": 50317,
      "content": "<|mask:56|>",
      "single_word": false,
      "lstrip": false,
      "rstrip": false,
      "normalized": false,
      "special": true
    },
    {
      "id": 50318,
      "content": "<|mask:57|>",
      "single_word": false,
      "lstrip": false,
      "rstrip": false,
      "normalized": false,
      "special": true
    },
    {
      "id": 50319,
      "content": "<|mask:58|>",
      "single_word": false,
      "lstrip": false,
      "rstrip": false,
      "normalized": false,
      "special": true
    },
    {
      "id": 50320,
      "content": "<|mask:59|>",
      "single_word": false,
      "lstrip": false,
      "rstrip": false,
      "normalized": false,
      "special": true
    },
    {
      "id": 50321,
      "content": "<|mask:60|>",
      "single_word": false,
      "lstrip": false,
      "rstrip": false,
      "normalized": false,
      "special": true
    },
    {
      "id": 50322,
      "content": "<|mask:61|>",
      "single_word": false,
      "lstrip": false,
      "rstrip": false,
      "normalized": false,
      "special": true
    },
    {
      "id": 50323,
      "content": "<|mask:62|>",
      "single_word": false,
      "lstrip": false,
      "rstrip": false,
      "normalized": false,
      "special": true
    },
    {
      "id": 50324,
      "content": "<|mask:63|>",
      "single_word": false,
      "lstrip": false,
      "rstrip": false,
      "normalized": false,
      "special": true
    },
    {
      "id": 50325,
      "content": "<|mask:64|>",
      "single_word": false,
      "lstrip": false,
      "rstrip": false,
      "normalized": false,
      "special": true
    },
    {
      "id": 50326,
      "content": "<|mask:65|>",
      "single_word": false,
      "lstrip": false,
      "rstrip": false,
      "normalized": false,
      "special": true
    },
    {
      "id": 50327,
      "content": "<|mask:66|>",
      "single_word": false,
      "lstrip": false,
      "rstrip": false,
      "normalized": false,
      "special": true
    },
    {
      "id": 50328,
      "content": "<|mask:67|>",
      "single_word": false,
      "lstrip": false,
      "rstrip": false,
      "normalized": false,
      "special": true
    },
    {
      "id": 50329,
      "content": "<|mask:68|>",
      "single_word": false,
      "lstrip": false,
      "rstrip": false,
      "normalized": false,
      "special": true
    },
    {
      "id": 50330,
      "content": "<|mask:69|>",
      "single_word": false,
      "lstrip": false,
      "rstrip": false,
      "normalized": false,
      "special": true
    },
    {
      "id": 50331,
      "content": "<|mask:70|>",
      "single_word": false,
      "lstrip": false,
      "rstrip": false,
      "normalized": false,
      "special": true
    },
    {
      "id": 50332,
      "content": "<|mask:71|>",
      "single_word": false,
      "lstrip": false,
      "rstrip": false,
      "normalized": false,
      "special": true
    },
    {
      "id": 50333,
      "content": "<|mask:72|>",
      "single_word": false,
      "lstrip": false,
      "rstrip": false,
      "normalized": false,
      "special": true
    },
    {
      "id": 50334,
      "content": "<|mask:73|>",
      "single_word": false,
      "lstrip": false,
      "rstrip": false,
      "normalized": false,
      "special": true
    },
    {
      "id": 50335,
      "content": "<|mask:74|>",
      "single_word": false,
      "lstrip": false,
      "rstrip": false,
      "normalized": false,
      "special": true
    },
    {
      "id": 50336,
      "content": "<|mask:75|>",
      "single_word": false,
      "lstrip": false,
      "rstrip": false,
      "normalized": false,
      "special": true
    },
    {
      "id": 50337,
      "content": "<|mask:76|>",
      "single_word": false,
      "lstrip": false,
      "rstrip": false,
      "normalized": false,
      "special": true
    },
    {
      "id": 50338,
      "content": "<|mask:77|>",
      "single_word": false,
      "lstrip": false,
      "rstrip": false,
      "normalized": false,
      "special": true
    },
    {
      "id": 50339,
      "content": "<|mask:78|>",
      "single_word": false,
      "lstrip": false,
      "rstrip": false,
      "normalized": false,
      "special": true
    },
    {
      "id": 50340,
      "content": "<|mask:79|>",
      "single_word": false,
      "lstrip": false,
      "rstrip": false,
      "normalized": false,
      "special": true
    },
    {
      "id": 50341,
      "content": "<|mask:80|>",
      "single_word": false,
      "lstrip": false,
      "rstrip": false,
      "normalized": false,
      "special": true
    },
    {
      "id": 50342,
      "content": "<|mask:81|>",
      "single_word": false,
      "lstrip": false,
      "rstrip": false,
      "normalized": false,
      "special": true
    },
    {
      "id": 50343,
      "content": "<|mask:82|>",
      "single_word": false,
      "lstrip": false,
      "rstrip": false,
      "normalized": false,
      "special": true
    },
    {
      "id": 50344,
      "content": "<|mask:83|>",
      "single_word": false,
      "lstrip": false,
      "rstrip": false,
      "normalized": false,
      "special": true
    },
    {
      "id": 50345,
      "content": "<|mask:84|>",
      "single_word": false,
      "lstrip": false,
      "rstrip": false,
      "normalized": false,
      "special": true
    },
    {
      "id": 50346,
      "content": "<|mask:85|>",
      "single_word": false,
      "lstrip": false,
      "rstrip": false,
      "normalized": false,
      "special": true
    },
    {
      "id": 50347,
      "content": "<|mask:86|>",
      "single_word": false,
      "lstrip": false,
      "rstrip": false,
      "normalized": false,
      "special": true
    },
    {
      "id": 50348,
      "content": "<|mask:87|>",
      "single_word": false,
      "lstrip": false,
      "rstrip": false,
      "normalized": false,
      "special": true
    },
    {
      "id": 50349,
      "content": "<|mask:88|>",
      "single_word": false,
      "lstrip": false,
      "rstrip": false,
      "normalized": false,
      "special": true
    },
    {
      "id": 50350,
      "content": "<|mask:89|>",
      "single_word": false,
      "lstrip": false,
      "rstrip": false,
      "normalized": false,
      "special": true
    },
    {
      "id": 50351,
      "content": "<|mask:90|>",
      "single_word": false,
      "lstrip": false,
      "rstrip": false,
      "normalized": false,
      "special": true
    },
    {
      "id": 50352,
      "content": "<|mask:91|>",
      "single_word": false,
      "lstrip": false,
      "rstrip": false,
      "normalized": false,
      "special": true
    },
    {
      "id": 50353,
      "content": "<|mask:92|>",
      "single_word": false,
      "lstrip": false,
      "rstrip": false,
      "normalized": false,
      "special": true
    },
    {
      "id": 50354,
      "content": "<|mask:93|>",
      "single_word": false,
      "lstrip": false,
      "rstrip": false,
      "normalized": false,
      "special": true
    },
    {
      "id": 50355,
      "content": "<|mask:94|>",
      "single_word": false,
      "lstrip": false,
      "rstrip": false,
      "normalized": false,
      "special": true
    },
    {
      "id": 50356,
      "content": "<|mask:95|>",
      "single_word": false,
      "lstrip": false,
      "rstrip": false,
      "normalized": false,
      "special": true
    },
    {
      "id": 50357,
      "content": "<|mask:96|>",
      "single_word": false,
      "lstrip": false,
      "rstrip": false,
      "normalized": false,
      "special": true
    },
    {
      "id": 50358,
      "content": "<|mask:97|>",
      "single_word": false,
      "lstrip": false,
      "rstrip": false,
      "normalized": false,
      "special": true
    },
    {
      "id": 50359,
      "content": "<|mask:98|>",
      "single_word": false,
      "lstrip": false,
      "rstrip": false,
      "normalized": false,
      "special": true
    },
    {
      "id": 50360,
      "content": "<|mask:99|>",
      "single_word": false,
      "lstrip": false,
      "rstrip": false,
      "normalized": false,
      "special": true
    },
    {
      "id": 50361,
      "content": "<|mask:100|>",
      "single_word": false,
      "lstrip": false,
      "rstrip": false,
      "normalized": false,
      "special": true
    },
    {
      "id": 50362,
      "content": "<|mask:101|>",
      "single_word": false,
      "lstrip": false,
      "rstrip": false,
      "normalized": false,
      "special": true
    },
    {
      "id": 50363,
      "content": "<|mask:102|>",
      "single_word": false,
      "lstrip": false,
      "rstrip": false,
      "normalized": false,
      "special": true
    },
    {
      "id": 50364,
      "content": "<|mask:103|>",
      "single_word": false,
      "lstrip": false,
      "rstrip": false,
      "normalized": false,
      "special": true
    },
    {
      "id": 50365,
      "content": "<|mask:104|>",
      "single_word": false,
      "lstrip": false,
      "rstrip": false,
      "normalized": false,
      "special": true
    },
    {
      "id": 50366,
      "content": "<|mask:105|>",
      "single_word": false,
      "lstrip": false,
      "rstrip": false,
      "normalized": false,
      "special": true
    },
    {
      "id": 50367,
      "content": "<|mask:106|>",
      "single_word": false,
      "lstrip": false,
      "rstrip": false,
      "normalized": false,
      "special": true
    },
    {
      "id": 50368,
      "content": "<|mask:107|>",
      "single_word": false,
      "lstrip": false,
      "rstrip": false,
      "normalized": false,
      "special": true
    },
    {
      "id": 50369,
      "content": "<|mask:108|>",
      "single_word": false,
      "lstrip": false,
      "rstrip": false,
      "normalized": false,
      "special": true
    },
    {
      "id": 50370,
      "content": "<|mask:109|>",
      "single_word": false,
      "lstrip": false,
      "rstrip": false,
      "normalized": false,
      "special": true
    },
    {
      "id": 50371,
      "content": "<|mask:110|>",
      "single_word": false,
      "lstrip": false,
      "rstrip": false,
      "normalized": false,
      "special": true
    },
    {
      "id": 50372,
      "content": "<|mask:111|>",
      "single_word": false,
      "lstrip": false,
      "rstrip": false,
      "normalized": false,
      "special": true
    },
    {
      "id": 50373,
      "content": "<|mask:112|>",
      "single_word": false,
      "lstrip": false,
      "rstrip": false,
      "normalized": false,
      "special": true
    },
    {
      "id": 50374,
      "content": "<|mask:113|>",
      "single_word": false,
      "lstrip": false,
      "rstrip": false,
      "normalized": false,
      "special": true
    },
    {
      "id": 50375,
      "content": "<|mask:114|>",
      "single_word": false,
      "lstrip": false,
      "rstrip": false,
      "normalized": false,
      "special": true
    },
    {
      "id": 50376,
      "content": "<|mask:115|>",
      "single_word": false,
      "lstrip": false,
      "rstrip": false,
      "normalized": false,
      "special": true
    },
    {
      "id": 50377,
      "content": "<|mask:116|>",
      "single_word": false,
      "lstrip": false,
      "rstrip": false,
      "normalized": false,
      "special": true
    },
    {
      "id": 50378,
      "content": "<|mask:117|>",
      "single_word": false,
      "lstrip": false,
      "rstrip": false,
      "normalized": false,
      "special": true
    },
    {
      "id": 50379,
      "content": "<|mask:118|>",
      "single_word": false,
      "lstrip": false,
      "rstrip": false,
      "normalized": false,
      "special": true
    },
    {
      "id": 50380,
      "content": "<|mask:119|>",
      "single_word": false,
      "lstrip": false,
      "rstrip": false,
      "normalized": false,
      "special": true
    },
    {
      "id": 50381,
      "content": "<|mask:120|>",
      "single_word": false,
      "lstrip": false,
      "rstrip": false,
      "normalized": false,
      "special": true
    },
    {
      "id": 50382,
      "content": "<|mask:121|>",
      "single_word": false,
      "lstrip": false,
      "rstrip": false,
      "normalized": false,
      "special": true
    },
    {
      "id": 50383,
      "content": "<|mask:122|>",
      "single_word": false,
      "lstrip": false,
      "rstrip": false,
      "normalized": false,
      "special": true
    },
    {
      "id": 50384,
      "content": "<|mask:123|>",
      "single_word": false,
      "lstrip": false,
      "rstrip": false,
      "normalized": false,
      "special": true
    },
    {
      "id": 50385,
      "content": "<|mask:124|>",
      "single_word": false,
      "lstrip": false,
      "rstrip": false,
      "normalized": false,
      "special": true
    },
    {
      "id": 50386,
      "content": "<|mask:125|>",
      "single_word": false,
      "lstrip": false,
      "rstrip": false,
      "normalized": false,
      "special": true
    },
    {
      "id": 50387,
      "content": "<|mask:126|>",
      "single_word": false,
      "lstrip": false,
      "rstrip": false,
      "normalized": false,
      "special": true
    },
    {
      "id": 50388,
      "content": "<|mask:127|>",
      "single_word": false,
      "lstrip": false,
      "rstrip": false,
      "normalized": false,
      "special": true
    },
    {
      "id": 50389,
      "content": "<|mask:128|>",
      "single_word": false,
      "lstrip": false,
      "rstrip": false,
      "normalized": false,
      "special": true
    },
    {
      "id": 50390,
      "content": "<|mask:129|>",
      "single_word": false,
      "lstrip": false,
      "rstrip": false,
      "normalized": false,
      "special": true
    },
    {
      "id": 50391,
      "content": "<|mask:130|>",
      "single_word": false,
      "lstrip": false,
      "rstrip": false,
      "normalized": false,
      "special": true
    },
    {
      "id": 50392,
      "content": "<|mask:131|>",
      "single_word": false,
      "lstrip": false,
      "rstrip": false,
      "normalized": false,
      "special": true
    },
    {
      "id": 50393,
      "content": "<|mask:132|>",
      "single_word": false,
      "lstrip": false,
      "rstrip": false,
      "normalized": false,
      "special": true
    },
    {
      "id": 50394,
      "content": "<|mask:133|>",
      "single_word": false,
      "lstrip": false,
      "rstrip": false,
      "normalized": false,
      "special": true
    },
    {
      "id": 50395,
      "content": "<|mask:134|>",
      "single_word": false,
      "lstrip": false,
      "rstrip": false,
      "normalized": false,
      "special": true
    },
    {
      "id": 50396,
      "content": "<|mask:135|>",
      "single_word": false,
      "lstrip": false,
      "rstrip": false,
      "normalized": false,
      "special": true
    },
    {
      "id": 50397,
      "content": "<|mask:136|>",
      "single_word": false,
      "lstrip": false,
      "rstrip": false,
      "normalized": false,
      "special": true
    },
    {
      "id": 50398,
      "content": "<|mask:137|>",
      "single_word": false,
      "lstrip": false,
      "rstrip": false,
      "normalized": false,
      "special": true
    },
    {
      "id": 50399,
      "content": "<|mask:138|>",
      "single_word": false,
      "lstrip": false,
      "rstrip": false,
      "normalized": false,
      "special": true
    },
    {
      "id": 50400,
      "content": "<|mask:139|>",
      "single_word": false,
      "lstrip": false,
      "rstrip": false,
      "normalized": false,
      "special": true
    },
    {
      "id": 50401,
      "content": "<|mask:140|>",
      "single_word": false,
      "lstrip": false,
      "rstrip": false,
      "normalized": false,
      "special": true
    },
    {
      "id": 50402,
      "content": "<|mask:141|>",
      "single_word": false,
      "lstrip": false,
      "rstrip": false,
      "normalized": false,
      "special": true
    },
    {
      "id": 50403,
      "content": "<|mask:142|>",
      "single_word": false,
      "lstrip": false,
      "rstrip": false,
      "normalized": false,
      "special": true
    },
    {
      "id": 50404,
      "content": "<|mask:143|>",
      "single_word": false,
      "lstrip": false,
      "rstrip": false,
      "normalized": false,
      "special": true
    },
    {
      "id": 50405,
      "content": "<|mask:144|>",
      "single_word": false,
      "lstrip": false,
      "rstrip": false,
      "normalized": false,
      "special": true
    },
    {
      "id": 50406,
      "content": "<|mask:145|>",
      "single_word": false,
      "lstrip": false,
      "rstrip": false,
      "normalized": false,
      "special": true
    },
    {
      "id": 50407,
      "content": "<|mask:146|>",
      "single_word": false,
      "lstrip": false,
      "rstrip": false,
      "normalized": false,
      "special": true
    },
    {
      "id": 50408,
      "content": "<|mask:147|>",
      "single_word": false,
      "lstrip": false,
      "rstrip": false,
      "normalized": false,
      "special": true
    },
    {
      "id": 50409,
      "content": "<|mask:148|>",
      "single_word": false,
      "lstrip": false,
      "rstrip": false,
      "normalized": false,
      "special": true
    },
    {
      "id": 50410,
      "content": "<|mask:149|>",
      "single_word": false,
      "lstrip": false,
      "rstrip": false,
      "normalized": false,
      "special": true
    },
    {
      "id": 50411,
      "content": "<|mask:150|>",
      "single_word": false,
      "lstrip": false,
      "rstrip": false,
      "normalized": false,
      "special": true
    },
    {
      "id": 50412,
      "content": "<|mask:151|>",
      "single_word": false,
      "lstrip": false,
      "rstrip": false,
      "normalized": false,
      "special": true
    },
    {
      "id": 50413,
      "content": "<|mask:152|>",
      "single_word": false,
      "lstrip": false,
      "rstrip": false,
      "normalized": false,
      "special": true
    },
    {
      "id": 50414,
      "content": "<|mask:153|>",
      "single_word": false,
      "lstrip": false,
      "rstrip": false,
      "normalized": false,
      "special": true
    },
    {
      "id": 50415,
      "content": "<|mask:154|>",
      "single_word": false,
      "lstrip": false,
      "rstrip": false,
      "normalized": false,
      "special": true
    },
    {
      "id": 50416,
      "content": "<|mask:155|>",
      "single_word": false,
      "lstrip": false,
      "rstrip": false,
      "normalized": false,
      "special": true
    },
    {
      "id": 50417,
      "content": "<|mask:156|>",
      "single_word": false,
      "lstrip": false,
      "rstrip": false,
      "normalized": false,
      "special": true
    },
    {
      "id": 50418,
      "content": "<|mask:157|>",
      "single_word": false,
      "lstrip": false,
      "rstrip": false,
      "normalized": false,
      "special": true
    },
    {
      "id": 50419,
      "content": "<|mask:158|>",
      "single_word": false,
      "lstrip": false,
      "rstrip": false,
      "normalized": false,
      "special": true
    },
    {
      "id": 50420,
      "content": "<|mask:159|>",
      "single_word": false,
      "lstrip": false,
      "rstrip": false,
      "normalized": false,
      "special": true
    },
    {
      "id": 50421,
      "content": "<|mask:160|>",
      "single_word": false,
      "lstrip": false,
      "rstrip": false,
      "normalized": false,
      "special": true
    },
    {
      "id": 50422,
      "content": "<|mask:161|>",
      "single_word": false,
      "lstrip": false,
      "rstrip": false,
      "normalized": false,
      "special": true
    },
    {
      "id": 50423,
      "content": "<|mask:162|>",
      "single_word": false,
      "lstrip": false,
      "rstrip": false,
      "normalized": false,
      "special": true
    },
    {
      "id": 50424,
      "content": "<|mask:163|>",
      "single_word": false,
      "lstrip": false,
      "rstrip": false,
      "normalized": false,
      "special": true
    },
    {
      "id": 50425,
      "content": "<|mask:164|>",
      "single_word": false,
      "lstrip": false,
      "rstrip": false,
      "normalized": false,
      "special": true
    },
    {
      "id": 50426,
      "content": "<|mask:165|>",
      "single_word": false,
      "lstrip": false,
      "rstrip": false,
      "normalized": false,
      "special": true
    },
    {
      "id": 50427,
      "content": "<|mask:166|>",
      "single_word": false,
      "lstrip": false,
      "rstrip": false,
      "normalized": false,
      "special": true
    },
    {
      "id": 50428,
      "content": "<|mask:167|>",
      "single_word": false,
      "lstrip": false,
      "rstrip": false,
      "normalized": false,
      "special": true
    },
    {
      "id": 50429,
      "content": "<|mask:168|>",
      "single_word": false,
      "lstrip": false,
      "rstrip": false,
      "normalized": false,
      "special": true
    },
    {
      "id": 50430,
      "content": "<|mask:169|>",
      "single_word": false,
      "lstrip": false,
      "rstrip": false,
      "normalized": false,
      "special": true
    },
    {
      "id": 50431,
      "content": "<|mask:170|>",
      "single_word": false,
      "lstrip": false,
      "rstrip": false,
      "normalized": false,
      "special": true
    },
    {
      "id": 50432,
      "content": "<|mask:171|>",
      "single_word": false,
      "lstrip": false,
      "rstrip": false,
      "normalized": false,
      "special": true
    },
    {
      "id": 50433,
      "content": "<|mask:172|>",
      "single_word": false,
      "lstrip": false,
      "rstrip": false,
      "normalized": false,
      "special": true
    },
    {
      "id": 50434,
      "content": "<|mask:173|>",
      "single_word": false,
      "lstrip": false,
      "rstrip": false,
      "normalized": false,
      "special": true
    },
    {
      "id": 50435,
      "content": "<|mask:174|>",
      "single_word": false,
      "lstrip": false,
      "rstrip": false,
      "normalized": false,
      "special": true
    },
    {
      "id": 50436,
      "content": "<|mask:175|>",
      "single_word": false,
      "lstrip": false,
      "rstrip": false,
      "normalized": false,
      "special": true
    },
    {
      "id": 50437,
      "content": "<|mask:176|>",
      "single_word": false,
      "lstrip": false,
      "rstrip": false,
      "normalized": false,
      "special": true
    },
    {
      "id": 50438,
      "content": "<|mask:177|>",
      "single_word": false,
      "lstrip": false,
      "rstrip": false,
      "normalized": false,
      "special": true
    },
    {
      "id": 50439,
      "content": "<|mask:178|>",
      "single_word": false,
      "lstrip": false,
      "rstrip": false,
      "normalized": false,
      "special": true
    },
    {
      "id": 50440,
      "content": "<|mask:179|>",
      "single_word": false,
      "lstrip": false,
      "rstrip": false,
      "normalized": false,
      "special": true
    },
    {
      "id": 50441,
      "content": "<|mask:180|>",
      "single_word": false,
      "lstrip": false,
      "rstrip": false,
      "normalized": false,
      "special": true
    },
    {
      "id": 50442,
      "content": "<|mask:181|>",
      "single_word": false,
      "lstrip": false,
      "rstrip": false,
      "normalized": false,
      "special": true
    },
    {
      "id": 50443,
      "content": "<|mask:182|>",
      "single_word": false,
      "lstrip": false,
      "rstrip": false,
      "normalized": false,
      "special": true
    },
    {
      "id": 50444,
      "content": "<|mask:183|>",
      "single_word": false,
      "lstrip": false,
      "rstrip": false,
      "normalized": false,
      "special": true
    },
    {
      "id": 50445,
      "content": "<|mask:184|>",
      "single_word": false,
      "lstrip": false,
      "rstrip": false,
      "normalized": false,
      "special": true
    },
    {
      "id": 50446,
      "content": "<|mask:185|>",
      "single_word": false,
      "lstrip": false,
      "rstrip": false,
      "normalized": false,
      "special": true
    },
    {
      "id": 50447,
      "content": "<|mask:186|>",
      "single_word": false,
      "lstrip": false,
      "rstrip": false,
      "normalized": false,
      "special": true
    },
    {
      "id": 50448,
      "content": "<|mask:187|>",
      "single_word": false,
      "lstrip": false,
      "rstrip": false,
      "normalized": false,
      "special": true
    },
    {
      "id": 50449,
      "content": "<|mask:188|>",
      "single_word": false,
      "lstrip": false,
      "rstrip": false,
      "normalized": false,
      "special": true
    },
    {
      "id": 50450,
      "content": "<|mask:189|>",
      "single_word": false,
      "lstrip": false,
      "rstrip": false,
      "normalized": false,
      "special": true
    },
    {
      "id": 50451,
      "content": "<|mask:190|>",
      "single_word": false,
      "lstrip": false,
      "rstrip": false,
      "normalized": false,
      "special": true
    },
    {
      "id": 50452,
      "content": "<|mask:191|>",
      "single_word": false,
      "lstrip": false,
      "rstrip": false,
      "normalized": false,
      "special": true
    },
    {
      "id": 50453,
      "content": "<|mask:192|>",
      "single_word": false,
      "lstrip": false,
      "rstrip": false,
      "normalized": false,
      "special": true
    },
    {
      "id": 50454,
      "content": "<|mask:193|>",
      "single_word": false,
      "lstrip": false,
      "rstrip": false,
      "normalized": false,
      "special": true
    },
    {
      "id": 50455,
      "content": "<|mask:194|>",
      "single_word": false,
      "lstrip": false,
      "rstrip": false,
      "normalized": false,
      "special": true
    },
    {
      "id": 50456,
      "content": "<|mask:195|>",
      "single_word": false,
      "lstrip": false,
      "rstrip": false,
      "normalized": false,
      "special": true
    },
    {
      "id": 50457,
      "content": "<|mask:196|>",
      "single_word": false,
      "lstrip": false,
      "rstrip": false,
      "normalized": false,
      "special": true
    },
    {
      "id": 50458,
      "content": "<|mask:197|>",
      "single_word": false,
      "lstrip": false,
      "rstrip": false,
      "normalized": false,
      "special": true
    },
    {
      "id": 50459,
      "content": "<|mask:198|>",
      "single_word": false,
      "lstrip": false,
      "rstrip": false,
      "normalized": false,
      "special": true
    },
    {
      "id": 50460,
      "content": "<|mask:199|>",
      "single_word": false,
      "lstrip": false,
      "rstrip": false,
      "normalized": false,
      "special": true
    },
    {
      "id": 50461,
      "content": "<|mask:200|>",
      "single_word": false,
      "lstrip": false,
      "rstrip": false,
      "normalized": false,
      "special": true
    },
    {
      "id": 50462,
      "content": "<|mask:201|>",
      "single_word": false,
      "lstrip": false,
      "rstrip": false,
      "normalized": false,
      "special": true
    },
    {
      "id": 50463,
      "content": "<|mask:202|>",
      "single_word": false,
      "lstrip": false,
      "rstrip": false,
      "normalized": false,
      "special": true
    },
    {
      "id": 50464,
      "content": "<|mask:203|>",
      "single_word": false,
      "lstrip": false,
      "rstrip": false,
      "normalized": false,
      "special": true
    },
    {
      "id": 50465,
      "content": "<|mask:204|>",
      "single_word": false,
      "lstrip": false,
      "rstrip": false,
      "normalized": false,
      "special": true
    },
    {
      "id": 50466,
      "content": "<|mask:205|>",
      "single_word": false,
      "lstrip": false,
      "rstrip": false,
      "normalized": false,
      "special": true
    },
    {
      "id": 50467,
      "content": "<|mask:206|>",
      "single_word": false,
      "lstrip": false,
      "rstrip": false,
      "normalized": false,
      "special": true
    },
    {
      "id": 50468,
      "content": "<|mask:207|>",
      "single_word": false,
      "lstrip": false,
      "rstrip": false,
      "normalized": false,
      "special": true
    },
    {
      "id": 50469,
      "content": "<|mask:208|>",
      "single_word": false,
      "lstrip": false,
      "rstrip": false,
      "normalized": false,
      "special": true
    },
    {
      "id": 50470,
      "content": "<|mask:209|>",
      "single_word": false,
      "lstrip": false,
      "rstrip": false,
      "normalized": false,
      "special": true
    },
    {
      "id": 50471,
      "content": "<|mask:210|>",
      "single_word": false,
      "lstrip": false,
      "rstrip": false,
      "normalized": false,
      "special": true
    },
    {
      "id": 50472,
      "content": "<|mask:211|>",
      "single_word": false,
      "lstrip": false,
      "rstrip": false,
      "normalized": false,
      "special": true
    },
    {
      "id": 50473,
      "content": "<|mask:212|>",
      "single_word": false,
      "lstrip": false,
      "rstrip": false,
      "normalized": false,
      "special": true
    },
    {
      "id": 50474,
      "content": "<|mask:213|>",
      "single_word": false,
      "lstrip": false,
      "rstrip": false,
      "normalized": false,
      "special": true
    },
    {
      "id": 50475,
      "content": "<|mask:214|>",
      "single_word": false,
      "lstrip": false,
      "rstrip": false,
      "normalized": false,
      "special": true
    },
    {
      "id": 50476,
      "content": "<|mask:215|>",
      "single_word": false,
      "lstrip": false,
      "rstrip": false,
      "normalized": false,
      "special": true
    },
    {
      "id": 50477,
      "content": "<|mask:216|>",
      "single_word": false,
      "lstrip": false,
      "rstrip": false,
      "normalized": false,
      "special": true
    },
    {
      "id": 50478,
      "content": "<|mask:217|>",
      "single_word": false,
      "lstrip": false,
      "rstrip": false,
      "normalized": false,
      "special": true
    },
    {
      "id": 50479,
      "content": "<|mask:218|>",
      "single_word": false,
      "lstrip": false,
      "rstrip": false,
      "normalized": false,
      "special": true
    },
    {
      "id": 50480,
      "content": "<|mask:219|>",
      "single_word": false,
      "lstrip": false,
      "rstrip": false,
      "normalized": false,
      "special": true
    },
    {
      "id": 50481,
      "content": "<|mask:220|>",
      "single_word": false,
      "lstrip": false,
      "rstrip": false,
      "normalized": false,
      "special": true
    },
    {
      "id": 50482,
      "content": "<|mask:221|>",
      "single_word": false,
      "lstrip": false,
      "rstrip": false,
      "normalized": false,
      "special": true
    },
    {
      "id": 50483,
      "content": "<|mask:222|>",
      "single_word": false,
      "lstrip": false,
      "rstrip": false,
      "normalized": false,
      "special": true
    },
    {
      "id": 50484,
      "content": "<|mask:223|>",
      "single_word": false,
      "lstrip": false,
      "rstrip": false,
      "normalized": false,
      "special": true
    },
    {
      "id": 50485,
      "content": "<|mask:224|>",
      "single_word": false,
      "lstrip": false,
      "rstrip": false,
      "normalized": false,
      "special": true
    },
    {
      "id": 50486,
      "content": "<|mask:225|>",
      "single_word": false,
      "lstrip": false,
      "rstrip": false,
      "normalized": false,
      "special": true
    },
    {
      "id": 50487,
      "content": "<|mask:226|>",
      "single_word": false,
      "lstrip": false,
      "rstrip": false,
      "normalized": false,
      "special": true
    },
    {
      "id": 50488,
      "content": "<|mask:227|>",
      "single_word": false,
      "lstrip": false,
      "rstrip": false,
      "normalized": false,
      "special": true
    },
    {
      "id": 50489,
      "content": "<|mask:228|>",
      "single_word": false,
      "lstrip": false,
      "rstrip": false,
      "normalized": false,
      "special": true
    },
    {
      "id": 50490,
      "content": "<|mask:229|>",
      "single_word": false,
      "lstrip": false,
      "rstrip": false,
      "normalized": false,
      "special": true
    },
    {
      "id": 50491,
      "content": "<|mask:230|>",
      "single_word": false,
      "lstrip": false,
      "rstrip": false,
      "normalized": false,
      "special": true
    },
    {
      "id": 50492,
      "content": "<|mask:231|>",
      "single_word": false,
      "lstrip": false,
      "rstrip": false,
      "normalized": false,
      "special": true
    },
    {
      "id": 50493,
      "content": "<|mask:232|>",
      "single_word": false,
      "lstrip": false,
      "rstrip": false,
      "normalized": false,
      "special": true
    },
    {
      "id": 50494,
      "content": "<|mask:233|>",
      "single_word": false,
      "lstrip": false,
      "rstrip": false,
      "normalized": false,
      "special": true
    },
    {
      "id": 50495,
      "content": "<|mask:234|>",
      "single_word": false,
      "lstrip": false,
      "rstrip": false,
      "normalized": false,
      "special": true
    },
    {
      "id": 50496,
      "content": "<|mask:235|>",
      "single_word": false,
      "lstrip": false,
      "rstrip": false,
      "normalized": false,
      "special": true
    },
    {
      "id": 50497,
      "content": "<|mask:236|>",
      "single_word": false,
      "lstrip": false,
      "rstrip": false,
      "normalized": false,
      "special": true
    },
    {
      "id": 50498,
      "content": "<|mask:237|>",
      "single_word": false,
      "lstrip": false,
      "rstrip": false,
      "normalized": false,
      "special": true
    },
    {
      "id": 50499,
      "content": "<|mask:238|>",
      "single_word": false,
      "lstrip": false,
      "rstrip": false,
      "normalized": false,
      "special": true
    },
    {
      "id": 50500,
      "content": "<|mask:239|>",
      "single_word": false,
      "lstrip": false,
      "rstrip": false,
      "normalized": false,
      "special": true
    },
    {
      "id": 50501,
      "content": "<|mask:240|>",
      "single_word": false,
      "lstrip": false,
      "rstrip": false,
      "normalized": false,
      "special": true
    },
    {
      "id": 50502,
      "content": "<|mask:241|>",
      "single_word": false,
      "lstrip": false,
      "rstrip": false,
      "normalized": false,
      "special": true
    },
    {
      "id": 50503,
      "content": "<|mask:242|>",
      "single_word": false,
      "lstrip": false,
      "rstrip": false,
      "normalized": false,
      "special": true
    },
    {
      "id": 50504,
      "content": "<|mask:243|>",
      "single_word": false,
      "lstrip": false,
      "rstrip": false,
      "normalized": false,
      "special": true
    },
    {
      "id": 50505,
      "content": "<|mask:244|>",
      "single_word": false,
      "lstrip": false,
      "rstrip": false,
      "normalized": false,
      "special": true
    },
    {
      "id": 50506,
      "content": "<|mask:245|>",
      "single_word": false,
      "lstrip": false,
      "rstrip": false,
      "normalized": false,
      "special": true
    },
    {
      "id": 50507,
      "content": "<|mask:246|>",
      "single_word": false,
      "lstrip": false,
      "rstrip": false,
      "normalized": false,
      "special": true
    },
    {
      "id": 50508,
      "content": "<|mask:247|>",
      "single_word": false,
      "lstrip": false,
      "rstrip": false,
      "normalized": false,
      "special": true
    },
    {
      "id": 50509,
      "content": "<|mask:248|>",
      "single_word": false,
      "lstrip": false,
      "rstrip": false,
      "normalized": false,
      "special": true
    },
    {
      "id": 50510,
      "content": "<|mask:249|>",
      "single_word": false,
      "lstrip": false,
      "rstrip": false,
      "normalized": false,
      "special": true
    },
    {
      "id": 50511,
      "content": "<|mask:250|>",
      "single_word": false,
      "lstrip": false,
      "rstrip": false,
      "normalized": false,
      "special": true
    },
    {
      "id": 50512,
      "content": "<|mask:251|>",
      "single_word": false,
      "lstrip": false,
      "rstrip": false,
      "normalized": false,
      "special": true
    },
    {
      "id": 50513,
      "content": "<|mask:252|>",
      "single_word": false,
      "lstrip": false,
      "rstrip": false,
      "normalized": false,
      "special": true
    },
    {
      "id": 50514,
      "content": "<|mask:253|>",
      "single_word": false,
      "lstrip": false,
      "rstrip": false,
      "normalized": false,
      "special": true
    },
    {
      "id": 50515,
      "content": "<|mask:254|>",
      "single_word": false,
      "lstrip": false,
      "rstrip": false,
      "normalized": false,
      "special": true
    },
    {
      "id": 50516,
      "content": "<|mask:255|>",
      "single_word": false,
      "lstrip": false,
      "rstrip": false,
      "normalized": false,
      "special": true
    },
    {
      "id": 50517,
      "content": "<|endofmask|>",
      "single_word": false,
      "lstrip": false,
      "rstrip": false,
      "normalized": false,
      "special": true
    }
  ],
  "normalizer": null,
  "pre_tokenizer": {
    "type": "Sequence",
    "pretokenizers": [
      {
        "type": "Split",
        "pattern": {
          "Regex": "[\\r\\n]+"
        },
        "behavior": "Isolated",
        "invert": false
      },
      {
        "type": "ByteLevel",
        "add_prefix_space": false,
        "trim_offsets": true,
        "use_regex": false
      }
    ]
  },
  "post_processor": {
    "type": "TemplateProcessing",
    "single": [
      {
        "SpecialToken": {
          "id": "<|endoftext|>",
          "type_id": 0
        }
      },
      {
        "Sequence": {
          "id": "A",
          "type_id": 0
        }
      }
    ],
    "pair": [
      {
        "SpecialToken": {
          "id": "<|endoftext|>",
          "type_id": 0
        }
      },
      {
        "Sequence": {
          "id": "A",
          "type_id": 0
        }
      },
      {
        "SpecialToken": {
          "id": "<|endoftext|>",
          "type_id": 1
        }
      },
      {
        "Sequence": {
          "id": "B",
          "type_id": 1
        }
      }
    ],
    "special_tokens": {
      "<|endoftext|>": {
        "id": "<|endoftext|>",
        "ids": [
          2
        ],
        "tokens": [
          "<|endoftext|>"
        ]
      }
    }
  },
  "decoder": {
    "type": "ByteLevel",
    "add_prefix_space": true,
    "trim_offsets": true,
    "use_regex": true
  },
  "model": {
    "type": "BPE",
    "dropout": null,
    "unk_token": null,
    "continuing_subword_prefix": "",
    "end_of_word_suffix": "",
    "fuse_unk": false,
    "byte_fallback": false,
    "vocab": {
      "<s>": 0,
      "<pad>": 1,
      "<|endoftext|>": 2,
      "<unk>": 3,
      "<|": 4,
      "<|/": 5,
      "|>": 6,
      "!": 7,
      "\"": 8,
      "#": 9,
      "$": 10,
      "%": 11,
      "&": 12,
      "'": 13,
      "(": 14,
      ")": 15,
      "*": 16,
      "+": 17,
      ",": 18,
      "-": 19,
      ".": 20,
      "/": 21,
      "0": 22,
      "1": 23,
      "2": 24,
      "3": 25,
      "4": 26,
      "5": 27,
      "6": 28,
      "7": 29,
      "8": 30,
      "9": 31,
      ":": 32,
      ";": 33,
      "<": 34,
      "=": 35,
      ">": 36,
      "?": 37,
      "@": 38,
      "A": 39,
      "B": 40,
      "C": 41,
      "D": 42,
      "E": 43,
      "F": 44,
      "G": 45,
      "H": 46,
      "I": 47,
      "J": 48,
      "K": 49,
      "L": 50,
      "M": 51,
      "N": 52,
      "O": 53,
      "P": 54,
      "Q": 55,
      "R": 56,
      "S": 57,
      "T": 58,
      "U": 59,
      "V": 60,
      "W": 61,
      "X": 62,
      "Y": 63,
      "Z": 64,
      "[": 65,
      "\\": 66,
      "]": 67,
      "^": 68,
      "_": 69,
      "`": 70,
      "a": 71,
      "b": 72,
      "c": 73,
      "d": 74,
      "e": 75,
      "f": 76,
      "g": 77,
      "h": 78,
      "i": 79,
      "j": 80,
      "k": 81,
      "l": 82,
      "m": 83,
      "n": 84,
      "o": 85,
      "p": 86,
      "q": 87,
      "r": 88,
      "s": 89,
      "t": 90,
      "u": 91,
      "v": 92,
      "w": 93,
      "x": 94,
      "y": 95,
      "z": 96,
      "{": 97,
      "|": 98,
      "}": 99,
      "~": 100,
      "¡": 101,
      "¢": 102,
      "£": 103,
      "¤": 104,
      "¥": 105,
      "¦": 106,
      "§": 107,
      "¨": 108,
      "©": 109,
      "ª": 110,
      "«": 111,
      "¬": 112,
      "®": 113,
      "¯": 114,
      "°": 115,
      "±": 116,
      "²": 117,
      "³": 118,
      "´": 119,
      "µ": 120,
      "¶": 121,
      "·": 122,
      "¸": 123,
      "¹": 124,
      "º": 125,
      "»": 126,
      "¼": 127,
      "½": 128,
      "¾": 129,
      "¿": 130,
      "À": 131,
      "Á": 132,
      "Â": 133,
      "Ã": 134,
      "Ä": 135,
      "Å": 136,
      "Æ": 137,
      "Ç": 138,
      "È": 139,
      "É": 140,
      "Ê": 141,
      "Ë": 142,
      "Ì": 143,
      "Í": 144,
      "Î": 145,
      "Ï": 146,
      "Ð": 147,
      "Ñ": 148,
      "Ò": 149,
      "Ó": 150,
      "Ô": 151,
      "Õ": 152,
      "Ö": 153,
      "×": 154,
      "Ø": 155,
      "Ù": 156,
      "Ú": 157,
      "Û": 158,
      "Ü": 159,
      "Ý": 160,
      "Þ": 161,
      "ß": 162,
      "à": 163,
      "á": 164,
      "â": 165,
      "ã": 166,
      "ä": 167,
      "å": 168,
      "æ": 169,
      "ç": 170,
      "è": 171,
      "é": 172,
      "ê": 173,
      "ë": 174,
      "ì": 175,
      "í": 176,
      "î": 177,
      "ï": 178,
      "ð": 179,
      "ñ": 180,
      "ò": 181,
      "ó": 182,
      "ô": 183,
      "õ": 184,
      "ö": 185,
      "÷": 186,
      "ø": 187,
      "ù": 188,
      "ú": 189,
      "û": 190,
      "ü": 191,
      "ý": 192,
      "þ": 193,
      "ÿ": 194,
      "Ā": 195,
      "ā": 196,
      "Ă": 197,
      "ă": 198,
      "Ą": 199,
      "ą": 200,
      "Ć": 201,
      "ć": 202,
      "Ĉ": 203,
      "ĉ": 204,
      "Ċ": 205,
      "ċ": 206,
      "Č": 207,
      "č": 208,
      "Ď": 209,
      "ď": 210,
      "Đ": 211,
      "đ": 212,
      "Ē": 213,
      "ē": 214,
      "Ĕ": 215,
      "ĕ": 216,
      "Ė": 217,
      "ė": 218,
      "Ę": 219,
      "ę": 220,
      "Ě": 221,
      "ě": 222,
      "Ĝ": 223,
      "ĝ": 224,
      "Ğ": 225,
      "ğ": 226,
      "Ġ": 227,
      "ġ": 228,
      "Ģ": 229,
      "ģ": 230,
      "Ĥ": 231,
      "ĥ": 232,
      "Ħ": 233,
      "ħ": 234,
      "Ĩ": 235,
      "ĩ": 236,
      "Ī": 237,
      "ī": 238,
      "Ĭ": 239,
      "ĭ": 240,
      "Į": 241,
      "į": 242,
      "İ": 243,
      "ı": 244,
      "Ĳ": 245,
      "ĳ": 246,
      "Ĵ": 247,
      "ĵ": 248,
      "Ķ": 249,
      "ķ": 250,
      "ĸ": 251,
      "Ĺ": 252,
      "ĺ": 253,
      "Ļ": 254,
      "ļ": 255,
      "Ľ": 256,
      "ľ": 257,
      "Ŀ": 258,
      "ŀ": 259,
      "Ł": 260,
      "ł": 261,
      "Ń": 262,
      "ĠĠ": 263,
      "ĠĠĠĠ": 264,
      "ĠĠĠĠĠĠĠĠ": 265,
      "in": 266,
      ",Ġ": 267,
      "se": 268,
      "re": 269,
      "on": 270,
      "=Ġ": 271,
      "at": 272,
      "er": 273,
      "\\x": 274,
      "Ġ=Ġ": 275,
      "or": 276,
      "eĠ": 277,
      "st": 278,
      "en": 279,
      "th": 280,
      "al": 281,
      "ar": 282,
      "de": 283,
      "ĊĊ": 284,
      "an": 285,
      "sĠ": 286,
      "tĠ": 287,
      "ĠĠĠĠĠĠĠĠĠĠĠĠĠĠĠĠ": 288,
      "ti": 289,
      "le": 290,
      "fĠ": 291,
      "ĠĠĠĠĠĠĠĠĠĠĠĠ": 292,
      "sel": 293,
      "ĉĉ": 294,
      "self": 295,
      "ro": 296,
      "--": 297,
      "me": 298,
      ":Ġ": 299,
      "te": 300,
      "dĠ": 301,
      "as": 302,
      "co": 303,
      "ur": 304,
      "self.": 305,
      "to": 306,
      ")Ġ": 307,
      "ing": 308,
      "ge": 309,
      "li": 310,
      "ch": 311,
      "lo": 312,
      "t_": 313,
      "mp": 314,
      "s.": 315,
      "ce": 316,
      "un": 317,
      "tion": 318,
      "di": 319,
      "fi": 320,
      "si": 321,
      "__": 322,
      "ra": 323,
      "theĠ": 324,
      "ct": 325,
      "pe": 326,
      "for": 327,
      "ri": 328,
      "ate": 329,
      "el": 330,
      "con": 331,
      "ad": 332,
      "ue": 333,
      "()": 334,
      "ifĠ": 335,
      "\"\"": 336,
      "ret": 337,
      "#Ġ": 338,
      "ul": 339,
      "ame": 340,
      "ut": 341,
      "ent": 342,
      "urn": 343,
      "id": 344,
      "ex": 345,
      "):": 346,
      "yĠ": 347,
      "cl": 348,
      "----": 349,
      "ck": 350,
      "ĠĠĠĠĉ": 351,
      "ati": 352,
      "čĊ": 353,
      "=\"": 354,
      "ĠĠĠĠĉa": 355,
      "return": 356,
      "ma": 357,
      "ter": 358,
      "mo": 359,
      "ab": 360,
      "00": 361,
      "no": 362,
      ");": 363,
      "ty": 364,
      "um": 365,
      "inĠ": 366,
      "ata": 367,
      "##": 368,
      "ction": 369,
      "sp": 370,
      "isĠ": 371,
      "returnĠ": 372,
      "Ġ*": 373,
      "ser": 374,
      "mĠ": 375,
      "val": 376,
      "tr": 377,
      "toĠ": 378,
      "',Ġ": 379,
      "defĠ": 380,
      "aĠ": 381,
      "clas": 382,
      "ation": 383,
      "==": 384,
      "</": 385,
      "s_": 386,
      "data": 387,
      "d_": 388,
      "('": 389,
      "sh": 390,
      "ingĠ": 391,
      "name": 392,
      "forĠ": 393,
      "py": 394,
      "pro": 395,
      "imp": 396,
      "la": 397,
      "il": 398,
      "ol": 399,
      "up": 400,
      "do": 401,
      "ne": 402,
      "ap": 403,
      "int": 404,
      "one": 405,
      "it": 406,
      "sĠ=Ġ": 407,
      "ofĠ": 408,
      "\"Ġ": 409,
      "str": 410,
      "qu": 411,
      "op": 412,
      "))": 413,
      ")Ġ{": 414,
      "//": 415,
      "par": 416,
      "impor": 417,
      "ĠĠĠĠĠĠ": 418,
      "seĠ": 419,
      "ver": 420,
      "ve": 421,
      "x_": 422,
      "ht": 423,
      "fro": 424,
      "po": 425,
      "importĠ": 426,
      "Ġ(": 427,
      "res": 428,
      "is": 429,
      "==Ġ": 430,
      "am": 431,
      "ke": 432,
      "\">": 433,
      "ĠĠĠĠĠĠĠĠself.": 434,
      "\"\"\"": 435,
      "+Ġ": 436,
      "set": 437,
      "(self": 438,
      "Ġ=Ġ3": 439,
      "')": 440,
      "arg": 441,
      "bo": 442,
      "class": 443,
      "fun": 444,
      "all": 445,
      "ĉĉĉĉ": 446,
      "erĠ": 447,
      "(\"": 448,
      "',": 449,
      "ath": 450,
      "ĠĠĠĠĉa1": 451,
      "bj": 452,
      "get": 453,
      "vi": 454,
      "andĠ": 455,
      "ĠĠĠĠĠĠĠĠĠĠĠĠĠĠĠĠĠĠĠĠ": 456,
      "Ġ;": 457,
      "ĠĠĠĠdefĠ": 458,
      "type": 459,
      "**": 460,
      "et": 461,
      "fa": 462,
      "s,Ġ": 463,
      "ine": 464,
      "mat": 465,
      "fromĠ": 466,
      "len": 467,
      "ze": 468,
      "bu": 469,
      "ig": 470,
      "ith": 471,
      "--------": 472,
      "ren": 473,
      "Ġ*Ġ": 474,
      "None": 475,
      "he": 476,
      "var": 477,
      "col": 478,
      "sc": 479,
      "In": 480,
      "function": 481,
      "del": 482,
      "pa": 483,
      "s(": 484,
      "orĠ": 485,
      "stĠ": 486,
      "\",Ġ": 487,
      "####": 488,
      "',Ġ'": 489,
      "reĠ": 490,
      "so": 491,
      "ta": 492,
      "ff": 493,
      "out": 494,
      "class=\"": 495,
      "anĠ": 496,
      "10": 497,
      "']": 498,
      "end": 499,
      "['": 500,
      "pu": 501,
      "ĠĠĠ": 502,
      "per": 503,
      "sa": 504,
      "ba": 505,
      "xt": 506,
      "value": 507,
      "pre": 508,
      "notĠ": 509,
      "\",": 510,
      "20": 511,
      ">Ġ": 512,
      "ed": 513,
      "st_": 514,
      "sion": 515,
      "\\x3": 516,
      "path": 517,
      "ult": 518,
      "p.": 519,
      "ou": 520,
      "Re": 521,
      "\")": 522,
      "with": 523,
      "leĠ": 524,
      ".Ġ": 525,
      "file": 526,
      "ord": 527,
      "asĠ": 528,
      "':Ġ": 529,
      "able": 530,
      "\\x7": 531,
      "fo": 532,
      "12": 533,
      "bje": 534,
      "\\x0": 535,
      "ĊĊĊ": 536,
      "y_": 537,
      "and": 538,
      "0.": 539,
      "\\x9": 540,
      "su": 541,
      "-Ġ": 542,
      "\\xe": 543,
      "((": 544,
      "ac": 545,
      "0,Ġ": 546,
      "'Ġ": 547,
      "che": 548,
      "\\x8": 549,
      "Tr": 550,
      "ment": 551,
      "pr": 552,
      "\\x6": 553,
      "\\xc": 554,
      "Th": 555,
      "\\xf": 556,
      "s[": 557,
      "ror": 558,
      "1,Ġ": 559,
      "\\xd": 560,
      "tra": 561,
      "\\xb": 562,
      "ĠĠĠĠĠĠĠĠifĠ": 563,
      "log": 564,
      "num": 565,
      "ci": 566,
      "\\x4": 567,
      "put": 568,
      "time": 569,
      "model": 570,
      "\\x5": 571,
      "16": 572,
      "ic": 573,
      "IN": 574,
      "wĠ": 575,
      "ref": 576,
      "we": 577,
      "asser": 578,
      "ĉĉĉ": 579,
      "size": 580,
      "app": 581,
      "<<": 582,
      "====": 583,
      "atĠ": 584,
      "text": 585,
      "\\x2": 586,
      "fig": 587,
      "s)": 588,
      "0]": 589,
      "t.": 590,
      "s:": 591,
      "(self,Ġ": 592,
      "='": 593,
      "\\x1": 594,
      "ini": 595,
      "varĠ": 596,
      "ĠĠĠĠĠĠĠĠreturnĠ": 597,
      "\":Ġ": 598,
      "pyx_": 599,
      "ER": 600,
      "alse": 601,
      "..": 602,
      "is.": 603,
      "Py": 604,
      "__pyx_": 605,
      "com": 606,
      "key": 607,
      "ceĠ": 608,
      "get_": 609,
      "du": 610,
      "32": 611,
      "ĠinĠ": 612,
      "er.": 613,
      "ces": 614,
      "be": 615,
      "\\xa": 616,
      "True": 617,
      "date": 618,
      "//Ġ": 619,
      "av": 620,
      "this.": 621,
      "ca": 622,
      "lĠ": 623,
      "withĠ": 624,
      "Co": 625,
      "ifĠ(": 626,
      "line": 627,
      "list": 628,
      "ĠĠĠĠĠĠĠĠĠĠĠĠĠĠĠĠĠĠĠĠĠĠĠĠ": 629,
      "Ġ==Ġ": 630,
      "_in": 631,
      "alĠ": 632,
      "ran": 633,
      "ho": 634,
      "Con": 635,
      "ON": 636,
      "11": 637,
      "comp": 638,
      "im": 639,
      "),Ġ": 640,
      "da": 641,
      "np.": 642,
      "add": 643,
      "enĠ": 644,
      "1]": 645,
      "ph": 646,
      "dex": 647,
      "ist": 648,
      "cur": 649,
      "que": 650,
      "ateĠ": 651,
      "code": 652,
      "s/": 653,
      "wh": 654,
      "c_": 655,
      "s=": 656,
      "14": 657,
      "ite": 658,
      "atch": 659,
      "onĠ": 660,
      "*Ġ": 661,
      "ctor": 662,
      "&&": 663,
      "ption": 664,
      "ĠĠĠĠĠĠĠĠ#Ġ": 665,
      "flo": 666,
      "),": 667,
      "mb": 668,
      "er_": 669,
      "stan": 670,
      "beĠ": 671,
      "format": 672,
      "m_": 673,
      "ten": 674,
      "itĠ": 675,
      "bject": 676,
      "sy": 677,
      "lay": 678,
      "(self.": 679,
      ").": 680,
      "64": 681,
      "RE": 682,
      "abel": 683,
      "Er": 684,
      "cal": 685,
      "ctĠ": 686,
      "config": 687,
      "}Ġ": 688,
      "ml": 689,
      "False": 690,
      "ure": 691,
      "ST": 692,
      "15": 693,
      "tri": 694,
      "test": 695,
      "d.": 696,
      "ask": 697,
      "wor": 698,
      "fin": 699,
      "else": 700,
      "(self):": 701,
      ";Ġ": 702,
      "ĠĠĠĠĠĠĠĠĠĠĠĠĠĠĠĠĠĠĠĠĠĠĠĠĠĠĠĠĠĠĠĠ": 703,
      "25": 704,
      "cod": 705,
      "sor": 706,
      "star": 707,
      "gra": 708,
      "\",Ġ\"": 709,
      "tp": 710,
      "1.": 711,
      "mple": 712,
      "De": 713,
      "########": 714,
      "Se": 715,
      "por": 716,
      "\"]": 717,
      "[0]": 718,
      "und": 719,
      "in_": 720,
      "tran": 721,
      "Ġ=Ġself.": 722,
      "cĠ": 723,
      "ray": 724,
      "read": 725,
      "ag": 726,
      "ĠĠĠĠ#Ġ": 727,
      "w_": 728,
      "TheĠ": 729,
      "thisĠ": 730,
      "user": 731,
      "cre": 732,
      "the": 733,
      "back": 734,
      "label": 735,
      "lin": 736,
      "ang": 737,
      "ĠĠĠĠĠĠĠĠ\"\"\"": 738,
      "form": 739,
      "AT": 740,
      "inter": 741,
      "99": 742,
      "mage": 743,
      "Error": 744,
      "print": 745,
      "Ex": 746,
      "chĠ": 747,
      "xĠ": 748,
      "result": 749,
      "ype": 750,
      "33": 751,
      "classĠ": 752,
      "au": 753,
      "----------------": 754,
      "thatĠ": 755,
      "ken": 756,
      "Pro": 757,
      "iz": 758,
      "fe": 759,
      "gth": 760,
      "defa": 761,
      "ste": 762,
      "men": 763,
      "ĠĠĠĠĠĠĠĠĠĠ": 764,
      "sha": 765,
      ",Ġ'": 766,
      "gro": 767,
      "ĠĠĠĠ\"\"\"": 768,
      "ofĠtheĠ": 769,
      "age": 770,
      "else:": 771,
      "scri": 772,
      "sub": 773,
      "od": 774,
      "use": 775,
      "wn": 776,
      "18": 777,
      "cont": 778,
      "ie": 779,
      "ameĠ": 780,
      "load": 781,
      "13": 782,
      "ire": 783,
      "test_": 784,
      "ll": 785,
      "state": 786,
      "1Ġ": 787,
      "ev": 788,
      "ationĠ": 789,
      "pl": 790,
      "ator": 791,
      "coun": 792,
      "div": 793,
      "ight": 794,
      "us": 795,
      "17": 796,
      "spe": 797,
      "http": 798,
      "E_": 799,
      "ĠĠĠĠĠĠĠĠĠĠĠĠself.": 800,
      "lib": 801,
      "ĠĠĠĠĠ": 802,
      "t(": 803,
      "sig": 804,
      "y.": 805,
      "put_": 806,
      "[]": 807,
      "f.": 808,
      "OR": 809,
      "call": 810,
      "length": 811,
      "Mo": 812,
      "sen": 813,
      "34": 814,
      "St": 815,
      "No": 816,
      "min": 817,
      "dict": 818,
      "al_": 819,
      "wa": 820,
      "24": 821,
      "append": 822,
      "IĠ": 823,
      "string": 824,
      "c.": 825,
      "|Ġ": 826,
      "EN": 827,
      "m.": 828,
      "s()": 829,
      "%Ġ": 830,
      "cli": 831,
      "sho": 832,
      "url": 833,
      "stance": 834,
      "[\"": 835,
      "Ġ+Ġ": 836,
      "meth": 837,
      "index": 838,
      "ĠĠĠĠreturnĠ": 839,
      "ument": 840,
      "To": 841,
      "wri": 842,
      "href": 843,
      "19": 844,
      "2.": 845,
      "ree": 846,
      "ĠĠĠĠ'": 847,
      "qual": 848,
      "Lo": 849,
      "intĠ": 850,
      "ĠĠĠĠ}": 851,
      "option": 852,
      "p_": 853,
      "Ġ=Ġ33": 854,
      "if": 855,
      "ase": 856,
      "ong": 857,
      "dir": 858,
      "image": 859,
      "54": 860,
      "shape": 861,
      "Ġ=Ġ33Ġ;": 862,
      "ax": 863,
      "sition": 864,
      "lock": 865,
      "work": 866,
      "2,Ġ": 867,
      "html": 868,
      "Str": 869,
      "node": 870,
      "d(": 871,
      "gen": 872,
      "n_": 873,
      "color": 874,
      "\\n": 875,
      "token": 876,
      "wid": 877,
      "head": 878,
      "span": 879,
      "T_": 880,
      "jo": 881,
      "ssa": 882,
      "80": 883,
      "check": 884,
      "href=\"": 885,
      "Ġclass=\"": 886,
      "_id": 887,
      "Name": 888,
      "er(": 889,
      "spon": 890,
      "lement": 891,
      "ouĠ": 892,
      "pi": 893,
      "Type": 894,
      "ull": 895,
      "{}": 896,
      "cu": 897,
      "/Ġ": 898,
      "our": 899,
      "\":": 900,
      "ĠĠĠĠĠĠĠĠ'": 901,
      ".get": 902,
      "50": 903,
      "</a": 904,
      "quest": 905,
      "Ar": 906,
      "til": 907,
      "29": 908,
      "obj": 909,
      "error": 910,
      "\\u": 911,
      "numb": 912,
      "1)": 913,
      "ext": 914,
      "1,": 915,
      "pt": 916,
      "<aĠ": 917,
      "Val": 918,
      "========": 919,
      "len(": 920,
      "functionĠ(": 921,
      "]Ġ=Ġ": 922,
      "veĠ": 923,
      "ub": 924,
      "chan": 925,
      "&&Ġ": 926,
      "Fi": 927,
      "88": 928,
      "array": 929,
      "ueĠ": 930,
      "requ": 931,
      "DE": 932,
      "stri": 933,
      "fra": 934,
      "])": 935,
      "</a>": 936,
      "areĠ": 937,
      "lic": 938,
      "tar": 939,
      "fiel": 940,
      "param": 941,
      "AR": 942,
      "item": 943,
      "Ġ=Ġ'": 944,
      "nel": 945,
      "edĠ": 946,
      "Par": 947,
      "js": 948,
      "to_": 949,
      "vo": 950,
      "float": 951,
      "ĠĠĠĠĠĠĠĠĠĠĠĠifĠ": 952,
      "GL": 953,
      "\":Ġ\"": 954,
      "object": 955,
      "ĠisĠ": 956,
      "cte": 957,
      "row": 958,
      "SE": 959,
      "lyĠ": 960,
      "amĠ": 961,
      "exce": 962,
      "AN": 963,
      "pla": 964,
      "57": 965,
      "``": 966,
      "init_": 967,
      "char": 968,
      "den": 969,
      "Ġ*/": 970,
      "act": 971,
      "IT": 972,
      "dule": 973,
      "mar": 974,
      "67": 975,
      "ak": 976,
      "set_": 977,
      "eren": 978,
      "::": 979,
      "<<<<": 980,
      "append(": 981,
      "vie": 982,
      "curren": 983,
      "100": 984,
      "tor": 985,
      "27": 986,
      "pas": 987,
      "ssage": 988,
      "is_": 989,
      "mon": 990,
      "ok": 991,
      "Data": 992,
      "<Ġ": 993,
      "čĊčĊ": 994,
      "input": 995,
      "ĠĠĠĠifĠ": 996,
      "},": 997,
      "w.": 998,
      "assertĠ": 999,
      "day": 1000,
      "69": 1001,
      "x.": 1002,
      "_b": 1003,
      "Ġ=Ġ0": 1004,
      "width": 1005,
      "ĠĠĠĠĠĠĠĠĠĠĠĠĠĠĠĠĠĠĠĠĠĠĠĠĠĠĠĠ": 1006,
      "ct_": 1007,
      "output": 1008,
      "idĠ": 1009,
      "();": 1010,
      "sco": 1011,
      "go": 1012,
      "_name": 1013,
      "elseĠ": 1014,
      "</span": 1015,
      "war": 1016,
      "spanĠ": 1017,
      "ize": 1018,
      "22": 1019,
      "run": 1020,
      "39": 1021,
      "base": 1022,
      "clu": 1023,
      "rai": 1024,
      "Ġ=Ġ32": 1025,
      "range": 1026,
      "<spanĠ": 1027,
      "require": 1028,
      "default": 1029,
      "[1]": 1030,
      "functionĠ": 1031,
      "mask": 1032,
      "useĠ": 1033,
      "temp": 1034,
      "****": 1035,
      "0Ġ": 1036,
      "group": 1037,
      "pack": 1038,
      "Ġ=Ġ32Ġ;": 1039,
      "]Ġ": 1040,
      "respon": 1041,
      "os.": 1042,
      "55": 1043,
      "Te": 1044,
      "s:Ġ": 1045,
      "ameter": 1046,
      "byĠ": 1047,
      "ate_": 1048,
      "rig": 1049,
      "ing_": 1050,
      "ing.": 1051,
      "],Ġ": 1052,
      "ce_": 1053,
      "37": 1054,
      "der": 1055,
      "d,Ġ": 1056,
      "instance": 1057,
      "84": 1058,
      "60": 1059,
      "<spanĠclass=\"": 1060,
      "try": 1061,
      "Ġ*Ġ@": 1062,
      "x,Ġ": 1063,
      "87": 1064,
      "li>": 1065,
      "pĠ": 1066,
      "=True": 1067,
      "doc": 1068,
      "AL": 1069,
      "':Ġ'": 1070,
      "ir": 1071,
      "typ": 1072,
      "meĠ": 1073,
      "ableĠ": 1074,
      ")Ġ+Ġ": 1075,
      "sour": 1076,
      "low": 1077,
      "start": 1078,
      "ft": 1079,
      "eli": 1080,
      "oĠ": 1081,
      "assert": 1082,
      "qual(": 1083,
      "iĠ": 1084,
      "ptĠ": 1085,
      "ĉĉĉĉĉ": 1086,
      "self._": 1087,
      "Po": 1088,
      "newĠ": 1089,
      "1Ġ=Ġ": 1090,
      "def": 1091,
      "SĠ": 1092,
      "ms": 1093,
      "0000": 1094,
      "open": 1095,
      "sĠtoĠ": 1096,
      "reg": 1097,
      "89": 1098,
      "_C": 1099,
      "};": 1100,
      "y(": 1101,
      "ss": 1102,
      "true": 1103,
      "uldĠ": 1104,
      "sto": 1105,
      "deĠ": 1106,
      "ĠĠĠĠĠĠĠĠĠĠĠĠreturnĠ": 1107,
      "word": 1108,
      "illĠ": 1109,
      "red": 1110,
      "orm": 1111,
      "youĠ": 1112,
      "buil": 1113,
      "oth": 1114,
      "max": 1115,
      "bute": 1116,
      "([": 1117,
      "Ġ=Ġ\"": 1118,
      "oneĠ": 1119,
      "tle": 1120,
      "version": 1121,
      "En": 1122,
      "Date": 1123,
      "trans": 1124,
      "Ch": 1125,
      "__pyx_t_": 1126,
      "+=Ġ": 1127,
      "util": 1128,
      "sup": 1129,
      "g.": 1130,
      "d>": 1131,
      "0,": 1132,
      "order": 1133,
      "putĠ": 1134,
      "exp": 1135,
      "ĠĠ#Ġ": 1136,
      "elifĠ": 1137,
      "s):": 1138,
      "':": 1139,
      "valid": 1140,
      "init__": 1141,
      "nĠ": 1142,
      "late": 1143,
      "ID": 1144,
      "module": 1145,
      "],": 1146,
      "mi": 1147,
      "fir": 1148,
      "__init__": 1149,
      "nameĠ": 1150,
      "port": 1151,
      "info": 1152,
      "stati": 1153,
      "ĠĠĠĠĠĠĠĠ\"": 1154,
      "dire": 1155,
      "().": 1156,
      "paramĠ": 1157,
      "update": 1158,
      "TH": 1159,
      "stat": 1160,
      "kw": 1161,
      "link": 1162,
      "stru": 1163,
      "write": 1164,
      "v_": 1165,
      "add_": 1166,
      "dĠ=Ġ": 1167,
      "Un": 1168,
      "entĠ": 1169,
      "logg": 1170,
      "44": 1171,
      "db": 1172,
      "</span>": 1173,
      "ch.": 1174,
      "this": 1175,
      "attr": 1176,
      "String": 1177,
      "sĠtheĠ": 1178,
      "thon": 1179,
      "message": 1180,
      "''": 1181,
      "num_": 1182,
      "table": 1183,
      "Value": 1184,
      "ĠĠĠĠĠĠĠĠforĠ": 1185,
      "proces": 1186,
      "cor": 1187,
      "pri": 1188,
      "30": 1189,
      "Ġ=Ġ34": 1190,
      "59": 1191,
      "has": 1192,
      "fil": 1193,
      "cation": 1194,
      "200": 1195,
      "ip": 1196,
      "36": 1197,
      "nal": 1198,
      "allĠ": 1199,
      "ot": 1200,
      "3.": 1201,
      "Me": 1202,
      "main": 1203,
      "move": 1204,
      "g_": 1205,
      "s,": 1206,
      "tial": 1207,
      "map": 1208,
      "setĠ": 1209,
      "LE": 1210,
      "Ti": 1211,
      "sele": 1212,
      "comm": 1213,
      "bjectĠ": 1214,
      "Ġ=Ġ34Ġ;": 1215,
      "0)": 1216,
      "None:": 1217,
      "referen": 1218,
      "n.": 1219,
      "canĠ": 1220,
      "train": 1221,
      "ĠtoĠ": 1222,
      "plo": 1223,
      "method": 1224,
      "request": 1225,
      "willĠ": 1226,
      "batch": 1227,
      "proper": 1228,
      "sum": 1229,
      "=None": 1230,
      "()Ġ": 1231,
      "3,Ġ": 1232,
      "ĠĠĠĠĠĠĠĠĠĠĠĠ#Ġ": 1233,
      "parse": 1234,
      "_size": 1235,
      "spli": 1236,
      "block": 1237,
      "f_": 1238,
      "FF": 1239,
      "json": 1240,
      "List": 1241,
      "Ġ'": 1242,
      ":Ġ'": 1243,
      "2Ġ": 1244,
      "0x": 1245,
      "aveĠ": 1246,
      "ute": 1247,
      "igh": 1248,
      "ear": 1249,
      "event": 1250,
      "place": 1251,
      "data_": 1252,
      "hand": 1253,
      "sr": 1254,
      "</li>": 1255,
      "bin": 1256,
      "RO": 1257,
      "sty": 1258,
      "__Py": 1259,
      "->": 1260,
      "cle": 1261,
      "ample": 1262,
      "[i": 1263,
      "TĠ": 1264,
      "__Pyx_": 1265,
      "feat": 1266,
      "path.": 1267,
      "sĠimportĠ": 1268,
      "../": 1269,
      "raiseĠ": 1270,
      "hel": 1271,
      "kwarg": 1272,
      "valueĠ": 1273,
      "tex": 1274,
      ".format": 1275,
      "2Ġ=Ġ": 1276,
      "\"Ġhref=\"": 1277,
      "Time": 1278,
      "top": 1279,
      "UL": 1280,
      ",Ġ\"": 1281,
      "===Ġ": 1282,
      "ION": 1283,
      "utt": 1284,
      "iter": 1285,
      "adĠ": 1286,
      ":Ġ\"": 1287,
      "title": 1288,
      "point": 1289,
      "ThisĠ": 1290,
      "inĠtheĠ": 1291,
      "je": 1292,
      "geĠ": 1293,
      ">>": 1294,
      "\\x00": 1295,
      "ĠĠĠĠ@": 1296,
      "gener": 1297,
      "conta": 1298,
      "typeĠ": 1299,
      "quen": 1300,
      "(a": 1301,
      "/*Ġ": 1302,
      "response": 1303,
      "clo": 1304,
      "count": 1305,
      "################": 1306,
      "quer": 1307,
      "frame": 1308,
      "dĠtoĠ": 1309,
      "y,Ġ": 1310,
      "ME": 1311,
      "ense": 1312,
      "vari": 1313,
      "35": 1314,
      "colum": 1315,
      "lob": 1316,
      "speci": 1317,
      "dim": 1318,
      "input_": 1319,
      "vice": 1320,
      "Object": 1321,
      "dd": 1322,
      "es": 1323,
      "join": 1324,
      "AC": 1325,
      "pass": 1326,
      "argument": 1327,
      "tive": 1328,
      "ay": 1329,
      "haveĠ": 1330,
      "channel": 1331,
      "td>": 1332,
      "mul": 1333,
      "field": 1334,
      "S_": 1335,
      "content": 1336,
      "box": 1337,
      "An": 1338,
      "ug": 1339,
      "s://": 1340,
      "spa": 1341,
      "scal": 1342,
      "ĠĠĠĠ\"": 1343,
      "Ret": 1344,
      "');": 1345,
      "by": 1346,
      "https://": 1347,
      "fileĠ": 1348,
      "5,Ġ": 1349,
      "Di": 1350,
      "66": 1351,
      "null": 1352,
      "ĠĠĠĠĠĠĠĠĠĠĠĠĠ": 1353,
      "tf.": 1354,
      "49": 1355,
      "IfĠ": 1356,
      "`Ġ": 1357,
      "target": 1358,
      "paren": 1359,
      "ĠĠĠĠĠĠĠ": 1360,
      ".re": 1361,
      "{Ġ": 1362,
      "sk": 1363,
      "ble": 1364,
      "erĠ=Ġ": 1365,
      "ion": 1366,
      "(f": 1367,
      "Lic": 1368,
      "=False": 1369,
      "arch": 1370,
      "!=Ġ": 1371,
      "ĠĠĠĠĠĠĠĠ}": 1372,
      "page": 1373,
      "86": 1374,
      "element": 1375,
      "secon": 1376,
      "indo": 1377,
      ".p": 1378,
      "ek": 1379,
      "filter": 1380,
      "ĠĠ}": 1381,
      "\\u0": 1382,
      "style": 1383,
      "web": 1384,
      "AĠ": 1385,
      "Return": 1386,
      "Num": 1387,
      "off": 1388,
      "codeĠ": 1389,
      "Col": 1390,
      "<aĠclass=\"": 1391,
      "nu": 1392,
      "Ke": 1393,
      "man": 1394,
      "ont": 1395,
      "ea": 1396,
      "re.": 1397,
      "yn": 1398,
      "fineĠ": 1399,
      "action": 1400,
      "function(": 1401,
      "torch.": 1402,
      "&&Ġ(": 1403,
      "79": 1404,
      "ep": 1405,
      "_S": 1406,
      "filen": 1407,
      "%s": 1408,
      "data.": 1409,
      "str(": 1410,
      "ĉf": 1411,
      "keĠ": 1412,
      "down": 1413,
      "range(": 1414,
      "ĠĠĠĠĠĠĠĠĠ": 1415,
      "isĠnotĠ": 1416,
      "'),": 1417,
      "over": 1418,
      "can": 1419,
      "whi": 1420,
      "df": 1421,
      "parameter": 1422,
      "referenceĠ": 1423,
      "rando": 1424,
      "max_": 1425,
      "args.": 1426,
      "ting": 1427,
      "40": 1428,
      "uple": 1429,
      "Ġ=Ġ(": 1430,
      "IC": 1431,
      "parser": 1432,
      "python": 1433,
      "sta": 1434,
      "vel": 1435,
      "ĠimportĠ": 1436,
      "/**": 1437,
      "For": 1438,
      "AP": 1439,
      "graph": 1440,
      "-l": 1441,
      "():": 1442,
      "internal": 1443,
      "Ġ=Ġnp.": 1444,
      "local": 1445,
      "rel": 1446,
      "exceptĠ": 1447,
      "UR": 1448,
      "try:": 1449,
      ".format(": 1450,
      "new": 1451,
      "lag": 1452,
      "-1": 1453,
      "view": 1454,
      "ker": 1455,
      "model.": 1456,
      "are": 1457,
      "ses": 1458,
      ">>>Ġ": 1459,
      "match": 1460,
      "_t": 1461,
      "\\2": 1462,
      "ustĠ": 1463,
      "utton": 1464,
      "defineĠ": 1465,
      "constĠ": 1466,
      "org": 1467,
      "sample": 1468,
      "ultĠ": 1469,
      "expe": 1470,
      "weĠ": 1471,
      "||Ġ": 1472,
      "fol": 1473,
      "_P": 1474,
      "].": 1475,
      "esĠ": 1476,
      "los": 1477,
      "long": 1478,
      "tribute": 1479,
      "layer": 1480,
      "85": 1481,
      "month": 1482,
      "tom": 1483,
      "2)": 1484,
      "err": 1485,
      "net": 1486,
      "o.": 1487,
      "position": 1488,
      "gi": 1489,
      "auth": 1490,
      "?Ġ": 1491,
      "1_": 1492,
      "'sĠ": 1493,
      "gg": 1494,
      "ly": 1495,
      "enti": 1496,
      "(r": 1497,
      "las": 1498,
      "ĠĠĠĠĠĠĠĠself.assert": 1499,
      "ory": 1500,
      "TE": 1501,
      "Vie": 1502,
      "ĠĠĠĠĠĠĠĠelse:": 1503,
      "dataset": 1504,
      "ĠĠĠĠĠĠĠĠĠĠĠĠ'": 1505,
      "norm": 1506,
      "mm": 1507,
      "<li": 1508,
      "bi": 1509,
      "os.path.": 1510,
      "px": 1511,
      "ation.": 1512,
      "soĠ": 1513,
      "cate": 1514,
      "Bo": 1515,
      "outĠ": 1516,
      "filename": 1517,
      "sol": 1518,
      "mentĠ": 1519,
      "ffi": 1520,
      "TO": 1521,
      "define": 1522,
      "{'": 1523,
      "exe": 1524,
      "inclu": 1525,
      "weight": 1526,
      "ream": 1527,
      "->Ġ": 1528,
      "MM": 1529,
      "div>": 1530,
      "ĠĠĠĠĠĠĠĠĠĠĠĠĠĠ": 1531,
      "bar": 1532,
      "scription": 1533,
      "ingĠtheĠ": 1534,
      "cf": 1535,
      "'tĠ": 1536,
      "ĠandĠ": 1537,
      "Model": 1538,
      "<liĠclass=\"": 1539,
      "teĠ": 1540,
      "er,Ġ": 1541,
      "</td>": 1542,
      "disp": 1543,
      "proto": 1544,
      "Ġ-Ġ": 1545,
      "contain": 1546,
      "context": 1547,
      "caseĠ": 1548,
      "output_": 1549,
      "--------------------------------": 1550,
      "height": 1551,
      "<aĠclass=\"referenceĠ": 1552,
      "ĠĠĠĠforĠ": 1553,
      "create": 1554,
      "Ac": 1555,
      "uni": 1556,
      "conne": 1557,
      "false": 1558,
      ".com": 1559,
      "internal\"Ġhref=\"": 1560,
      ".html": 1561,
      "X_": 1562,
      "_tĠ": 1563,
      "Ġ=Ġ36": 1564,
      "cs": 1565,
      "tag": 1566,
      "77": 1567,
      "nump": 1568,
      "source": 1569,
      "Test": 1570,
      "ob": 1571,
      "<aĠclass=\"referenceĠinternal\"Ġhref=\"": 1572,
      "save": 1573,
      "ception": 1574,
      "ĠĠĠĠ<": 1575,
      "cent": 1576,
      "</div>": 1577,
      "Ġ=Ġ35": 1578,
      "\");": 1579,
      "lete": 1580,
      "space": 1581,
      "s.append(": 1582,
      "ĠforĠ": 1583,
      "whichĠ": 1584,
      "://": 1585,
      "#defineĠ": 1586,
      "(x": 1587,
      "Ġ=Ġ36Ġ;": 1588,
      "ĠĠĠĠĠĠĠĠĠĠĠĠĠĠĠĠĠĠ": 1589,
      "_de": 1590,
      "getĠ": 1591,
      "0:": 1592,
      "DI": 1593,
      "_path": 1594,
      ")Ġ-Ġ": 1595,
      "Ġ=Ġ35Ġ;": 1596,
      "LO": 1597,
      "listĠ": 1598,
      "api": 1599,
      "28": 1600,
      "numberĠ": 1601,
      "shouldĠ": 1602,
      "fl": 1603,
      "AS": 1604,
      "terĠ": 1605,
      "vent": 1606,
      "b.": 1607,
      "padd": 1608,
      "new_": 1609,
      "img": 1610,
      "ĠĠĠĠĉa19": 1611,
      "toct": 1612,
      "int(": 1613,
      "AG": 1614,
      ",Ġself.": 1615,
      "...": 1616,
      "Equal(": 1617,
      "encod": 1618,
      "mis": 1619,
      "TR": 1620,
      "ng": 1621,
      "toctree": 1622,
      "File": 1623,
      "Comp": 1624,
      "sĠforĠ": 1625,
      "sĠ(": 1626,
      "toctree-l": 1627,
      "diction": 1628,
      "isinstance": 1629,
      "lang": 1630,
      "<liĠclass=\"toctree-l": 1631,
      "bod": 1632,
      "zer": 1633,
      "ourĠ": 1634,
      "[:": 1635,
      "ild": 1636,
      "_inter": 1637,
      "Id": 1638,
      "sw": 1639,
      "bre": 1640,
      "rap": 1641,
      "(__": 1642,
      "flag": 1643,
      "example": 1644,
      "Set": 1645,
      "ĠĠĠĠĠĠĠĠĠĠĠĠ\"": 1646,
      "})": 1647,
      "ĠĠĠĠĠĠĠĠ:": 1648,
      ")Ġ==Ġ": 1649,
      "header": 1650,
      "ent_": 1651,
      "ĠĠĠĠassertĠ": 1652,
      "butĠ": 1653,
      "6;": 1654,
      "column": 1655,
      "AD": 1656,
      "buff": 1657,
      "((((": 1658,
      "server": 1659,
      "sĠandĠ": 1660,
      "split": 1661,
      "right": 1662,
      "eval": 1663,
      "copy": 1664,
      "bot": 1665,
      "second": 1666,
      "ĠĠĠĠĠĠĠĠĠĠĠĠĠĠĠĠifĠ": 1667,
      "'Ġ+Ġ": 1668,
      "Exception": 1669,
      "ING": 1670,
      "close": 1671,
      "We": 1672,
      "75": 1673,
      "38": 1674,
      "hid": 1675,
      "26": 1676,
      "74": 1677,
      "mit": 1678,
      "Numb": 1679,
      "sĠinĠ": 1680,
      "\\\\": 1681,
      "step": 1682,
      "Bu": 1683,
      "ort": 1684,
      "type=": 1685,
      "inputĠ": 1686,
      "s['": 1687,
      "DO": 1688,
      "tyĠ": 1689,
      "ĠĠĠĠĠĠĠĠself._": 1690,
      "l_": 1691,
      "())": 1692,
      "whe": 1693,
      "1:": 1694,
      "l.": 1695,
      "multi": 1696,
      "Key": 1697,
      "ty.": 1698,
      "Option": 1699,
      "year": 1700,
      "http://": 1701,
      "ele": 1702,
      "(c": 1703,
      "Al": 1704,
      "pub": 1705,
      "At": 1706,
      "mean": 1707,
      "}ĠelseĠ": 1708,
      "Up": 1709,
      "from_": 1710,
      "ileĠ": 1711,
      "ard": 1712,
      "s[0]": 1713,
      "ĠĠĠĠdefĠtest_": 1714,
      "ast": 1715,
      "++": 1716,
      "DĠ": 1717,
      "Ġ=ĠNone": 1718,
      "mode": 1719,
      "UN": 1720,
      "teg": 1721,
      "CO": 1722,
      ");Ġ": 1723,
      "client": 1724,
      "ES": 1725,
      "number": 1726,
      "================": 1727,
      "Ġ=Ġ[": 1728,
      "_re": 1729,
      "specifi": 1730,
      "ĠĠĠĠdefĠ__init__": 1731,
      "Do": 1732,
      "unit": 1733,
      "tensor": 1734,
      "04": 1735,
      "dataĠ": 1736,
      "eta": 1737,
      "ĠinĠrange(": 1738,
      "func": 1739,
      "EĠ": 1740,
      "msg": 1741,
      "isinstance(": 1742,
      "dro": 1743,
      "Array": 1744,
      "*/": 1745,
      "level": 1746,
      "on_": 1747,
      "ĠĠĠĠĠĠĠĠĠĠĠĠĠĠĠĠĠ": 1748,
      "ĉĠ*Ġ": 1749,
      "diff": 1750,
      "alf": 1751,
      "cr": 1752,
      "p>": 1753,
      "af": 1754,
      "bool": 1755,
      "left": 1756,
      "whenĠ": 1757,
      "._": 1758,
      "emb": 1759,
      "<div": 1760,
      "name,Ġ": 1761,
      "(),Ġ": 1762,
      "CT": 1763,
      "loc": 1764,
      "dĠbyĠ": 1765,
      "_M": 1766,
      "Fun": 1767,
      "ign": 1768,
      "print(\"": 1769,
      "mbol": 1770,
      "glob": 1771,
      "xĠ=Ġ": 1772,
      "join(": 1773,
      "ity": 1774,
      ".set": 1775,
      "atten": 1776,
      "conv": 1777,
      "of": 1778,
      "\"Ġ+Ġ": 1779,
      "sĠareĠ": 1780,
      "{\"": 1781,
      "tim": 1782,
      ":`": 1783,
      "Clas": 1784,
      "IS": 1785,
      "Get": 1786,
      "tuple": 1787,
      "lineĠ": 1788,
      "seri": 1789,
      "sĠ=Ġ[": 1790,
      "staticĠ": 1791,
      "_type": 1792,
      "ava": 1793,
      "conver": 1794,
      "site": 1795,
      "s.Ġ": 1796,
      ".add_": 1797,
      "ning": 1798,
      "(Ġ": 1799,
      "<aĠhref=\"": 1800,
      "********": 1801,
      "Ser": 1802,
      "_F": 1803,
      "src": 1804,
      "expecte": 1805,
      "Path": 1806,
      "time.": 1807,
      "env": 1808,
      "toĠtheĠ": 1809,
      "sli": 1810,
      "sĠofĠ": 1811,
      "contro": 1812,
      "out_": 1813,
      "org/": 1814,
      "sign": 1815,
      "tern": 1816,
      "PY": 1817,
      "License": 1818,
      "ĠĠĠĠ#": 1819,
      "post": 1820,
      "scale": 1821,
      "sing": 1822,
      "Ite": 1823,
      "og": 1824,
      "sq": 1825,
      "font": 1826,
      "Tran": 1827,
      "3Ġ": 1828,
      "mem": 1829,
      "&&Ġa": 1830,
      "ĠtheĠ": 1831,
      "remove": 1832,
      "chema": 1833,
      "cache": 1834,
      "produ": 1835,
      "ted": 1836,
      ")Ġ->Ġ": 1837,
      "windo": 1838,
      "None,Ġ": 1839,
      "EX": 1840,
      "u'": 1841,
      "border": 1842,
      "Arg": 1843,
      "ĉfĉf": 1844,
      "nn.": 1845,
      "dĠinĠ": 1846,
      "Qu": 1847,
      "onlyĠ": 1848,
      "ĠĠĠĠĠĠĠĠĠĠĠĠĠĠĠĠself.": 1849,
      "cat": 1850,
      "utils.": 1851,
      "HT": 1852,
      "<t": 1853,
      "stream": 1854,
      "mark": 1855,
      "oper": 1856,
      "icĠ": 1857,
      "sequen": 1858,
      "vide": 1859,
      "hidden": 1860,
      "print(": 1861,
      "re_": 1862,
      "CH": 1863,
      "10;": 1864,
      "7;": 1865,
      "yĠ=Ġ": 1866,
      "(0,Ġ": 1867,
      "tool": 1868,
      "tiv": 1869,
      "ule": 1870,
      "ation_": 1871,
      "sĠ=Ġ[]": 1872,
      "search": 1873,
      "script": 1874,
      "NO": 1875,
      "45": 1876,
      "help": 1877,
      "Text": 1878,
      "Sy": 1879,
      "ĠĠĠĠifĠ(": 1880,
      "siz": 1881,
      ")))": 1882,
      "6Ġ=Ġ": 1883,
      "dition": 1884,
      "transform": 1885,
      "UT": 1886,
      "ww": 1887,
      "ĠĠreturnĠ": 1888,
      "Base": 1889,
      "dateĠ": 1890,
      "dat": 1891,
      "zero": 1892,
      "stringĠ": 1893,
      "all_": 1894,
      "wi": 1895,
      "4,Ġ": 1896,
      "orig": 1897,
      "break": 1898,
      ".h": 1899,
      "cell": 1900,
      "fix": 1901,
      "Cre": 1902,
      "equal(": 1903,
      "callback": 1904,
      "2,": 1905,
      "objectĠ": 1906,
      "TI": 1907,
      "0;": 1908,
      "tot": 1909,
      "-8": 1910,
      "test.": 1911,
      "extra": 1912,
      "PO": 1913,
      "usingĠ": 1914,
      "];": 1915,
      "\";": 1916,
      "9;": 1917,
      "mt": 1918,
      "htĠ": 1919,
      "met": 1920,
      "2\">": 1921,
      "feature": 1922,
      "ener": 1923,
      "proje": 1924,
      "Fiel": 1925,
      "ĠĠĠĠĠĠĠĠĠĠĠ": 1926,
      "8;": 1927,
      "stra": 1928,
      ")Ġ*Ġ": 1929,
      "He": 1930,
      "ĠofĠ": 1931,
      "65": 1932,
      "Match": 1933,
      "NA": 1934,
      "week": 1935,
      "package": 1936,
      "):Ġ": 1937,
      "});": 1938,
      "b_": 1939,
      "timeĠ": 1940,
      "','": 1941,
      "int_": 1942,
      "sĠaĠ": 1943,
      "s-": 1944,
      "Cont": 1945,
      "AB": 1946,
      "mail": 1947,
      "train_": 1948,
      "State": 1949,
      "PyO": 1950,
      "Ad": 1951,
      "task": 1952,
      "70": 1953,
      "bug": 1954,
      "br": 1955,
      "ary": 1956,
      "byte": 1957,
      "Config": 1958,
      "0.0": 1959,
      "dis": 1960,
      "statu": 1961,
      "ative": 1962,
      "MP": 1963,
      "1;": 1964,
      "noĠ": 1965,
      "enum": 1966,
      "std": 1967,
      "lection": 1968,
      "Index": 1969,
      "3,": 1970,
      "_p": 1971,
      "change": 1972,
      "Mon": 1973,
      "Tra": 1974,
      "setting": 1975,
      "tedĠ": 1976,
      "VER": 1977,
      "**kwarg": 1978,
      "act.": 1979,
      "command": 1980,
      "printĠ": 1981,
      "uint": 1982,
      "config.": 1983,
      "=True)": 1984,
      "ĠĠĠĠĠĠĠĠassertĠ": 1985,
      "em": 1986,
      "exist": 1987,
      "cul": 1988,
      "Mak": 1989,
      "Au": 1990,
      "ui": 1991,
      "ression": 1992,
      "t,Ġ": 1993,
      "old": 1994,
      "dep": 1995,
      "host": 1996,
      "ari": 1997,
      "variable": 1998,
      "assert_": 1999,
      "onent": 2000,
      "Element": 2001,
      "68": 2002,
      "document": 2003,
      "ash": 2004,
      "ĠĠĠĠĉa4": 2005,
      "alfred": 2006,
      "a_": 2007,
      "ValueError": 2008,
      "))Ġ": 2009,
      "property": 2010,
      "IL": 2011,
      "alfred3": 2012,
      "yourĠ": 2013,
      "Info": 2014,
      "ĠĠĠĠĠĠĠĠifĠself.": 2015,
      "////": 2016,
      "/>": 2017,
      "pp": 2018,
      "scope": 2019,
      "Ne": 2020,
      "ĠĠĠĠĉa10": 2021,
      "==Ġ'": 2022,
      "alfred3_inter": 2023,
      "seq": 2024,
      "yy": 2025,
      "vector": 2026,
      "']Ġ=Ġ": 2027,
      "ĠĠĠĠĠĠĠĠ)": 2028,
      "ler": 2029,
      "doĠ": 2030,
      ">=Ġ": 2031,
      "aliz": 2032,
      "hasĠ": 2033,
      "ĠĠĠĠĠĠĠĠĠĠĠĠforĠ": 2034,
      "ile": 2035,
      "23": 2036,
      "offset": 2037,
      "ron": 2038,
      "s[i": 2039,
      "=>Ġ": 2040,
      "attribute": 2041,
      "embed": 2042,
      "-1]": 2043,
      "alfred3_interact.": 2044,
      "sizeĠ": 2045,
      "'))": 2046,
      "LĠ": 2047,
      "2]": 2048,
      "md": 2049,
      "Fra": 2050,
      "Node": 2051,
      "mod": 2052,
      "_c": 2053,
      "ground": 2054,
      "arra": 2055,
      "pol": 2056,
      "pos": 2057,
      "le.": 2058,
      "TER": 2059,
      "whileĠ": 2060,
      "ĠĠĠĠdefĠ_": 2061,
      "last": 2062,
      "description": 2063,
      "presen": 2064,
      "eachĠ": 2065,
      "Ġ=Ġ0;": 2066,
      "LI": 2067,
      "signe": 2068,
      "ĠĠĠĠdefĠ__init__(self,Ġ": 2069,
      "4;": 2070,
      "keyĠ": 2071,
      "next": 2072,
      "2_": 2073,
      "ctorĠ": 2074,
      "5;": 2075,
      "D_": 2076,
      "gl": 2077,
      "ĉĉĉĉĉĉ": 2078,
      "my": 2079,
      "ance": 2080,
      ")ĠasĠ": 2081,
      "ageĠ": 2082,
      "matri": 2083,
      "show": 2084,
      "session": 2085,
      "Item": 2086,
      "cket": 2087,
      "Event": 2088,
      "ain": 2089,
      "utf": 2090,
      "<liĠclass=\"toctree-l2\">": 2091,
      "<<<<<<<<": 2092,
      "functionĠ()Ġ{": 2093,
      "ind": 2094,
      "ä¸": 2095,
      "load_": 2096,
      "ts": 2097,
      "aryĠ": 2098,
      "from": 2099,
      "REF": 2100,
      "_f": 2101,
      "gri": 2102,
      "%}": 2103,
      "metho": 2104,
      "button": 2105,
      "raw": 2106,
      "CON": 2107,
      "e.": 2108,
      "make": 2109,
      "pxĠ": 2110,
      "Cli": 2111,
      "View": 2112,
      "cess": 2113,
      "tĠ=Ġ": 2114,
      "distri": 2115,
      "';": 2116,
      "built": 2117,
      "initial": 2118,
      "ange": 2119,
      ".com/": 2120,
      "SS": 2121,
      "tmp": 2122,
      "le_": 2123,
      "<divĠclass=\"": 2124,
      "128": 2125,
      "heck": 2126,
      "58": 2127,
      "IG": 2128,
      "__p": 2129,
      "thro": 2130,
      "a.": 2131,
      "dif": 2132,
      "bt": 2133,
      "axis": 2134,
      "i,Ġ": 2135,
      "nex": 2136,
      "Ver": 2137,
      "{%Ġ": 2138,
      "befo": 2139,
      "px;": 2140,
      "publi": 2141,
      "forĠtheĠ": 2142,
      "wrap": 2143,
      "director": 2144,
      "ded": 2145,
      "ole": 2146,
      "score": 2147,
      "model_": 2148,
      "User": 2149,
      "62": 2150,
      "wo": 2151,
      "alize": 2152,
      "Date.": 2153,
      "plt.": 2154,
      "align": 2155,
      "_s": 2156,
      "www.": 2157,
      "cord": 2158,
      "ĠĠĠĠvarĠ": 2159,
      "Wid": 2160,
      "3Ġ=Ġ": 2161,
      "ĠĠĠĠĠĠĠĠ#": 2162,
      "ĠĠĠĠĉa9": 2163,
      "exten": 2164,
      "<aĠclass=\"referenceĠinternal\"Ġhref=\"alfred3_interact.": 2165,
      "voidĠ": 2166,
      "yp": 2167,
      "erĠtheĠ": 2168,
      "emp": 2169,
      "ĠĠĠĠ</a>": 2170,
      "arĠ": 2171,
      "cap": 2172,
      "Op": 2173,
      "ureĠ": 2174,
      "bl": 2175,
      "and_": 2176,
      "Ten": 2177,
      "ĠĠĠ</li>": 2178,
      "non": 2179,
      "Parameter": 2180,
      "edge": 2181,
      "sys.": 2182,
      "giv": 2183,
      "\\2\\2": 2184,
      "ĠĠĠ<liĠclass=\"toctree-l2\">": 2185,
      "Proper": 2186,
      "cy": 2187,
      "_list": 2188,
      "padding": 2189,
      ":Ġ{": 2190,
      "d)": 2191,
      "ĠĠĠĠĠĠĠĠifĠ(": 2192,
      "anyĠ": 2193,
      "OF": 2194,
      "ĠĠĠĠdefĠ__": 2195,
      "defaultĠ": 2196,
      "asyn": 2197,
      "adata": 2198,
      "dataĠ=Ġ": 2199,
      "Out": 2200,
      "rightĠ": 2201,
      "Ho": 2202,
      "not": 2203,
      "create_": 2204,
      "_info": 2205,
      ".append(": 2206,
      "ct(": 2207,
      "ource": 2208,
      "YP": 2209,
      "Of": 2210,
      "lib.": 2211,
      "6,Ġ": 2212,
      "withĠtheĠ": 2213,
      "ĠĠĠĠĠĠĠĠĠĠĠĠ}": 2214,
      "ult_": 2215,
      "coord": 2216,
      "print('": 2217,
      "So": 2218,
      "US": 2219,
      "ed_": 2220,
      "wan": 2221,
      "allyĠ": 2222,
      "YĠ": 2223,
      "mayĠ": 2224,
      "om": 2225,
      ".html\">": 2226,
      "start_": 2227,
      ")ĠforĠ": 2228,
      "__pyx_v_": 2229,
      "cho": 2230,
      "r.": 2231,
      "doub": 2232,
      "Hand": 2233,
      "cv": 2234,
      "gor": 2235,
      "mustĠ": 2236,
      "atedĠ": 2237,
      "____": 2238,
      "${": 2239,
      "this._": 2240,
      "lamb": 2241,
      "uteĠ": 2242,
      "ĠĠĠĠ<aĠclass=\"referenceĠinternal\"Ġhref=\"alfred3_interact.": 2243,
      "etĠ": 2244,
      "roll": 2245,
      "mer": 2246,
      "pop": 2247,
      "prediction": 2248,
      "Gro": 2249,
      "ink": 2250,
      "attention": 2251,
      "Ġ==Ġ'": 2252,
      "Check": 2253,
      "tie": 2254,
      "__ret": 2255,
      "ank": 2256,
      "</span><spanĠclass=\"": 2257,
      "aseĠ": 2258,
      "<tdĠ": 2259,
      "bjectĠ*": 2260,
      "other": 2261,
      "logger.": 2262,
      "zone": 2263,
      "epo": 2264,
      "Pre": 2265,
      "_file": 2266,
      "dict(": 2267,
      "ĠĠĠĠĠĠĠĠelifĠ": 2268,
      "ĠĠĠĠĠĠĠĠĠĠĠĠĠĠĠĠ'": 2269,
      "48": 2270,
      "firstĠ": 2271,
      "plot": 2272,
      "addres": 2273,
      "=self.": 2274,
      ")Ġ/Ġ": 2275,
      "se_": 2276,
      "11;": 2277,
      "alph": 2278,
      "device": 2279,
      "current_": 2280,
      "ĠĠĠĠĠĠĠĠself.assertEqual(": 2281,
      "=None,Ġ": 2282,
      "langu": 2283,
      "applic": 2284,
      "4Ġ": 2285,
      "01": 2286,
      "}}": 2287,
      "âĢ": 2288,
      "root": 2289,
      "ĠĠĠĠ:": 2290,
      "likeĠ": 2291,
      "%Ġ(": 2292,
      "Ġ=Ġ[]": 2293,
      "(r'": 2294,
      "ate(": 2295,
      "ĠĠĠĠ>>>Ġ": 2296,
      "export": 2297,
      "Ġ*Ġ@paramĠ": 2298,
      "igno": 2299,
      "'])": 2300,
      "click": 2301,
      "ution": 2302,
      "}ĠelseĠ{": 2303,
      "stack": 2304,
      "_index": 2305,
      "parent": 2306,
      "indi": 2307,
      "ORĠ": 2308,
      "ĠĠĠĠĠĠĠĠĠĠĠĠĠĠĠĠ#Ġ": 2309,
      "ĠĠĠĠĉa2": 2310,
      "as_": 2311,
      "current": 2312,
      "0,Ġ0,Ġ": 2313,
      "GE": 2314,
      "Context": 2315,
      "first": 2316,
      "&Ġ": 2317,
      "1,\"": 2318,
      "ĠĠĠĠĠĠĠĠifĠnotĠ": 2319,
      "transition": 2320,
      "stop": 2321,
      "lat": 2322,
      "import": 2323,
      "debug": 2324,
      "moment": 2325,
      "lig": 2326,
      "63": 2327,
      "Per": 2328,
      ":Ġstr": 2329,
      "text_": 2330,
      "Fa": 2331,
      "\":1,\"": 2332,
      "classe": 2333,
      "name__": 2334,
      "MatchMak": 2335,
      "Group": 2336,
      "ward": 2337,
      "uration": 2338,
      "kno": 2339,
      "numberĠofĠ": 2340,
      "Or": 2341,
      "defĠtest_": 2342,
      "resh": 2343,
      "hour": 2344,
      "stride": 2345,
      "static": 2346,
      "sĠthatĠ": 2347,
      "ĉĉĉ}": 2348,
      "thenĠ": 2349,
      "auto": 2350,
      "Ġ\"": 2351,
      "Defa": 2352,
      "syste": 2353,
      "include": 2354,
      ".get_": 2355,
      "factor": 2356,
      "Sequen": 2357,
      "name=\"": 2358,
      "0-": 2359,
      "utf-8": 2360,
      "s)Ġ{": 2361,
      "os": 2362,
      "/*": 2363,
      "custo": 2364,
      "ĠĠĠĠĠĠĠĠĠĠĠĠelse:": 2365,
      "push": 2366,
      "background": 2367,
      "ai": 2368,
      "ĉĠĠĠĠĠĠĠĠ": 2369,
      "otherĠ": 2370,
      "r_": 2371,
      "Tensor": 2372,
      "Add": 2373,
      "'.": 2374,
      "][": 2375,
      "endĠ": 2376,
      "mission": 2377,
      "cri": 2378,
      "Ġ{": 2379,
      "Sh": 2380,
      "YouĠ": 2381,
      "portĠ": 2382,
      "kernel": 2383,
      "data,Ġ": 2384,
      "jang": 2385,
      "idx": 2386,
      "willĠbeĠ": 2387,
      "template": 2388,
      "libci": 2389,
      "HO": 2390,
      "textĠ": 2391,
      "Function": 2392,
      "\".format(": 2393,
      "id=\"": 2394,
      "(1,Ġ": 2395,
      "Ro": 2396,
      "ĠĠĠĠĉa20": 2397,
      "0Ġ=Ġ": 2398,
      "symbol": 2399,
      "Inter": 2400,
      "full": 2401,
      "ĠĠĠĠĠĠĠĠĠĠĠĠraiseĠ": 2402,
      "Ġ=Ġ{": 2403,
      "exception": 2404,
      "metri": 2405,
      "ct.": 2406,
      "enseĠ": 2407,
      "ĠĠĠĠĠĠĠĠreturnĠself.": 2408,
      "4.": 2409,
      "myĠ": 2410,
      "Fro": 2411,
      "marg": 2412,
      "display": 2413,
      "ĠĠĠĠĉa15": 2414,
      "Wh": 2415,
      "args,Ġ": 2416,
      "PyObjectĠ*": 2417,
      "xml": 2418,
      "sm": 2419,
      "0);": 2420,
      "../../": 2421,
      "redĠ": 2422,
      "ĠĠĠĠĠĠĠĠĠĠĠĠĠĠĠĠĠĠĠĠĠĠ": 2423,
      "origin": 2424,
      "face": 2425,
      "section": 2426,
      "currentĠ": 2427,
      "ima": 2428,
      "IP": 2429,
      "encode": 2430,
      "Image": 2431,
      "child": 2432,
      "listĠofĠ": 2433,
      "data-": 2434,
      "np": 2435,
      ")?": 2436,
      "math": 2437,
      "ĠĠĠĠĠĠĠĠĠĠĠĠĠĠĠĠ\"": 2438,
      "lex": 2439,
      ")Ġ%Ġ": 2440,
      "Ġ*Ġ@paramĠ{": 2441,
      "mock": 2442,
      "id_": 2443,
      "file.": 2444,
      "Page": 2445,
      "active": 2446,
      "signedĠ": 2447,
      "ĠĠĠĠĉa7": 2448,
      "sameĠ": 2449,
      "contin": 2450,
      "cc": 2451,
      "__name__": 2452,
      "o_": 2453,
      "EL": 2454,
      "optim": 2455,
      "metadata": 2456,
      "ĉĉreturnĠ": 2457,
      "dayĠ": 2458,
      "ĠĠĠĠĠĠĠĠĠĠĠĠĠĠĠ": 2459,
      "tingĠ": 2460,
      "body": 2461,
      "Line": 2462,
      "ĉ};": 2463,
      "entr": 2464,
      "nb": 2465,
      "ï¼": 2466,
      "s():": 2467,
      "batch_size": 2468,
      "/g": 2469,
      "Ġ=Ġ_": 2470,
      "'],": 2471,
      "border-": 2472,
      "'>": 2473,
      "models.": 2474,
      "09": 2475,
      "type=\"": 2476,
      "memb": 2477,
      "color:Ġ": 2478,
      "find": 2479,
      "onĠtheĠ": 2480,
      "nav": 2481,
      "s);": 2482,
      "By": 2483,
      "list(": 2484,
      "ĉĉĉreturnĠ": 2485,
      "bottom": 2486,
      "ant": 2487,
      "ched": 2488,
      "Ġ=Ġ10;": 2489,
      "a,Ġ": 2490,
      "ĠĠĠĠĠĠĠĠĠĠĠĠĠĠĠĠreturnĠ": 2491,
      "needĠ": 2492,
      "47": 2493,
      "MatchMaker": 2494,
      "_mask": 2495,
      "bet": 2496,
      "Frame": 2497,
      "inst": 2498,
      "integ": 2499,
      "NUL": 2500,
      "s)Ġ": 2501,
      "Code": 2502,
      "0.5": 2503,
      "cn": 2504,
      "ED": 2505,
      "tĠtoĠ": 2506,
      "fromĠtheĠ": 2507,
      "fac.": 2508,
      "epoch": 2509,
      "_IN": 2510,
      "execu": 2511,
      "ori": 2512,
      "\\3": 2513,
      "&#": 2514,
      "On": 2515,
      "DAT": 2516,
      "Ġ-": 2517,
      "delete": 2518,
      "eĠtheĠ": 2519,
      "thonĠ": 2520,
      "email": 2521,
      "Li": 2522,
      ",Ġ[": 2523,
      "cro": 2524,
      "Fo": 2525,
      "syn": 2526,
      "rĠ=Ġ": 2527,
      "margin": 2528,
      "AM": 2529,
      "iĠinĠrange(": 2530,
      "undĠ": 2531,
      "awa": 2532,
      "alle": 2533,
      "ĠĠ<": 2534,
      "Format": 2535,
      "ures": 2536,
      "ssĠ": 2537,
      "hash": 2538,
      "location": 2539,
      "tifi": 2540,
      "(__pyx_t_": 2541,
      "tr>": 2542,
      "ningĠ": 2543,
      "gment": 2544,
      "medi": 2545,
      "s.get": 2546,
      "s[\"": 2547,
      "ĠĠĠĠ)": 2548,
      "_B": 2549,
      "tail": 2550,
      "ĠĠĠĠĠĠĠĠĠĠĠĠĠĠĠĠĠĠĠĠĠĠĠĠĠĠĠĠĠĠĠĠĠĠĠĠ": 2551,
      "follow": 2552,
      "]))": 2553,
      "Token": 2554,
      "collection": 2555,
      "ĠĠĠĠĠĠĠĠĠĠĠĠĠĠĠĠĠĠĠĠĠĠĠĠĠĠĠĠĠĠĠĠĠĠĠĠĠĠĠĠ": 2556,
      "1);": 2557,
      "uid": 2558,
      "value,Ġ": 2559,
      "radi": 2560,
      "\\x01": 2561,
      "(-": 2562,
      "ding": 2563,
      "acces": 2564,
      "Sub": 2565,
      "ĠĠĠĠelse:": 2566,
      "Exp": 2567,
      "ide": 2568,
      "mu": 2569,
      "query": 2570,
      "extension": 2571,
      "itsĠ": 2572,
      ".add_argument": 2573,
      "IO": 2574,
      "==Ġ\"": 2575,
      "page.": 2576,
      "))Ġ{": 2577,
      "prob": 2578,
      "attern": 2579,
      "builtin_": 2580,
      "').": 2581,
      "m,Ġ": 2582,
      "foo": 2583,
      "req": 2584,
      "Ġ=Ġ3;": 2585,
      "wasĠ": 2586,
      "Ġ=Ġ9;": 2587,
      "c-": 2588,
      "prop": 2589,
      "djang": 2590,
      "################################": 2591,
      "mpleĠ": 2592,
      "ster": 2593,
      "txt": 2594,
      "limit": 2595,
      "'):": 2596,
      "Spe": 2597,
      "code>": 2598,
      "usedĠ": 2599,
      "min_": 2600,
      "ightĠ": 2601,
      "None,": 2602,
      "meta": 2603,
      "obj.": 2604,
      "gin": 2605,
      "lear": 2606,
      "\"),": 2607,
      "2;": 2608,
      "NoneĠ": 2609,
      "<=Ġ": 2610,
      "schema": 2611,
      "ĉĉ}": 2612,
      "Color": 2613,
      "handle": 2614,
      "Ġ=ĠTrue": 2615,
      "NULL": 2616,
      "isĠaĠ": 2617,
      "TP": 2618,
      "regist": 2619,
      "now": 2620,
      "-2": 2621,
      "vid": 2622,
      "icon": 2623,
      "intoĠ": 2624,
      "spac": 2625,
      "target_": 2626,
      "edi": 2627,
      "Gener": 2628,
      "256": 2629,
      "pyĠ": 2630,
      "assert.": 2631,
      "track": 2632,
      "dedĠ": 2633,
      "formĠ": 2634,
      "ĠĠĠĠĠĠ}": 2635,
      "priv": 2636,
      "col-": 2637,
      "na": 2638,
      "tw": 2639,
      "ner": 2640,
      "\"))": 2641,
      "ĠĠĠĠĠĠĠĠ:paramĠ": 2642,
      "moreĠ": 2643,
      "3)": 2644,
      "roo": 2645,
      "URL": 2646,
      "underĠtheĠ": 2647,
      "testĠ": 2648,
      "givenĠ": 2649,
      "int,Ġ": 2650,
      "cĠ=Ġ": 2651,
      "dtype": 2652,
      "Input": 2653,
      "Ġ<Ġ": 2654,
      "Wa": 2655,
      "k_": 2656,
      "book": 2657,
      "Ġ:Ġ": 2658,
      "s;": 2659,
      "dist": 2660,
      "ativeĠ": 2661,
      "</p>": 2662,
      "Be": 2663,
      "(i": 2664,
      "isĠnotĠNone:": 2665,
      "DEF": 2666,
      "izer": 2667,
      ".ĠĠ": 2668,
      "ithub": 2669,
      "Size": 2670,
      "loop": 2671,
      "ive": 2672,
      "07": 2673,
      "fn": 2674,
      "corre": 2675,
      "flow": 2676,
      "_state": 2677,
      "s']": 2678,
      "sĠ=Ġself.": 2679,
      "Py_": 2680,
      "ce(": 2681,
      "Ġ=ĠFalse": 2682,
      ",ĠĠ": 2683,
      "buffer": 2684,
      "sd": 2685,
      "methodĠ": 2686,
      "libcity.": 2687,
      "canĠbeĠ": 2688,
      "'.format(": 2689,
      "ĠasĠ": 2690,
      "Not": 2691,
      "std::": 2692,
      "\\x00\\x00": 2693,
      "case": 2694,
      "ĠĠĠĠĉa5": 2695,
      "Day": 2696,
      "outputĠ": 2697,
      "ERR": 2698,
      "Lay": 2699,
      "name)": 2700,
      "ifĠ(!": 2701,
      "uff": 2702,
      "network": 2703,
      "Ġ=Ġ8;": 2704,
      "notĠinĠ": 2705,
      "ful": 2706,
      "nd": 2707,
      "fini": 2708,
      "Update": 2709,
      "ĠĠĠ*": 2710,
      "setup": 2711,
      "\\x80": 2712,
      "__(": 2713,
      "connection": 2714,
      "::Ġ": 2715,
      "bg": 2716,
      "ĉĠĠĠĠĠĠĠĠĠĠĠĠ": 2717,
      "ĉt": 2718,
      "lib/": 2719,
      "From": 2720,
      "check_": 2721,
      "key,Ġ": 2722,
      "expr": 2723,
      "=None):": 2724,
      "_to_": 2725,
      "5.": 2726,
      "__builtin_": 2727,
      "Call": 2728,
      "App": 2729,
      "sifi": 2730,
      "uleĠ": 2731,
      "s',": 2732,
      "suc": 2733,
      "7,Ġ": 2734,
      "daĠ": 2735,
      "parser.add_argument": 2736,
      "author": 2737,
      "vectorĠ": 2738,
      "gre": 2739,
      "differen": 2740,
      "sible": 2741,
      "side": 2742,
      "pyx": 2743,
      "_value": 2744,
      "sin": 2745,
      "NAME": 2746,
      "Ġ&&Ġ(": 2747,
      "KE": 2748,
      "Parser": 2749,
      "kel": 2750,
      "Ġ=Ġ6;": 2751,
      "LicenseĠ": 2752,
      "_r": 2753,
      "~~": 2754,
      "avail": 2755,
      "add(": 2756,
      "arrayĠ": 2757,
      "fromĠ.": 2758,
      "identi": 2759,
      "home": 2760,
      "000": 2761,
      "endif": 2762,
      "\\x30": 2763,
      "art": 2764,
      ")(": 2765,
      "ack": 2766,
      "Run": 2767,
      "thread": 2768,
      "ĉĠĠĠĠ": 2769,
      "optional": 2770,
      "Coun": 2771,
      "_data": 2772,
      "Ġ=Ġ7;": 2773,
      "---": 2774,
      "--Ġ": 2775,
      "tab": 2776,
      "Windo": 2777,
      "ForĠ": 2778,
      "fill": 2779,
      "calcul": 2780,
      ",ĠandĠ": 2781,
      "ML": 2782,
      "Default": 2783,
      "999": 2784,
      "Ġ>Ġ": 2785,
      "tree": 2786,
      "IF": 2787,
      "csv": 2788,
      "Net": 2789,
      "continue": 2790,
      "job": 2791,
      "io": 2792,
      "open(": 2793,
      "anti": 2794,
      "CL": 2795,
      "gram": 2796,
      "s))": 2797,
      "Property": 2798,
      "_dict": 2799,
      "SP": 2800,
      "vl": 2801,
      "component": 2802,
      "ĠĠvarĠ": 2803,
      "Ġ=Ġself._": 2804,
      "whereĠ": 2805,
      "evalu": 2806,
      "end_": 2807,
      "likel": 2808,
      "write(": 2809,
      "c,Ġ": 2810,
      "__pyx_L": 2811,
      "As": 2812,
      "ĉ#Ġ": 2813,
      "The": 2814,
      "build": 2815,
      "Case": 2816,
      "isĠNone:": 2817,
      "Res": 2818,
      "ĠĠ//Ġ": 2819,
      "Map": 2820,
      "user_": 2821,
      "undefine": 2822,
      "replace": 2823,
      "));": 2824,
      "'Ġ%Ġ": 2825,
      "set(": 2826,
      "os.path.join(": 2827,
      "d\\": 2828,
      "ec": 2829,
      "Gra": 2830,
      "_.": 2831,
      "warning": 2832,
      "PRO": 2833,
      "ĠĠĠĠ//Ġ": 2834,
      "pool": 2835,
      "reque": 2836,
      "vol": 2837,
      "last_": 2838,
      "on'tĠ": 2839,
      "startĠ": 2840,
      "gres": 2841,
      "\\xc0": 2842,
      "mil": 2843,
      "publicĠ": 2844,
      "[i]": 2845,
      "red_": 2846,
      "array(": 2847,
      "someĠ": 2848,
      "random.": 2849,
      "bit": 2850,
      "\".": 2851,
      "thereĠ": 2852,
      "stanceĠ": 2853,
      "Y_": 2854,
      "use_": 2855,
      "cer": 2856,
      "08": 2857,
      "MO": 2858,
      "S.": 2859,
      "bound": 2860,
      "')Ġ": 2861,
      "loadĠ": 2862,
      "ĠĠĠĠĠĠĠĠtry:": 2863,
      "justĠ": 2864,
      "apeĠ": 2865,
      "atorĠ": 2866,
      "(p": 2867,
      "quo": 2868,
      "ual": 2869,
      "git": 2870,
      "desc": 2871,
      "pack_": 2872,
      "n'tĠ": 2873,
      "tt": 2874,
      "pick": 2875,
      "allo": 2876,
      "ment_": 2877,
      "awaitĠ": 2878,
      "disable": 2879,
      "dest": 2880,
      "alog": 2881,
      "Optional": 2882,
      "prototype": 2883,
      ".shape": 2884,
      "Copy": 2885,
      "clear": 2886,
      "ĠĠĠĠĠĠĠĠĠĠĠĠ(r'": 2887,
      ")Ġ&&Ġ(": 2888,
      "neg": 2889,
      "ĠifĠ": 2890,
      "let": 2891,
      "ach": 2892,
      "key_": 2893,
      "distribute": 2894,
      "2.0": 2895,
      "shouldĠbeĠ": 2896,
      "ingĠtoĠ": 2897,
      ")Ġ&&Ġa": 2898,
      "btn": 2899,
      "Wait": 2900,
      "enumer": 2901,
      "thĠ": 2902,
      "\\x38": 2903,
      "\\t": 2904,
      "validĠ": 2905,
      "TYP": 2906,
      "12;": 2907,
      "bject_": 2908,
      "UP": 2909,
      "look": 2910,
      "resol": 2911,
      "car": 2912,
      "(),": 2913,
      "unsignedĠ": 2914,
      "viron": 2915,
      "Attribute": 2916,
      "password": 2917,
      "Imp": 2918,
      "ityĠ": 2919,
      "log_": 2920,
      "'ĠinĠ": 2921,
      "THON": 2922,
      "y/": 2923,
      "ĠĠĠĠĠĠĠĠsup": 2924,
      "ĠĠĠĠwithĠ": 2925,
      "default_": 2926,
      "conten": 2927,
      "LIN": 2928,
      ".org/": 2929,
      "present": 2930,
      "Le": 2931,
      "Dict": 2932,
      "menu": 2933,
      "BU": 2934,
      "proble": 2935,
      "traffi": 2936,
      "color='": 2937,
      "\\x03": 2938,
      "rule": 2939,
      "\\x60": 2940,
      "src=\"": 2941,
      "Label": 2942,
      "Ġ=ĠfunctionĠ(": 2943,
      "pipe": 2944,
      "Module": 2945,
      "pad": 2946,
      "sedĠ": 2947,
      "ĉvarĠ": 2948,
      "Ġ=Ġ4;": 2949,
      "\\xf8": 2950,
      "\\xcf": 2951,
      "ju": 2952,
      "+=Ġ1": 2953,
      "\\xf2": 2954,
      "encoding": 2955,
      "]:": 2956,
      "done": 2957,
      "Ġ*ĠĠĠĠĠ": 2958,
      "<<Ġ": 2959,
      "\\x02": 2960,
      "plug": 2961,
      "Request": 2962,
      "ĉĉĉĉ\"": 2963,
      "\\x9f": 2964,
      "arti": 2965,
      "tryĠ": 2966,
      "EC": 2967,
      "Respon": 2968,
      "pytest.": 2969,
      "Message": 2970,
      "A_": 2971,
      "enable": 2972,
      "Field": 2973,
      "ali": 2974,
      "tiveĠ": 2975,
      "\\x1b": 2976,
      "olean": 2977,
      "activ": 2978,
      "struct": 2979,
      "play": 2980,
      "ĠĠ__Pyx_": 2981,
      "exec": 2982,
      "s(self):": 2983,
      "github": 2984,
      "list_": 2985,
      "JS": 2986,
      "calle": 2987,
      "nameĠ=Ġ": 2988,
      "Button": 2989,
      "(b": 2990,
      "beforeĠ": 2991,
      "ĠĠĠĠĠĠĠĠ<": 2992,
      "(this": 2993,
      "\\x06": 2994,
      "\\xfc": 2995,
      "FN": 2996,
      "\\xe7": 2997,
      "\\x20": 2998,
      "singĠ": 2999,
      "isĠtheĠ": 3000,
      "ili": 3001,
      "Man": 3002,
      "dimen": 3003,
      "or_": 3004,
      "\\xf0": 3005,
      "__re": 3006,
      "CY": 3007,
      "Sp": 3008,
      "ick": 3009,
      ".set_": 3010,
      "ĠĠĠ*Ġ": 3011,
      "512": 3012,
      "'''": 3013,
      "ftwa": 3014,
      "mini": 3015,
      "stamp": 3016,
      "çļ": 3017,
      "Stat": 3018,
      "ĉ//Ġ": 3019,
      "ĠĠĠĠ--------": 3020,
      "\\x18": 3021,
      "</d": 3022,
      "cted": 3023,
      ",Ġ0.": 3024,
      "sĠofĠtheĠ": 3025,
      "html\">": 3026,
      "fut": 3027,
      "lambdaĠ": 3028,
      "thanĠ": 3029,
      "\\x07": 3030,
      "çļĦ": 3031,
      "VAL": 3032,
      "\\x32": 3033,
      "\\xf9": 3034,
      "\\xbf": 3035,
      "fail": 3036,
      "s\"]": 3037,
      "\\xff": 3038,
      "ĠĠĠĠĠ*Ġ": 3039,
      "ated": 3040,
      "attr(": 3041,
      "Window": 3042,
      "\\x33": 3043,
      "center": 3044,
      "ĠĠĠĠĠĠĠĠwithĠ": 3045,
      "errorĠ": 3046,
      "\\xfe": 3047,
      "y-": 3048,
      "\\x0c": 3049,
      "Su": 3050,
      "seeĠ": 3051,
      "\\xe3": 3052,
      "addĠ": 3053,
      "rg": 3054,
      "<d": 3055,
      "Tex": 3056,
      "'],Ġ": 3057,
      "a-": 3058,
      "py.": 3059,
      "=False)": 3060,
      "prefix": 3061,
      "Mul": 3062,
      "`.": 3063,
      "(n": 3064,
      ".h:": 3065,
      "iel": 3066,
      "ĠisĠnotĠ": 3067,
      "shuff": 3068,
      "Mat": 3069,
      "\\xef": 3070,
      "\\xe5": 3071,
      "part": 3072,
      "ĠĠĠĠĠĠĠĠ>>>Ġ": 3073,
      "hist": 3074,
      "box_": 3075,
      ".to": 3076,
      "\\xe0": 3077,
      "ctedĠ": 3078,
      "window": 3079,
      "\\x67": 3080,
      "\\x3a": 3081,
      "IZ": 3082,
      "\\x36": 3083,
      "\\xce": 3084,
      "dimension": 3085,
      "strip": 3086,
      "image_": 3087,
      "Ġ=Ġ5;": 3088,
      "i.": 3089,
      "Ġ=Ġ11;": 3090,
      "remo": 3091,
      "\\xdf": 3092,
      "\\xfb": 3093,
      "pret": 3094,
      "\\x39": 3095,
      "options.": 3096,
      "\\xaf": 3097,
      "\\xf1": 3098,
      "trib": 3099,
      "ĠĠĠĠself.": 3100,
      "ĠĠĠĠ<aĠclass=\"referenceĠinternal\"Ġhref=\"alfred3_interact.page.": 3101,
      "ader": 3102,
      "\\x7f": 3103,
      "son": 3104,
      "2:": 3105,
      "Number": 3106,
      ")]": 3107,
      "\\x31": 3108,
      "s':Ġ": 3109,
      "equ": 3110,
      "$D": 3111,
      "condition": 3112,
      "\\x2e": 3113,
      "'),Ġ": 3114,
      ".get('": 3115,
      "\\xa7": 3116,
      "proc.": 3117,
      "\\x93": 3118,
      "high": 3119,
      "tick": 3120,
      "ber": 3121,
      "\\xf6": 3122,
      "43": 3123,
      "iso": 3124,
      "ular": 3125,
      "node.": 3126,
      "\\xc3": 3127,
      "\\x3e": 3128,
      "sĠorĠ": 3129,
      "pyxb.": 3130,
      "chil": 3131,
      "doesĠ": 3132,
      "\\x3c": 3133,
      "afterĠ": 3134,
      "pay": 3135,
      "exit": 3136,
      "STR": 3137,
      "OFĠ": 3138,
      "r/": 3139,
      "game": 3140,
      "!==Ġ": 3141,
      "\\x7e": 3142,
      "\\xc7": 3143,
      "velo": 3144,
      "\\xeb": 3145,
      "#endif": 3146,
      "\\x8c": 3147,
      "NE": 3148,
      "dri": 3149,
      "\\xd3": 3150,
      "\\xa3": 3151,
      "ld": 3152,
      "lef": 3153,
      "/v": 3154,
      "numpyĠ": 3155,
      "=0.": 3156,
      "\\x04": 3157,
      "xel": 3158,
      "Local": 3159,
      "ha": 3160,
      "webpack_": 3161,
      "\\x79": 3162,
      "createĠ": 3163,
      "`,Ġ": 3164,
      "\\xbe": 3165,
      "\\x0e": 3166,
      "\\x7c": 3167,
      "\\x1f": 3168,
      "\\x8f": 3169,
      "i_": 3170,
      "zip": 3171,
      "Fil": 3172,
      "Ġ__": 3173,
      "\\xf7": 3174,
      "\\x9e": 3175,
      "iv": 3176,
      "short": 3177,
      "itch": 3178,
      "Iter": 3179,
      "app.": 3180,
      "\\x34": 3181,
      "if(": 3182,
      "\\xd8": 3183,
      "\\xd7": 3184,
      "\\xed": 3185,
      "Err": 3186,
      "\\x8e": 3187,
      "LL": 3188,
      "with_": 3189,
      "=True,Ġ": 3190,
      "\\xe9": 3191,
      "0,0,": 3192,
      "__webpack_": 3193,
      "s(self,Ġ": 3194,
      "Long": 3195,
      "ffe": 3196,
      "class_": 3197,
      "\\x9c": 3198,
      "opt": 3199,
      "permission": 3200,
      "**kwargs):": 3201,
      "\\xec": 3202,
      "flow_": 3203,
      "provide": 3204,
      "ĠorĠ": 3205,
      "s]": 3206,
      "Reg": 3207,
      "multip": 3208,
      "./": 3209,
      "</a></li>": 3210,
      "unk": 3211,
      "resource": 3212,
      "pair": 3213,
      "iĠ<Ġ": 3214,
      "sourceĠ": 3215,
      "\\x63": 3216,
      "queue": 3217,
      "\\xbc": 3218,
      "Oper": 3219,
      "leg": 3220,
      "\\x74": 3221,
      "inser": 3222,
      "Syste": 3223,
      "causeĠ": 3224,
      "dict_": 3225,
      "\\xe4": 3226,
      "DIR": 3227,
      "s[1]": 3228,
      "language": 3229,
      "CREF": 3230,
      "78": 3231,
      "posi": 3232,
      "includeĠ": 3233,
      "ell": 3234,
      "name='": 3235,
      "/^": 3236,
      "decod": 3237,
      "CS": 3238,
      "Sele": 3239,
      "decode": 3240,
      "\\x1c": 3241,
      "update_": 3242,
      "here": 3243,
      "MA": 3244,
      "549": 3245,
      "parti": 3246,
      "detail": 3247,
      "\\x0f": 3248,
      "[0],Ġ": 3249,
      "mas": 3250,
      "false;": 3251,
      "(int": 3252,
      "\\x4e": 3253,
      "read_": 3254,
      "assert.equal(": 3255,
      "\\x4f": 3256,
      "Auth": 3257,
      "MĠ": 3258,
      "\\xda": 3259,
      "(*": 3260,
      "1.0": 3261,
      "makeĠ": 3262,
      "__webpack_require": 3263,
      "\\xcb": 3264,
      "Off": 3265,
      "\\x3f": 3266,
      "modelĠ": 3267,
      "\\xc6": 3268,
      "u.": 3269,
      "\\xc9": 3270,
      "ĠĠĠĠĠĠĠĠĠĠĠĠĠĠĠĠĠĠĠ": 3271,
      "\\x76": 3272,
      "http://www.": 3273,
      "ï¼Į": 3274,
      "\\xb3": 3275,
      "ĊĊĊĊ": 3276,
      "ĠĠĠĠdefĠget_": 3277,
      "10,Ġ": 3278,
      "ever": 3279,
      "cm": 3280,
      "drop": 3281,
      "any": 3282,
      "\\x2f": 3283,
      "7/": 3284,
      "str,Ġ": 3285,
      "Table": 3286,
      "hy": 3287,
      "\\xca": 3288,
      "\\xf3": 3289,
      "\\xfa": 3290,
      "I'": 3291,
      "\\x19": 3292,
      "\\x87": 3293,
      "therĠ": 3294,
      "resultĠ=Ġ": 3295,
      "style=\"": 3296,
      "Len": 3297,
      "color:Ġ#": 3298,
      "\\xc1": 3299,
      "f\"": 3300,
      "verse": 3301,
      "$P": 3302,
      "\\x40": 3303,
      "symp": 3304,
      "extend": 3305,
      "\\x05": 3306,
      "ugh": 3307,
      "shapeĠ": 3308,
      "\\x97": 3309,
      "raise": 3310,
      "\\xdb": 3311,
      "ĠofĠtheĠ": 3312,
      "Char": 3313,
      "rate": 3314,
      "likely(": 3315,
      "needĠtoĠ": 3316,
      "soci": 3317,
      "boxe": 3318,
      "1e": 3319,
      "scriptĠ": 3320,
      "5Ġ": 3321,
      "\\x7b": 3322,
      "structĠ": 3323,
      "\\x1e": 3324,
      "Error:": 3325,
      "per_": 3326,
      "L_": 3327,
      "Activ": 3328,
      "countĠ": 3329,
      "note": 3330,
      "environ": 3331,
      ".replace": 3332,
      "it.": 3333,
      "s',Ġ": 3334,
      "\\x49": 3335,
      "\\x27": 3336,
      "inĠaĠ": 3337,
      "Colum": 3338,
      "OP": 3339,
      "n(": 3340,
      "imageĠ": 3341,
      "\\x69": 3342,
      "sl": 3343,
      "ĠĠifĠ(": 3344,
      "\\x5f": 3345,
      "reeĠ": 3346,
      "\\x37": 3347,
      "\\xb0": 3348,
      "n\">": 3349,
      "betwe": 3350,
      "ĠĠĠĠĠĠĠĠexceptĠ": 3351,
      "\\x78": 3352,
      "\\x5e": 3353,
      "mustĠbeĠ": 3354,
      "With": 3355,
      "status": 3356,
      "Qt": 3357,
      "ĠĠĠĠĠĠĠĠĠĠĠĠĠ#Ġ": 3358,
      "%sĠ": 3359,
      "record": 3360,
      "</code>": 3361,
      "perĠ": 3362,
      "\\xde": 3363,
      ".ĠTheĠ": 3364,
      "y)": 3365,
      "\\xd9": 3366,
      "5,": 3367,
      "\\xf5": 3368,
      "defĠ_": 3369,
      "alsoĠ": 3370,
      "\\xe2": 3371,
      "term": 3372,
      "****************": 3373,
      "struction": 3374,
      "datab": 3375,
      ")ĠandĠ": 3376,
      "send": 3377,
      "file_": 3378,
      "ĠĠĠĠĠĠĠĠraiseĠ": 3379,
      "\\xd2": 3380,
      "background-": 3381,
      "inform": 3382,
      "Ġ=Ġ((((": 3383,
      "\\x1d": 3384,
      "3_": 3385,
      "bleĠ": 3386,
      "ĠĠĠĠĉa6": 3387,
      "\\x9d": 3388,
      "function()Ġ{": 3389,
      "CYTHON": 3390,
      "none": 3391,
      "features": 3392,
      "protocol": 3393,
      "depend": 3394,
      "\\x14": 3395,
      "ignore": 3396,
      "\\x83": 3397,
      "that": 3398,
      "django.": 3399,
      "cab": 3400,
      "=(": 3401,
      "\\xae": 3402,
      "\\xbb": 3403,
      "Uni": 3404,
      "\\x73": 3405,
      "Comm": 3406,
      "YY": 3407,
      "\\xfd": 3408,
      "way": 3409,
      "site-": 3410,
      "\\xb7": 3411,
      "ctype": 3412,
      "\\x4c": 3413,
      "\\x3b": 3414,
      "Quer": 3415,
      "difi": 3416,
      "print_": 3417,
      "\\x47": 3418,
      "select": 3419,
      "Ġ**": 3420,
      "ache": 3421,
      "åı": 3422,
      "\\xb6": 3423,
      "license": 3424,
      "ĠĠĠĠĠĠĠĠvarĠ": 3425,
      "\\x6f": 3426,
      "#0000": 3427,
      "nbsp": 3428,
      "charact": 3429,
      "\\xf4": 3430,
      "execute": 3431,
      ".j": 3432,
      "roid": 3433,
      "\\x9b": 3434,
      "\\x6c": 3435,
      "\\xe1": 3436,
      "ed.": 3437,
      "\\x75": 3438,
      "wouldĠ": 3439,
      "\\x71": 3440,
      "peri": 3441,
      "Response": 3442,
      "ItĠ": 3443,
      "\\xb4": 3444,
      "&nbsp": 3445,
      "\\x99": 3446,
      "summar": 3447,
      "31": 3448,
      "\\xd0": 3449,
      "\").": 3450,
      "\\xd6": 3451,
      "expression": 3452,
      "\\xe8": 3453,
      "},Ġ": 3454,
      "ENT": 3455,
      ".png": 3456,
      "\\x72": 3457,
      "howĠ": 3458,
      "\\xc8": 3459,
      "total_": 3460,
      "Example": 3461,
      "ty_": 3462,
      "time_": 3463,
      "this.get": 3464,
      "\\x0a": 3465,
      "u\"": 3466,
      "Ġ==Ġ\"": 3467,
      "dete": 3468,
      "&nbsp;": 3469,
      "dev": 3470,
      "role": 3471,
      "\\x65": 3472,
      "float32": 3473,
      "axis=": 3474,
      "shuffle": 3475,
      "ĠĠĠĠ_": 3476,
      "it_": 3477,
      "ature": 3478,
      "width:Ġ": 3479,
      "/us": 3480,
      "ape": 3481,
      "\\x81": 3482,
      "CopyrightĠ": 3483,
      "\\x46": 3484,
      "c(": 3485,
      "\\xab": 3486,
      "\\x77": 3487,
      "shif": 3488,
      "\\x53": 3489,
      "cd": 3490,
      "\\xba": 3491,
      "ateg": 3492,
      "\\x94": 3493,
      "\\x61": 3494,
      "None)": 3495,
      "DB": 3496,
      "constan": 3497,
      "\\x09": 3498,
      "ted_": 3499,
      "eith": 3500,
      "\\xa6": 3501,
      "<p>": 3502,
      "46": 3503,
      "\\x1a": 3504,
      "\\x57": 3505,
      "\\x95": 3506,
      "angle": 3507,
      "95": 3508,
      "\\x6b": 3509,
      "twoĠ": 3510,
      "\\xea": 3511,
      "Version": 3512,
      "returnĠ{": 3513,
      "\\x92": 3514,
      "sureĠ": 3515,
      "\\xac": 3516,
      "\\xee": 3517,
      "redu": 3518,
      "\\xb9": 3519,
      "/usr/": 3520,
      "serve": 3521,
      "as.": 3522,
      "known": 3523,
      "({": 3524,
      "Week": 3525,
      "\\xc5": 3526,
      "\\xd1": 3527,
      "gu": 3528,
      "ĠĠ\"": 3529,
      "Math": 3530,
      "v2": 3531,
      "LE_": 3532,
      "\\x7d": 3533,
      "\\x90": 3534,
      "yiel": 3535,
      "viou": 3536,
      "ctx": 3537,
      "K_": 3538,
      "/*Ġ\"": 3539,
      "sequence": 3540,
      "dump": 3541,
      "p\">": 3542,
      "\\x98": 3543,
      "tif": 3544,
      "QU": 3545,
      "<<<<<<": 3546,
      "split('": 3547,
      "itor": 3548,
      "<<<<<<<<<<<<<<": 3549,
      "LIC": 3550,
      "ĠĠĠĠĠĠĠĠĠĠĠĠĠ#Ġ<<<<<<<<<<<<<<": 3551,
      "ardĠ": 3552,
      "typeofĠ": 3553,
      "8,Ġ": 3554,
      "Ext": 3555,
      "mid": 3556,
      "parse_": 3557,
      "\\x86": 3558,
      "ĠĠĠĠ:paramĠ": 3559,
      "\\xbd": 3560,
      "minute": 3561,
      "r'": 3562,
      "SER": 3563,
      "WAR": 3564,
      "\\x96": 3565,
      "\\x5c": 3566,
      "C_": 3567,
      "caseĠ\"": 3568,
      "ĠĠĠĠĠĠĠĠĠĠĠĠĠĠĠĠĠĠĠĠĠ": 3569,
      "PythonĠ": 3570,
      "UM": 3571,
      "fon": 3572,
      "\\x23": 3573,
      "76": 3574,
      "prot.": 3575,
      "specificĠ": 3576,
      "+Ġ(": 3577,
      "logging.": 3578,
      "\\xa5": 3579,
      "domain": 3580,
      "\"></": 3581,
      "(?": 3582,
      "uti": 3583,
      "ĠĠĠĠĠĠĠĠĠĠĠĠ)": 3584,
      "Com": 3585,
      "\"Ġ%Ġ": 3586,
      "dra": 3587,
      "90": 3588,
      "\\x70": 3589,
      "><": 3590,
      "\\x59": 3591,
      "module.": 3592,
      "\\x13": 3593,
      "ĠĠĠĠĠĠĠĠĠĠĠĠĠĠĠĠĠĠĠĠifĠ": 3594,
      "GL_": 3595,
      "ose": 3596,
      "Ġ*ĠĠĠĠĠĠĠĠĠ": 3597,
      "alpha": 3598,
      "[:,Ġ": 3599,
      "\\x82": 3600,
      "tu": 3601,
      "double": 3602,
      "GL/g": 3603,
      "future": 3604,
      "\\xa0": 3605,
      "\\xa4": 3606,
      "Syn": 3607,
      "ĠĠĠĠelifĠ": 3608,
      "lib/python": 3609,
      "array([": 3610,
      "-0": 3611,
      "\\x35": 3612,
      "prox": 3613,
      "feren": 3614,
      "followingĠ": 3615,
      "s.length": 3616,
      "resultĠ": 3617,
      "Widget": 3618,
      "\\xad": 3619,
      "ĠĠĠĠĠĠ\"": 3620,
      "[2": 3621,
      "gt_": 3622,
      "\\x26": 3623,
      "ĠĠĠĠĠĠreturnĠ": 3624,
      "oc": 3625,
      "Flo": 3626,
      "thresh": 3627,
      "don'tĠ": 3628,
      "pk": 3629,
      "</span>Ġ": 3630,
      "API": 3631,
      "\\x17": 3632,
      "Multi": 3633,
      "(np.": 3634,
      "\\x91": 3635,
      "\\xb1": 3636,
      "Vari": 3637,
      "\\x24": 3638,
      "data)": 3639,
      "ĠĠĠĠĠĠĠĠĠĠĠĠ<": 3640,
      "ĠĠĠĠĠĠĠĠĠĠĠĠself._": 3641,
      "gex": 3642,
      "]]": 3643,
      "\\xb2": 3644,
      "Open": 3645,
      "ctx.": 3646,
      "find_": 3647,
      "type:Ġ": 3648,
      "ice": 3649,
      "plat": 3650,
      ",Ġ_": 3651,
      "comment": 3652,
      "site-package": 3653,
      "memory": 3654,
      "css": 3655,
      ",ĠtheĠ": 3656,
      "lastĠ": 3657,
      "mal": 3658,
      "_CO": 3659,
      "distributedĠ": 3660,
      "94": 3661,
      "coordin": 3662,
      "\\xcc": 3663,
      "dtype=": 3664,
      "1))": 3665,
      "timeout": 3666,
      "clude": 3667,
      "Page.": 3668,
      "\\xc4": 3669,
      "INTER": 3670,
      "Waiting": 3671,
      "delta": 3672,
      "\\xb5": 3673,
      "\\x0d": 3674,
      "\\xdd": 3675,
      "lext": 3676,
      "================================": 3677,
      "AUL": 3678,
      "Integ": 3679,
      "rot": 3680,
      "[3": 3681,
      "\\x68": 3682,
      "());": 3683,
      "true;": 3684,
      "client.": 3685,
      "Tag": 3686,
      "\\x8b": 3687,
      "\\xe6": 3688,
      "anceĠ": 3689,
      "loss_": 3690,
      "BO": 3691,
      "translate": 3692,
      "\\xdc": 3693,
      "img_": 3694,
      "ing:Ġ": 3695,
      "request.": 3696,
      "ĠĠĠĠĠĠĠĠĠĠĠĠĠĠĠĠĠĠĠĠself.": 3697,
      "Ġ/Ġ": 3698,
      "sĠasĠ": 3699,
      "null;": 3700,
      "\\x3d": 3701,
      "bas": 3702,
      "}/": 3703,
      "s')": 3704,
      "lext.h:": 3705,
      "ulture": 3706,
      "Ab": 3707,
      "\\x64": 3708,
      "\\x4b": 3709,
      "\\x41": 3710,
      "Ġ=ĠnewĠ": 3711,
      "sĠ=Ġ{": 3712,
      "lap": 3713,
      ".py": 3714,
      "ĠĠĠĠ@property": 3715,
      "\\x7a": 3716,
      "abili": 3717,
      "\\xd5": 3718,
      "\\x28": 3719,
      "\\x43": 3720,
      "=True,": 3721,
      "82": 3722,
      "\\x58": 3723,
      "linkĠ": 3724,
      "base_": 3725,
      "Ġ===Ġ": 3726,
      "\\x8d": 3727,
      "wantĠtoĠ": 3728,
      "JSON": 3729,
      "x2": 3730,
      "\\x29": 3731,
      "96": 3732,
      "\\x2b": 3733,
      "vocab": 3734,
      "lu": 3735,
      "operator": 3736,
      "sec": 3737,
      "\\x6d": 3738,
      "Sty": 3739,
      "Ġ=Ġtf.": 3740,
      "\\xc2": 3741,
      "path,Ġ": 3742,
      "\\x0b": 3743,
      "DEFAUL": 3744,
      "arr": 3745,
      "56": 3746,
      "Sequence": 3747,
      "ĠĠĠĠĠĠĠĠre": 3748,
      "Ġ==Ġ33": 3749,
      "\\x12": 3750,
      "\\x08": 3751,
      "\\xb8": 3752,
      "i++": 3753,
      "suppor": 3754,
      "\\x6e": 3755,
      ".\"\"\"": 3756,
      "T\":1,\"": 3757,
      "iĠinĠ": 3758,
      "\\x66": 3759,
      "(t": 3760,
      "rand": 3761,
      "(self._": 3762,
      "\\x5b": 3763,
      "ER_": 3764,
      "rowĠ": 3765,
      "moun": 3766,
      "Ġ*Ġ@returnĠ{": 3767,
      "\\x2c": 3768,
      "Is": 3769,
      "children": 3770,
      "ĠĠĠĠĠĠĠĠĠĠĠĠelifĠ": 3771,
      "<tdĠclass=\"": 3772,
      "Norm": 3773,
      ";Ġ}": 3774,
      "pow": 3775,
      "Glob": 3776,
      "categor": 3777,
      "id,Ġ": 3778,
      "Min": 3779,
      "through": 3780,
      "required": 3781,
      "\\x51": 3782,
      "own": 3783,
      "\\x8a": 3784,
      "Cur": 3785,
      "batch_": 3786,
      "forĠ(": 3787,
      "Month": 3788,
      "service": 3789,
      "Web": 3790,
      "\\n'": 3791,
      "IM": 3792,
      "ĉĉĉifĠ(": 3793,
      "ĉĠĠĠĠĠĠĠĠĠĠĠĠĠĠĠĠ": 3794,
      "tax": 3795,
      "Type.": 3796,
      "pointĠ": 3797,
      "letĠ": 3798,
      "elementĠ": 3799,
      "Ref": 3800,
      "store": 3801,
      "inline": 3802,
      "\\xa9": 3803,
      "timestamp": 3804,
      "final_": 3805,
      "require('": 3806,
      "quanti": 3807,
      "poly": 3808,
      "1/": 3809,
      "\\x56": 3810,
      "Parameters": 3811,
      "seed": 3812,
      "handl": 3813,
      "SION": 3814,
      "control": 3815,
      "WaitingPage.": 3816,
      "\",\"": 3817,
      "allow": 3818,
      "site-packages/": 3819,
      "Culture": 3820,
      "mise": 3821,
      "of_": 3822,
      "soli": 3823,
      "slice": 3824,
      "\\x4d": 3825,
      "\\x48": 3826,
      "ĠĠĠĠĠĠĠĠdefĠ": 3827,
      "metric": 3828,
      "scre": 3829,
      "member": 3830,
      "sĠwithĠ": 3831,
      "ĉĉ\"": 3832,
      "UB": 3833,
      "sĠ=Ġnp.": 3834,
      "\\x89": 3835,
      "samp": 3836,
      "=None,": 3837,
      "ifĠtheĠ": 3838,
      "betweenĠ": 3839,
      ":ĠfunctionĠ(": 3840,
      "Atom": 3841,
      ",Ġb": 3842,
      "TODO": 3843,
      "72": 3844,
      "ch_": 3845,
      "\"Ġclass=\"": 3846,
      "transp": 3847,
      "plan": 3848,
      "////////": 3849,
      "ĉĉĉĉreturnĠ": 3850,
      "s',Ġ'": 3851,
      "1)Ġ": 3852,
      ",ĠbutĠ": 3853,
      "classifi": 3854,
      "dential": 3855,
      "ĠĠĠĠĠĠifĠ(": 3856,
      "region": 3857,
      "\\x15": 3858,
      "\\x5d": 3859,
      "\\x2d": 3860,
      "senten": 3861,
      "Valid": 3862,
      "Ini": 3863,
      "\\x16": 3864,
      "termin": 3865,
      "ĠĠĠĠĉa80": 3866,
      "manag": 3867,
      "ul>": 3868,
      "ĠĠĠĠĠĠĠĠĠĠĠĠĠĠĠĠĠĠĠĠĠĠĠĠĠĠ": 3869,
      "shor": 3870,
      "Ġ=Ġ0;Ġ": 3871,
      "itemĠ": 3872,
      "Ð°": 3873,
      "like": 3874,
      "\\x9a": 3875,
      "tic": 3876,
      "stor": 3877,
      "FI": 3878,
      "core.": 3879,
      "\\x5a": 3880,
      "withoutĠ": 3881,
      ".0": 3882,
      "RAN": 3883,
      "importĠos": 3884,
      "FFFF": 3885,
      "<aĠhref=\"#": 3886,
      "verbo": 3887,
      "cept": 3888,
      "``Ġ": 3889,
      "AA": 3890,
      "common": 3891,
      "mĠ=Ġ": 3892,
      "toĠbeĠ": 3893,
      "cursor": 3894,
      "HTTP": 3895,
      "self).": 3896,
      "instanceĠ": 3897,
      "complete": 3898,
      "\\x10": 3899,
      "rie": 3900,
      "rent": 3901,
      "Mem": 3902,
      "1),Ġ": 3903,
      "\\x85": 3904,
      "spaceĠ": 3905,
      "4,": 3906,
      "ATH": 3907,
      "Wri": 3908,
      "\\s": 3909,
      "ctive": 3910,
      "%d": 3911,
      "Ðµ": 3912,
      "\"\"\"Ġ": 3913,
      "Temp": 3914,
      "GL/glext.h:": 3915,
      "userĠ": 3916,
      "\\x4a": 3917,
      "ech": 3918,
      "300": 3919,
      "Ġ=Ġ{}": 3920,
      "eno": 3921,
      "\\xcd": 3922,
      "ume": 3923,
      "rowser": 3924,
      "zeros(": 3925,
      "WIT": 3926,
      "k,Ġ": 3927,
      "direction": 3928,
      "k.": 3929,
      "light": 3930,
      "sĠfromĠ": 3931,
      "\\x25": 3932,
      "_input": 3933,
      "\\xd4": 3934,
      "ĉĉĉĉ}": 3935,
      "5)": 3936,
      "sig-": 3937,
      "x4": 3938,
      ",Ġre": 3939,
      "digit": 3940,
      "ĠĠĠĠĉa17": 3941,
      "InĠ": 3942,
      "\\xa1": 3943,
      "Wor": 3944,
      "tableĠ": 3945,
      "\\x52": 3946,
      "nl": 3947,
      "TypeError": 3948,
      "\\x62": 3949,
      "orderĠ": 3950,
      "void": 3951,
      "\\x2a": 3952,
      "project": 3953,
      "GO": 3954,
      "Scal": 3955,
      "eitherĠ": 3956,
      "umĠ": 3957,
      "Ġ=Ġ1": 3958,
      "json.": 3959,
      "GetĠ": 3960,
      "(d": 3961,
      "init": 3962,
      "anim": 3963,
      "prev": 3964,
      "(_": 3965,
      "anal": 3966,
      "becauseĠ": 3967,
      "anch": 3968,
      "deg": 3969,
      "dingĠ": 3970,
      "ĉĉĉvarĠ": 3971,
      "openmt": 3972,
      "ENSE": 3973,
      "umentĠ": 3974,
      "\\x54": 3975,
      "0)Ġ{": 3976,
      "upĠ": 3977,
      "={": 3978,
      "sĠinĠtheĠ": 3979,
      "Que": 3980,
      "Symbol": 3981,
      "Dist": 3982,
      "log.": 3983,
      "leaseĠ": 3984,
      "margin-": 3985,
      "\\d": 3986,
      "AV": 3987,
      "sle": 3988,
      "annot": 3989,
      "she": 3990,
      "Point": 3991,
      "matche": 3992,
      "\\u00": 3993,
      "Content": 3994,
      "geo": 3995,
      "tf": 3996,
      "New": 3997,
      "hidden_state": 3998,
      "max(": 3999,
      "numpyĠasĠ": 4000,
      "CR": 4001,
      "Trans": 4002,
      "ssageĠ": 4003,
      "db.": 4004,
      "\\x55": 4005,
      "\"><spanĠclass=\"": 4006,
      "process": 4007,
      "unlikely(": 4008,
      "ATTR": 4009,
      "sys": 4010,
      "_key": 4011,
      "clean": 4012,
      "x-": 4013,
      "stand": 4014,
      "..Ġ": 4015,
      "answ": 4016,
      "_dir": 4017,
      "\\xa2": 4018,
      "</span>Ġ<spanĠclass=\"": 4019,
      "importĠnumpyĠasĠ": 4020,
      "training": 4021,
      "(x)": 4022,
      "ullĠ": 4023,
      "equal": 4024,
      "socket": 4025,
      "ss_": 4026,
      "title=\"": 4027,
      "lease": 4028,
      "s\",": 4029,
      "ĠĠĠĠĠĠĠĠReturn": 4030,
      "al.": 4031,
      "response.": 4032,
      "client_": 4033,
      "matrix": 4034,
      "Max": 4035,
      "lon": 4036,
      "Instance": 4037,
      "est": 4038,
      "templ": 4039,
      "[2]": 4040,
      "pd.": 4041,
      "Client": 4042,
      "\\x22": 4043,
      "HE": 4044,
      "ĠĠĠĠtransition": 4045,
      ".ĠIfĠ": 4046,
      "lessĠ": 4047,
      "moduleĠ": 4048,
      "ĉĠ*/": 4049,
      "\\x11": 4050,
      "Dire": 4051,
      "ĉĉĉĉĉreturnĠ": 4052,
      "importĠnumpyĠasĠnp": 4053,
      "inste": 4054,
      "Rai": 4055,
      "rst": 4056,
      "aw": 4057,
      "verĠ": 4058,
      "plugin": 4059,
      "Note": 4060,
      "atingĠ": 4061,
      "inĠself.": 4062,
      "__rev": 4063,
      "break;": 4064,
      "8x": 4065,
      ":Ġ(": 4066,
      "whatĠ": 4067,
      "**kwargs)": 4068,
      "associ": 4069,
      "optimiz": 4070,
      "propertie": 4071,
      "round": 4072,
      "line_": 4073,
      "Read": 4074,
      "\\x45": 4075,
      "represent": 4076,
      "D,Ġ": 4077,
      "ann": 4078,
      "copyĠ": 4079,
      "line.": 4080,
      "random_": 4081,
      "Block": 4082,
      "\"],": 4083,
      "compute": 4084,
      "AU": 4085,
      "Log": 4086,
      "Args:": 4087,
      "\\xaa": 4088,
      ")Ġ-Ġ-": 4089,
      "fit": 4090,
      "__PY": 4091,
      "nodeĠ": 4092,
      "script>": 4093,
      "comple": 4094,
      "tain": 4095,
      "\\x50": 4096,
      "Meth": 4097,
      "except": 4098,
      "CreateĠ": 4099,
      "next_": 4100,
      "FL": 4101,
      "\\x84": 4102,
      "rp": 4103,
      "13;": 4104,
      "ĠĠĠĠĠĠĠĠĠĠĠĠĠĠĠĠĠĠĠĠ\"": 4105,
      "sizeof": 4106,
      "out.": 4107,
      "generator": 4108,
      "\"):": 4109,
      "-b": 4110,
      "compile": 4111,
      "=False,Ġ": 4112,
      "ysi": 4113,
      "readĠ": 4114,
      "CĠ": 4115,
      "97": 4116,
      "cv2.": 4117,
      "font-": 4118,
      "type,Ġ": 4119,
      "eq": 4120,
      "{{Ġ": 4121,
      "ill": 4122,
      "Length": 4123,
      "Pri": 4124,
      "SeeĠ": 4125,
      "dĠtheĠ": 4126,
      "valueĠ=Ġ": 4127,
      "random": 4128,
      "datetime.": 4129,
      "code_": 4130,
      "åĪ": 4131,
      "counter": 4132,
      "M_": 4133,
      "previou": 4134,
      "21": 4135,
      "ĉĉ},": 4136,
      "gest": 4137,
      "sed": 4138,
      "Buff": 4139,
      "lisecond": 4140,
      "']['": 4141,
      "__webpack_require__(": 4142,
      "__PYX_": 4143,
      "GP": 4144,
      "doesĠnotĠ": 4145,
      "ĠĠĠĠĠĠĠĠĠĠĠĠifĠ(": 4146,
      "Ġ*Ġa": 4147,
      "distance": 4148,
      "1,Ġ1,Ġ": 4149,
      "ĉ/**": 4150,
      "s\":Ġ": 4151,
      "embedding": 4152,
      "pattern": 4153,
      "(x,Ġ": 4154,
      "swith": 4155,
      "\\x88": 4156,
      "Transition": 4157,
      "<tdĠclass=\"col-": 4158,
      "alread": 4159,
      "View.": 4160,
      "for_": 4161,
      "Class": 4162,
      "Year": 4163,
      "String(": 4164,
      "some": 4165,
      "android": 4166,
      "AtomicĠ": 4167,
      "822": 4168,
      "=[": 4169,
      "serv": 4170,
      "conso": 4171,
      "\\xa8": 4172,
      ")Ġ>Ġ": 4173,
      "ĠĠĠĠĠĠĠĠproc.": 4174,
      "convert_": 4175,
      "ud": 4176,
      "first_": 4177,
      "Monitor": 4178,
      "[key": 4179,
      "ppe": 4180,
      "initi": 4181,
      "merge": 4182,
      "github.com/": 4183,
      "\"Ġ/>": 4184,
      "FO": 4185,
      "tivi": 4186,
      "defĠget_": 4187,
      "imple": 4188,
      "n,Ġ": 4189,
      "[Ġ": 4190,
      "cast": 4191,
      "returnsĠ": 4192,
      "text/": 4193,
      "1\">": 4194,
      "ĠĠĠĠĉa3": 4195,
      "+Ġ'": 4196,
      "Output": 4197,
      "throwĠ": 4198,
      "parser.add_argument('": 4199,
      "wrapper": 4200,
      "empty": 4201,
      "Result": 4202,
      "pixel": 4203,
      "constra": 4204,
      "IĠhaveĠ": 4205,
      "e_": 4206,
      "Ð¾": 4207,
      "TestĠ": 4208,
      "gradi": 4209,
      "ĠĠĠĠĠĠĠĠreturnĠself._": 4210,
      "application": 4211,
      "build_": 4212,
      "pĠ=Ġ": 4213,
      "ofĠaĠ": 4214,
      "((a": 4215,
      "close()": 4216,
      "\\x21": 4217,
      "result.": 4218,
      "Int": 4219,
      "ĠĠĠĠĉa14": 4220,
      ")),": 4221,
      "chunk": 4222,
      "\"Ġdata-": 4223,
      "Action": 4224,
      "\"])": 4225,
      "dropo": 4226,
      "DECREF": 4227,
      "folder": 4228,
      "pie": 4229,
      "rece": 4230,
      "7/site-packages/": 4231,
      "()Ġ{": 4232,
      "Ġ*ĠĠĠĠĠĠĠĠĠĠĠĠĠ": 4233,
      "sn": 4234,
      "main__": 4235,
      "__s": 4236,
      "RA": 4237,
      "1_error": 4238,
      "total": 4239,
      "i)": 4240,
      "æķ": 4241,
      "displa": 4242,
      "}ĠelseĠifĠ(": 4243,
      "Toon": 4244,
      "source_": 4245,
      "event.": 4246,
      "__main__": 4247,
      "framework": 4248,
      "</tr>": 4249,
      "asĠaĠ": 4250,
      "alt": 4251,
      "ĠĠĠĠifĠnotĠ": 4252,
      "ĠĠĠĠReturn": 4253,
      "G_": 4254,
      "b'": 4255,
      "2);": 4256,
      "finish": 4257,
      "direct": 4258,
      "util.": 4259,
      "handler": 4260,
      "undefined": 4261,
      "4)": 4262,
      "----------------------------------------------------------------": 4263,
      ":00": 4264,
      "ErrorĠ": 4265,
      "\\x6a": 4266,
      "x)": 4267,
      "namespace": 4268,
      "core": 4269,
      "stateĠ": 4270,
      ".length": 4271,
      "GC": 4272,
      "\\x44": 4273,
      "hook": 4274,
      "-----": 4275,
      "concat": 4276,
      "chang": 4277,
      "baseĠ": 4278,
      "atta": 4279,
      "__pyx_L1_error": 4280,
      "beenĠ": 4281,
      "kit": 4282,
      "normalize": 4283,
      "provid": 4284,
      "Location": 4285,
      "Manag": 4286,
      "yieldĠ": 4287,
      "buf.": 4288,
      "loss": 4289,
      "default=": 4290,
      "class:`": 4291,
      "run_": 4292,
      "-1,Ġ": 4293,
      "sv": 4294,
      "solidĠ": 4295,
      "ded_": 4296,
      "orient": 4297,
      "(((a": 4298,
      "cheĠ": 4299,
      "Style": 4300,
      "True)": 4301,
      "libr": 4302,
      "æľ": 4303,
      "Pa": 4304,
      "object):": 4305,
      "system": 4306,
      "state.": 4307,
      "skip": 4308,
      "sear": 4309,
      "lr": 4310,
      "bution": 4311,
      "help='": 4312,
      "rol": 4313,
      "spec": 4314,
      "make_": 4315,
      "nor": 4316,
      "Ge": 4317,
      "7.": 4318,
      "Tuple": 4319,
      "Fe": 4320,
      "WeĠ": 4321,
      "tĠtheĠ": 4322,
      "NN": 4323,
      "solution": 4324,
      "Optional[": 4325,
      "driver": 4326,
      "btn-": 4327,
      "(value": 4328,
      "lower": 4329,
      "ovl": 4330,
      "#ĠĠĠĠĠ": 4331,
      "f,Ġ": 4332,
      "ationsĠ": 4333,
      "size=": 4334,
      "à¤": 4335,
      "ovldĠ": 4336,
      "VERSION": 4337,
      "enumerate(": 4338,
      "grid": 4339,
      "Conne": 4340,
      "win": 4341,
      "specifiedĠ": 4342,
      "License.": 4343,
      "'Ġ%Ġ(": 4344,
      "__(self,Ġ": 4345,
      "mapp": 4346,
      "wordĠ": 4347,
      "anel": 4348,
      "KEY": 4349,
      "ĠĠĠĠĠĠĠĠĠĠĠĠĠĠĠĠelse:": 4350,
      "ĠĠĠĠĠĠĠĠĠĠĠĠreturn": 4351,
      "hol": 4352,
      "Chat": 4353,
      "///": 4354,
      "fore": 4355,
      "serializ": 4356,
      "theyĠ": 4357,
      "kĠ": 4358,
      "eventĠ": 4359,
      "ĠĠĠĠĠĠĠĠassert_": 4360,
      "patch": 4361,
      "ush": 4362,
      "\\x42": 4363,
      "8Ġ": 4364,
      "my_": 4365,
      "ow": 4366,
      "MatchMakerActiv": 4367,
      "traffic_": 4368,
      "ĠĠ'": 4369,
      "MatchMakerMonitor": 4370,
      "logging": 4371,
      "lim": 4372,
      "Ve": 4373,
      "gt": 4374,
      "bin/": 4375,
      "ĠĠĠĠĠĠĠĠĠĠĠĠĠĠĠĠĠĠĠĠĠĠĠĠĠ": 4376,
      "ason": 4377,
      "ATION": 4378,
      "form_": 4379,
      "xĠinĠ": 4380,
      "sqr": 4381,
      "Dis": 4382,
      "Global": 4383,
      "datetime": 4384,
      "(1)": 4385,
      "fĠ=Ġ": 4386,
      "ic_": 4387,
      "End": 4388,
      "container": 4389,
      "gui": 4390,
      "text-": 4391,
      "lib/python3.": 4392,
      "Util": 4393,
      "0)Ġ": 4394,
      "81": 4395,
      "....": 4396,
      "){": 4397,
      "Av": 4398,
      "nĠ=Ġ": 4399,
      "ARE": 4400,
      ".is": 4401,
      "pathĠ=Ġ": 4402,
      "vision": 4403,
      "255,Ġ": 4404,
      "modifi": 4405,
      "separ": 4406,
      "52": 4407,
      "MatchMakerActivation.": 4408,
      "MatchMakerMonitoring.": 4409,
      "viceĠ": 4410,
      "ĠĠĠĠĠĠĠĠĠĠĠĠĠĠĠĠĠĠĠĠĠĠĠ": 4411,
      "_m": 4412,
      "indice": 4413,
      "ation(": 4414,
      "83": 4415,
      "asyncĠ": 4416,
      "ert": 4417,
      ":,Ġ": 4418,
      "strong": 4419,
      "defini": 4420,
      "Param": 4421,
      ".prototype": 4422,
      "-------": 4423,
      "quire": 4424,
      "kenĠ": 4425,
      "TEST": 4426,
      "clar": 4427,
      "pxĠsolidĠ": 4428,
      "desk": 4429,
      "Sa": 4430,
      "Error(": 4431,
      "TT": 4432,
      "ĉĉĉĉĉĉĉ": 4433,
      "strict": 4434,
      "CE": 4435,
      "Field(": 4436,
      "Ġ+=Ġ": 4437,
      "toon": 4438,
      "identifi": 4439,
      "enc": 4440,
      "view_": 4441,
      "<codeĠ": 4442,
      "sĠ==Ġ": 4443,
      "__(self):": 4444,
      "m2": 4445,
      "helper": 4446,
      "),Ġ(": 4447,
      "s_to_": 4448,
      "DEFAULT_": 4449,
      "dataset.": 4450,
      ")):": 4451,
      "aa": 4452,
      "gh": 4453,
      "ĠĠĠĠ'''": 4454,
      "f:": 4455,
      "available": 4456,
      "messageĠ": 4457,
      "removed": 4458,
      "sideĠ": 4459,
      "0-9": 4460,
      "sum(": 4461,
      "expected_": 4462,
      "X,Ġ": 4463,
      "predi": 4464,
      "RES": 4465,
      "render": 4466,
      "=False,": 4467,
      "absol": 4468,
      "ifĠ__name__": 4469,
      ":Ġint": 4470,
      "IB": 4471,
      "Form": 4472,
      "Memory": 4473,
      "'].": 4474,
      "differentĠ": 4475,
      "loa": 4476,
      "ualĠ": 4477,
      "raine": 4478,
      "\\n\"": 4479,
      "type(": 4480,
      "depth": 4481,
      "configur": 4482,
      "weigh": 4483,
      "UTĠ": 4484,
      "116": 4485,
      "ĠwithĠ": 4486,
      "ter(": 4487,
      "ip_": 4488,
      "ĠĠ__ret": 4489,
      "TION": 4490,
      "ĉĠ*Ġ@returnĠ{": 4491,
      "len(self.": 4492,
      "Graph": 4493,
      "found": 4494,
      "mag": 4495,
      "ä»": 4496,
      "ers.": 4497,
      "cir": 4498,
      "write(\"": 4499,
      "________": 4500,
      "MIT": 4501,
      "constru": 4502,
      "dex_": 4503,
      "sched": 4504,
      "ingĠaĠ": 4505,
      "ĉĉvarĠ": 4506,
      "fet": 4507,
      "Click": 4508,
      "Ma": 4509,
      "ypeĠ": 4510,
      "overri": 4511,
      "catch": 4512,
      "m-": 4513,
      "df.": 4514,
      "500": 4515,
      ",Ġ(": 4516,
      "ĠĠĠĠĠĠĠĠ(": 4517,
      "name=": 4518,
      "com/": 4519,
      "implement": 4520,
      "query_": 4521,
      "product": 4522,
      "Dataset": 4523,
      "widget": 4524,
      "white": 4525,
      "backend": 4526,
      "Rel": 4527,
      "Ġ>=Ġ": 4528,
      "ESĠ": 4529,
      "[-1]": 4530,
      "Ġ=Ġ12;": 4531,
      "Math.": 4532,
      "ANYĠ": 4533,
      "bind": 4534,
      "non-": 4535,
      "logger.info": 4536,
      "abo": 4537,
      "verbose": 4538,
      "thatĠtheĠ": 4539,
      "process_": 4540,
      "ĠĠĠĠĉa16": 4541,
      "g.Ġ": 4542,
      "<li>": 4543,
      "CD": 4544,
      "],Ġ[": 4545,
      "ĠĠĠĠĠĠĠĠx": 4546,
      "int32": 4547,
      "Ð½": 4548,
      "///Ġ": 4549,
      "align='": 4550,
      "php": 4551,
      "MS": 4552,
      "blockĠ": 4553,
      "</span><spanĠclass=\"p\">": 4554,
      "does": 4555,
      "255": 4556,
      "er().": 4557,
      "Offset": 4558,
      "/home": 4559,
      "cision": 4560,
      "und_": 4561,
      "path)": 4562,
      "LICENSE": 4563,
      "item.": 4564,
      "Argument": 4565,
      "obj:`": 4566,
      "===Ġ'": 4567,
      "derĠ": 4568,
      "board": 4569,
      "wayĠ": 4570,
      "ĠĠĠĠĠĠvarĠ": 4571,
      "False)": 4572,
      "\")Ġ": 4573,
      "i++)Ġ{": 4574,
      "ĠĠĠĠĠĠĠĠ//Ġ": 4575,
      "appl": 4576,
      "s=[": 4577,
      "coe": 4578,
      "atĠtheĠ": 4579,
      "interval": 4580,
      "fromĠsymp": 4581,
      "prefi": 4582,
      "data[": 4583,
      "Ġ==Ġ32": 4584,
      ")/": 4585,
      "unique": 4586,
      "basedĠ": 4587,
      "cript": 4588,
      "fnĠ": 4589,
      "ĠĠĠĠ});": 4590,
      "NameĠ": 4591,
      "switch": 4592,
      "old_": 4593,
      "IZE": 4594,
      "\"Ġtitle=\"": 4595,
      "https://github.com/": 4596,
      "234": 4597,
      "(cc_": 4598,
      "verti": 4599,
      "Stream": 4600,
      "ĠĠĠĠĠĠĠĠassert.equal(": 4601,
      "each": 4602,
      "sibleĠ": 4603,
      "Variable": 4604,
      "cam": 4605,
      "stdo": 4606,
      "this;": 4607,
      "linear": 4608,
      "ĠĠĠĠĠĠĠĠĠĠĠĠĠĠĠĠforĠ": 4609,
      "\"Ġ%Ġ(": 4610,
      "att": 4611,
      "https://www.": 4612,
      "1-": 4613,
      "sorĠ": 4614,
      "Ġ!=Ġ": 4615,
      "label_": 4616,
      "params.": 4617,
      "array_": 4618,
      "\"ĠinĠ": 4619,
      "Over": 4620,
      "6.": 4621,
      "s),Ġ": 4622,
      "98": 4623,
      "ter.": 4624,
      "utili": 4625,
      "cls.": 4626,
      "modeĠ": 4627,
      "sĠ=Ġ{}": 4628,
      "data['": 4629,
      "propertyĠ": 4630,
      "ĠĠĠĠĠĠĠĠpass": 4631,
      "scroll": 4632,
      "Hel": 4633,
      "mut": 4634,
      ":obj:`": 4635,
      "ĠinĠtheĠ": 4636,
      "92": 4637,
      "api.": 4638,
      "yam": 4639,
      ".ĠThisĠ": 4640,
      "T,Ġ": 4641,
      "#if": 4642,
      "definition": 4643,
      "-*": 4644,
      "quare": 4645,
      "ĠĠĠĠtry:": 4646,
      "trueĠ": 4647,
      "ĠĠĠĠĠĠĠĠ_": 4648,
      "it'sĠ": 4649,
      "H:": 4650,
      "generate": 4651,
      "Pi": 4652,
      "cationĠ": 4653,
      "ĠĠĠĠĠĠĠĠĠĠĠĠĠĠĠĠ}": 4654,
      "cf==": 4655,
      "=0": 4656,
      "9,Ġ": 4657,
      "bb": 4658,
      "uttonĠ": 4659,
      "]+": 4660,
      "today": 4661,
      "itĠisĠ": 4662,
      "save_": 4663,
      "ĠĠĠĠ----------": 4664,
      "ĠĠ.": 4665,
      "invo": 4666,
      "scape": 4667,
      "status_": 4668,
      "\\7": 4669,
      "couldĠ": 4670,
      "coordinate": 4671,
      "ĉfĉfĉfĉf": 4672,
      ":3": 4673,
      "120": 4674,
      "Clo": 4675,
      "xsd": 4676,
      "ĠĠĠĠĉa18": 4677,
      "acc": 4678,
      "eri": 4679,
      "mainĠ": 4680,
      "âĢ¢": 4681,
      "torch": 4682,
      "alreadyĠ": 4683,
      "||": 4684,
      "softwa": 4685,
      "libcity.model.": 4686,
      "**Ġ": 4687,
      "Float": 4688,
      "âĶ": 4689,
      "youĠcanĠ": 4690,
      "s[i]": 4691,
      "ĉĉĉĉcaseĠ\"": 4692,
      "matplot": 4693,
      "STAT": 4694,
      "plot_": 4695,
      "(f\"": 4696,
      "route": 4697,
      "Tim": 4698,
      "CF": 4699,
      "idĠ=Ġ": 4700,
      "10.": 4701,
      "ĠĠĠĠĠ*Ġ@": 4702,
      "+Ġ\"": 4703,
      "\"]Ġ=Ġ": 4704,
      "globalĠ": 4705,
      "Width": 4706,
      ":ĠTheĠ": 4707,
      "ĠĠĠĠĠĠĠĠĠĠĠĠĠĠĠĠĠĠĠĠĠĠĠĠĠĠĠ": 4708,
      "v.": 4709,
      "wait": 4710,
      "usĠ": 4711,
      "database": 4712,
      "Create": 4713,
      "Star": 4714,
      "lack": 4715,
      "Position": 4716,
      "Raise": 4717,
      ":Ġ0;": 4718,
      "Load": 4719,
      "s\")": 4720,
      "dash": 4721,
      "EM": 4722,
      "repe": 4723,
      "data/": 4724,
      "ator(": 4725,
      "enter": 4726,
      "download": 4727,
      "suffi": 4728,
      "cfg": 4729,
      "nullĠ": 4730,
      "Date.Culture": 4731,
      "has_": 4732,
      "only": 4733,
      "Component": 4734,
      "OK": 4735,
      "where": 4736,
      "Transition(": 4737,
      "example.com": 4738,
      "lowĠ": 4739,
      "question": 4740,
      "echoĠ": 4741,
      "then": 4742,
      "gorith": 4743,
      "sizeof(": 4744,
      ")Ġ%Ġ14": 4745,
      "čĊčĊčĊ": 4746,
      "singleĠ": 4747,
      "delĠ": 4748,
      "modelĠ=Ġ": 4749,
      "d:": 4750,
      "æķ°": 4751,
      "object.": 4752,
      "Secon": 4753,
      "AST": 4754,
      "(self)": 4755,
      "ASĠ": 4756,
      "Instruction": 4757,
      "Command": 4758,
      "ĠĠĠĠĠĠĠĠĠĠĠĠĠĠĠĠĠĠĠĠ'": 4759,
      "py_": 4760,
      "ĠĠĠĠ}Ġ": 4761,
      "sĠifĠ": 4762,
      "\"Ġ>": 4763,
      ")Ġ{Ġ": 4764,
      "All": 4765,
      "map(": 4766,
      "VALU": 4767,
      "mlĠ": 4768,
      "p,Ġ": 4769,
      "ation,Ġ": 4770,
      "point_": 4771,
      "POINTER": 4772,
      "Proto": 4773,
      "validate": 4774,
      "vig": 4775,
      "</h": 4776,
      "#includeĠ": 4777,
      "Equal": 4778,
      "ĉĉ//Ġ": 4779,
      "regi": 4780,
      "conf": 4781,
      "TEX": 4782,
      "ĉĉifĠ(": 4783,
      "Source": 4784,
      "s.append(fac.": 4785,
      "ĠĠĠĠtransitions.append(fac.": 4786,
      "Transition(st_": 4787,
      "ĠĠĠĠtransitions.append(fac.Transition(st_": 4788,
      "global_": 4789,
      "My": 4790,
      "iĠ=Ġ": 4791,
      "Schema": 4792,
      "3);": 4793,
      "xy": 4794,
      "oriz": 4795,
      "x:Ġ": 4796,
      "formatĠ": 4797,
      ":class:`": 4798,
      "oseĠ": 4799,
      "ĠĠĠĠ(": 4800,
      "llĠ": 4801,
      "value.": 4802,
      "q_": 4803,
      "Ht": 4804,
      "plot(": 4805,
      "*args,Ġ": 4806,
      "DateĠ": 4807,
      "utor": 4808,
      "duration": 4809,
      "size_tĠ": 4810,
      "HTML": 4811,
      ":]": 4812,
      "quote": 4813,
      "e:": 4814,
      "Box": 4815,
      "Cu": 4816,
      "send_": 4817,
      "212": 4818,
      "b,Ġ": 4819,
      "ve_": 4820,
      "WARRAN": 4821,
      "cryp": 4822,
      "y:": 4823,
      "no_": 4824,
      "ABLE": 4825,
      "(0)": 4826,
      "11,Ġ": 4827,
      "username": 4828,
      "ĠĠĠĠĠĠĠĠsuper(": 4829,
      "platform": 4830,
      "logit": 4831,
      "GI": 4832,
      "ations": 4833,
      "Ġ+Ġ'": 4834,
      "border-bottom": 4835,
      "attrib": 4836,
      "lab": 4837,
      "\\\"": 4838,
      "sist": 4839,
      "pos_": 4840,
      "encoder_": 4841,
      "/home/": 4842,
      "layer_": 4843,
      "ĠĠĠĠ},": 4844,
      "under": 4845,
      "src_": 4846,
      "keyword": 4847,
      "type='": 4848,
      "ofĠthisĠ": 4849,
      "IE": 4850,
      "__ret;": 4851,
      "Go": 4852,
      "<!": 4853,
      "valid_": 4854,
      "progres": 4855,
      "TypeĠ": 4856,
      "credential": 4857,
      "nextĠ": 4858,
      "browser": 4859,
      ")Ġ+Ġ-": 4860,
      "Union": 4861,
      "grad": 4862,
      "War": 4863,
      "ter_": 4864,
      "object_": 4865,
      "t)": 4866,
      "Back": 4867,
      "draw": 4868,
      "0.0,Ġ": 4869,
      "height:Ġ": 4870,
      "desktop": 4871,
      "2/": 4872,
      "{}\".format(": 4873,
      "word_": 4874,
      "usedĠtoĠ": 4875,
      "ĠĠĠĠĠĠĠĠ},": 4876,
      "p(": 4877,
      "base.": 4878,
      "forward": 4879,
      "[0])": 4880,
      "GET": 4881,
      "amma": 4882,
      "-*-Ġ": 4883,
      "hit": 4884,
      "INĠ": 4885,
      "succes": 4886,
      "rl": 4887,
      "longĠ": 4888,
      "ĠĠĠĠĠĠĠĠbuf.": 4889,
      "I'mĠ": 4890,
      "update(": 4891,
      "_CON": 4892,
      "Track": 4893,
      "=1,Ġ": 4894,
      "Ġ=Ġtorch.": 4895,
      "<td>": 4896,
      "cuda": 4897,
      "payload": 4898,
      "targetĠ": 4899,
      "eng": 4900,
      "%(": 4901,
      "selection": 4902,
      "UD": 4903,
      "Task": 4904,
      "float(": 4905,
      "%;": 4906,
      "iss": 4907,
      "element.": 4908,
      "sheet": 4909,
      "cls,Ġ": 4910,
      "boolean": 4911,
      "åħ": 4912,
      "languageĠ": 4913,
      "s'": 4914,
      "807": 4915,
      "Doc": 4916,
      "SO": 4917,
      "=>Ġ{": 4918,
      "Ġ=Ġ0;ĠiĠ<Ġ": 4919,
      "openmtc-": 4920,
      "sql": 4921,
      "LOG": 4922,
      "gotoĠ": 4923,
      "future__": 4924,
      "__future__": 4925,
      "file,Ġ": 4926,
      "ning_": 4927,
      "coding:Ġ": 4928,
      "field_": 4929,
      "removed@": 4930,
      "-->": 4931,
      "Link": 4932,
      "abs(": 4933,
      "($": 4934,
      "sock": 4935,
      "True,Ġ": 4936,
      "theseĠ": 4937,
      "Imple": 4938,
      "ĠĠĠĠĠĠĠĠĠĠĠĠĠĠĠĠĠĠĠĠ#Ġ": 4939,
      "bĠ=Ġ": 4940,
      "Disp": 4941,
      "Ð¸": 4942,
      "trace": 4943,
      "error_": 4944,
      "XĠ": 4945,
      "simple": 4946,
      "æĸ": 4947,
      "memor": 4948,
      "pred": 4949,
      "minim": 4950,
      "{0": 4951,
      "val_": 4952,
      "em>": 4953,
      "izeĠ": 4954,
      "sample_": 4955,
      "ĠĠĠĠĠĠĠĠ'''": 4956,
      "fromĠ__future__": 4957,
      "EXT": 4958,
      "develo": 4959,
      "an_": 4960,
      "[0].": 4961,
      "reference": 4962,
      "write_": 4963,
      "CP": 4964,
      "fromĠ__future__ĠimportĠ": 4965,
      "dom": 4966,
      "POINTER(": 4967,
      "time.time": 4968,
      "controll": 4969,
      "progra": 4970,
      "seq_": 4971,
      "614": 4972,
      "you": 4973,
      "Down": 4974,
      "emĠ": 4975,
      "Matri": 4976,
      "lea": 4977,
      "resour": 4978,
      "exportĠ": 4979,
      "14;": 4980,
      "saction": 4981,
      "!!": 4982,
      "ĠĠĠĠĠĠĠĠĠĠĠĠĠĠĠĠĠĠĠĠĠĠĠĠĠĠĠĠĠ": 4983,
      "args": 4984,
      "DD": 4985,
      "notĠbeĠ": 4986,
      "type_": 4987,
      "dle": 4988,
      "Initial": 4989,
      "st.": 4990,
      "ni": 4991,
      "ĠĠĠĠĠĠĠĠĠĠĠĠ#": 4992,
      "IĠamĠ": 4993,
      "(re": 4994,
      "SH": 4995,
      "ampleĠ": 4996,
      "__m": 4997,
      "self).__init__": 4998,
      "FLAG": 4999,
      "gpu": 5000,
      "except:": 5001,
      "ĉĉĉĉĉĉĉĉ": 5002,
      "faile": 5003,
      "irĠ": 5004,
      "ĠĠĠĠĠĠĠĠreturn": 5005,
      "cted_": 5006,
      "count_": 5007,
      "ĠĠĠĠre": 5008,
      "screen": 5009,
      "ĠĠĠĠĠĠĠĠTheĠ": 5010,
      "fr": 5011,
      "Sta": 5012,
      "row_": 5013,
      "lyph": 5014,
      ",Ġ0x": 5015,
      "ENT_": 5016,
      "kee": 5017,
      "ĠĠĠĠ};": 5018,
      "ĠĠĠĠfromĠ": 5019,
      "url,Ġ": 5020,
      "goog": 5021,
      "stdout": 5022,
      "atio": 5023,
      "Thread": 5024,
      "quot": 5025,
      "her": 5026,
      "Ġ=Ġget_": 5027,
      "sĠ+Ġ": 5028,
      "hi": 5029,
      "ÑĤ": 5030,
      "ki": 5031,
      "float,Ġ": 5032,
      "static/": 5033,
      "Lev": 5034,
      "wer": 5035,
      "numer": 5036,
      "pg": 5037,
      "Pl": 5038,
      "io.": 5039,
      "s())": 5040,
      "Conver": 5041,
      "self.__": 5042,
      "view.": 5043,
      "_SH": 5044,
      "clone": 5045,
      "DF": 5046,
      "sinceĠ": 5047,
      "order=\"": 5048,
      "by_": 5049,
      "Ġ=Ġ2;": 5050,
      "(input": 5051,
      "AddĠ": 5052,
      "sage": 5053,
      "</ul>": 5054,
      "atche": 5055,
      "aĠ=Ġ": 5056,
      "===Ġ\"": 5057,
      "dur": 5058,
      "UseĠ": 5059,
      "numpy.": 5060,
      "bran": 5061,
      "sleep": 5062,
      "pres": 5063,
      "NV": 5064,
      "ĠĠĠĠ{": 5065,
      "Handl": 5066,
      "theta": 5067,
      "ĠĠĠĠĠĠĠĠĠĠĠĠifĠnotĠ": 5068,
      "âĸ": 5069,
      "anchor": 5070,
      "0_": 5071,
      "List[": 5072,
      ")))Ġ{": 5073,
      "Mode": 5074,
      "writeĠ": 5075,
      "erĠofĠ": 5076,
      "api_": 5077,
      "meas": 5078,
      "directory": 5079,
      "Factor": 5080,
      "ĠĠĠĠĠĠĠĠprint(\"": 5081,
      "push(": 5082,
      "ĉ$P": 5083,
      "SQ": 5084,
      "global": 5085,
      "aboutĠ": 5086,
      "liter": 5087,
      "help=\"": 5088,
      "df_": 5089,
      "calculate_": 5090,
      "\"><": 5091,
      "NULL;": 5092,
      "ĠĠĠĠĠ*": 5093,
      "<tdĠclass=\"col-desktop": 5094,
      "FF'>": 5095,
      "scribe": 5096,
      "imgĠ": 5097,
      "ovldĠ__": 5098,
      "parser.add_argument('--": 5099,
      ":Ġ`": 5100,
      "v8": 5101,
      "do_": 5102,
      "okie": 5103,
      "fac.Update": 5104,
      "Instruction(cc_": 5105,
      "fac.UpdateInstruction(cc_": 5106,
      "settings.": 5107,
      "allĠtheĠ": 5108,
      "togg": 5109,
      "{}Ġ": 5110,
      "ĠĠĠĠĠĠĠĠĠĠĠĠĠĠĠĠĠĠĠĠĠĠĠĠĠĠĠĠĠĠĠ": 5111,
      "same": 5112,
      "verage": 5113,
      "contentĠ": 5114,
      "42": 5115,
      "ORM": 5116,
      "*-": 5117,
      "prediction.": 5118,
      "tification": 5119,
      "AllĠ": 5120,
      "__PYX_ERR": 5121,
      "dere": 5122,
      "Server": 5123,
      "value)": 5124,
      "çĶ": 5125,
      "pretraine": 5126,
      "Mas": 5127,
      "IV": 5128,
      "ties": 5129,
      "best_": 5130,
      "connect": 5131,
      "&&Ġ!": 5132,
      "process.": 5133,
      "argv": 5134,
      "distribution": 5135,
      "TOĠ": 5136,
      ":Ġtrue": 5137,
      "ĠĠĠĠĠĠĠĠĠĠĠĠvarĠ": 5138,
      "theme": 5139,
      "Level": 5140,
      "self,Ġ": 5141,
      "jav": 5142,
      "_t)": 5143,
      "':Ġ[": 5144,
      "Change": 5145,
      "s).": 5146,
      "hereĠ": 5147,
      "SetĠ": 5148,
      "matchĠ": 5149,
      "Sho": 5150,
      "Logg": 5151,
      "field.": 5152,
      "#Ġ-*-Ġ": 5153,
      "fer": 5154,
      "BAS": 5155,
      "lib/python3.7/site-packages/": 5156,
      "nan": 5157,
      "mented": 5158,
      "ĠĠdefĠ": 5159,
      "classmethod": 5160,
      "locale": 5161,
      "THEĠ": 5162,
      "rel=\"": 5163,
      "TW": 5164,
      "åĲ": 5165,
      "frappe": 5166,
      "*)": 5167,
      "coding:Ġutf-8": 5168,
      "CC": 5169,
      "assertEqual(": 5170,
      "ther": 5171,
      "ptr": 5172,
      "absolute": 5173,
      "exc": 5174,
      "parseĠ": 5175,
      "Ġ=Ġthis.": 5176,
      "Can": 5177,
      "]).": 5178,
      "runĠ": 5179,
      "item_": 5180,
      "up_": 5181,
      "OR_": 5182,
      "-1)": 5183,
      "ĉ#ĠGL/glext.h:": 5184,
      "ix": 5185,
      "00;": 5186,
      "And": 5187,
      "rank": 5188,
      "=1": 5189,
      "Main": 5190,
      "ration": 5191,
      "audi": 5192,
      "phase": 5193,
      "Python": 5194,
      "ffici": 5195,
      "å®": 5196,
      "NoĠ": 5197,
      "Batch": 5198,
      "doesn'tĠ": 5199,
      "t>": 5200,
      "thingĠ": 5201,
      "apache": 5202,
      "urlĠ": 5203,
      "Hour": 5204,
      "private": 5205,
      "d-": 5206,
      "window.": 5207,
      "__Pyx_Py": 5208,
      "Ġ-*-": 5209,
      "argsĠ=Ġ": 5210,
      "event_": 5211,
      "Prop": 5212,
      "themĠ": 5213,
      "algorith": 5214,
      "obj,Ġ": 5215,
      "id)": 5216,
      "Require": 5217,
      "commandĠ": 5218,
      "updateĠ": 5219,
      "ĠĠĠĠexceptĠ": 5220,
      "TestCase": 5221,
      "840": 5222,
      "00000000": 5223,
      "world": 5224,
      "character": 5225,
      "Column": 5226,
      "correspon": 5227,
      "cnfnĠ": 5228,
      "ovldĠ__cnfnĠ": 5229,
      "#!": 5230,
      "width=\"": 5231,
      "sentence": 5232,
      "notif": 5233,
      "andĠtheĠ": 5234,
      "someth": 5235,
      "ĠĠĠĠĉa187": 5236,
      "not_": 5237,
      "OD": 5238,
      "Method": 5239,
      "expected": 5240,
      "+-": 5241,
      "I_": 5242,
      "53": 5243,
      "target=\"": 5244,
      "columnĠ": 5245,
      "URE": 5246,
      "8.": 5247,
      "[1],Ġ": 5248,
      "post_": 5249,
      "pend": 5250,
      "r,Ġ": 5251,
      "ValueError(\"": 5252,
      "Import": 5253,
      "ĠĠĠĠ('": 5254,
      "6Ġ": 5255,
      "&#822": 5256,
      "<divĠ": 5257,
      "sampl": 5258,
      "tx": 5259,
      "vis": 5260,
      "forwar": 5261,
      "addition": 5262,
      "et_": 5263,
      "atter": 5264,
      "removed@example.com": 5265,
      "ĠĠĠĠĠĠĠĠĠĠĠĠifĠself.": 5266,
      "args)": 5267,
      "0,Ġ'": 5268,
      "Ġ&&Ġ(a": 5269,
      "(e": 5270,
      "state_": 5271,
      "ator.": 5272,
      "Buil": 5273,
      "ence": 5274,
      "request_": 5275,
      "2*": 5276,
      "pred_": 5277,
      "boot": 5278,
      "StringĠ": 5279,
      "pointer": 5280,
      "success": 5281,
      "EV": 5282,
      "rend": 5283,
      "ndarray": 5284,
      "repr": 5285,
      "atar": 5286,
      "alo": 5287,
      "s\",Ġ": 5288,
      "keep": 5289,
      "db_": 5290,
      "weekday": 5291,
      "glyph": 5292,
      "Pas": 5293,
      "shufflevector": 5294,
      "Ġ=Ġget": 5295,
      "reshape": 5296,
      "caseĠ'": 5297,
      "fyĠ": 5298,
      "valuesĠ": 5299,
      "SD": 5300,
      "xĠ+Ġ": 5301,
      "fc": 5302,
      "R.": 5303,
      "WhenĠ": 5304,
      "$(": 5305,
      "ĠĠĠ<aĠhref=\"#": 5306,
      ").to": 5307,
      "ment.": 5308,
      ")Ġ%Ġ14999": 5309,
      "_SE": 5310,
      "__builtin_shufflevector": 5311,
      "ax.": 5312,
      "Stand": 5313,
      "ITION": 5314,
      "dele": 5315,
      "2)Ġ": 5316,
      "findĠ": 5317,
      "model,Ġ": 5318,
      "DATA": 5319,
      "resolve": 5320,
      "ĠĠĠĠ__": 5321,
      "------------------------------------------------------------------------": 5322,
      "Ġ&#822": 5323,
      "6;ĠĠĠ<aĠhref=\"#": 5324,
      "Ġ&#8226;ĠĠĠ<aĠhref=\"#": 5325,
      "\\b": 5326,
      "~~~~": 5327,
      "nowĠ": 5328,
      "-214": 5329,
      "WARRANTI": 5330,
      "Service": 5331,
      "tĠinĠ": 5332,
      "ĠĠ#": 5333,
      "_L": 5334,
      "normal": 5335,
      "ÑĢ": 5336,
      ";Ġi++)Ġ{": 5337,
      "ĠĠĠĠfunctionĠ": 5338,
      "calledĠ": 5339,
      "imat": 5340,
      "s\"": 5341,
      "arange": 5342,
      "ĠĠĠĠĠĠĠĠĠĠĠĠtry:": 5343,
      "(__p": 5344,
      "2015": 5345,
      "maxim": 5346,
      "java": 5347,
      "trigg": 5348,
      "Range": 5349,
      "alway": 5350,
      "<liĠclass=\"toctree-l1\">": 5351,
      "END": 5352,
      "nx.": 5353,
      "f'": 5354,
      "in_channel": 5355,
      "ta.": 5356,
      "å¤": 5357,
      "Filter": 5358,
      "doubleĠ": 5359,
      "issue": 5360,
      "curac": 5361,
      "T\":Ġ\"": 5362,
      "gradient": 5363,
      "Cy": 5364,
      "dataset_": 5365,
      "sĠ-Ġ": 5366,
      "[[": 5367,
      "primar": 5368,
      "checkĠ": 5369,
      "tiesĠ": 5370,
      "ĠĠĠĠĠĠĠĠĠĠĠĠĠĠĠĠraiseĠ": 5371,
      "&nbsp;</td>": 5372,
      "800": 5373,
      "\\.": 5374,
      "ĠĠĠĠif": 5375,
      "impli": 5376,
      "ciph": 5377,
      "name(": 5378,
      "Byte": 5379,
      "Use": 5380,
      "PyLong": 5381,
      ";Ġ\\": 5382,
      "utilsĠimportĠ": 5383,
      "vice_": 5384,
      "astro": 5385,
      "important": 5386,
      "TYPE": 5387,
      "data_format": 5388,
      "ye": 5389,
      "cpu": 5390,
      "bĠ": 5391,
      "%dĠ": 5392,
      "-web": 5393,
      ".add": 5394,
      "pageĠ": 5395,
      "#ĠĠĠĠ": 5396,
      "er):": 5397,
      "Name(": 5398,
      "mk": 5399,
      "Work": 5400,
      "buttonĠ": 5401,
      "fieldĠ": 5402,
      "amoun": 5403,
      "ToĠ": 5404,
      "Produ": 5405,
      "106": 5406,
      "objects.": 5407,
      "pand": 5408,
      "IR": 5409,
      "spar": 5410,
      "main_": 5411,
      "dr": 5412,
      "ĠĠĠĠ-214": 5413,
      "c/": 5414,
      "foundĠ": 5415,
      "âĢ¢âĢ¢": 5416,
      "scope.": 5417,
      "wiseĠ": 5418,
      "OB": 5419,
      "ifĠnotĠ": 5420,
      "LOC": 5421,
      "ifi": 5422,
      "admin": 5423,
      "kit-": 5424,
      "content_": 5425,
      "ĠĠĠĠĠĠĠĠfac.UpdateInstruction(cc_": 5426,
      "sĠtoĠtheĠ": 5427,
      "GR": 5428,
      "')Ġ{": 5429,
      "secondĠ": 5430,
      "Meta": 5431,
      "$D.": 5432,
      "sĠ=Ġ['": 5433,
      "Ele": 5434,
      "directoryĠ": 5435,
      "ĠP": 5436,
      "startswith": 5437,
      "correct": 5438,
      "disc": 5439,
      "multipleĠ": 5440,
      "endi": 5441,
      "defĠ__": 5442,
      "/*!": 5443,
      "exports.": 5444,
      "withĠaĠ": 5445,
      "Sequence[": 5446,
      "ing,Ġ": 5447,
      "timezone": 5448,
      "ableĠtoĠ": 5449,
      "ĠĠĠĠ<t": 5450,
      "1Ġ-Ġ": 5451,
      "queryĠ": 5452,
      "fri": 5453,
      "canv": 5454,
      "Network": 5455,
      "suchĠ": 5456,
      "importĠsys": 5457,
      "Obj": 5458,
      "requestĠ": 5459,
      "begin": 5460,
      "class__": 5461,
      "user.": 5462,
      "sĠ+=Ġ": 5463,
      "index_": 5464,
      "Template": 5465,
      "sĠisĠ": 5466,
      "size,Ġ": 5467,
      "W_": 5468,
      "Object.": 5469,
      "_block": 5470,
      "(self)Ġ->Ġ": 5471,
      "$('": 5472,
      "need": 5473,
      "ĠinĠself.": 5474,
      "wise": 5475,
      "callĠ": 5476,
      "#ĠCopyrightĠ": 5477,
      "Iden": 5478,
      "free": 5479,
      "layout": 5480,
      "ynam": 5481,
      "(0.": 5482,
      "datasetĠ": 5483,
      "lot": 5484,
      "console.": 5485,
      "__pyx_L1_error)": 5486,
      "Edi": 5487,
      "ĉ}": 5488,
      "ĠĠĠĠĠĠ//Ġ": 5489,
      "quee": 5490,
      "beta": 5491,
      "visible": 5492,
      "ifĠ(unlikely(": 5493,
      "verif": 5494,
      "Parse": 5495,
      "05": 5496,
      "theĠ\"": 5497,
      "strateg": 5498,
      "wr": 5499,
      "map_": 5500,
      "hr": 5501,
      "z_": 5502,
      "ĉĠ*": 5503,
      "compo": 5504,
      "ĠĠ{": 5505,
      "split(": 5506,
      "298": 5507,
      "1,Ġ2,Ġ": 5508,
      "),Ġ'": 5509,
      "izer.": 5510,
      "TrueĠ": 5511,
      "localĠ": 5512,
      "w,Ġ": 5513,
      "Jo": 5514,
      "+\"": 5515,
      "Ax": 5516,
      "1}": 5517,
      "Distri": 5518,
      "sequence_": 5519,
      "rect": 5520,
      "('/": 5521,
      "astype": 5522,
      "DER": 5523,
      "stract": 5524,
      "Proces": 5525,
      ".get(": 5526,
      "lambda": 5527,
      "min(": 5528,
      "Ġ=Ġ1;": 5529,
      "107": 5530,
      "expor": 5531,
      "Ġ=Ġ13;": 5532,
      "DataFrame": 5533,
      "Callback": 5534,
      "gamma": 5535,
      "Mod": 5536,
      "prepa": 5537,
      "03": 5538,
      "'reĠ": 5539,
      "Var": 5540,
      "before": 5541,
      "coding:Ġutf-8Ġ-*-": 5542,
      "cb": 5543,
      "\"Ġid=\"": 5544,
      "=False):": 5545,
      "result_": 5546,
      "seg": 5547,
      "<liĠclass=\"toctree-l1\"><aĠclass=\"referenceĠinternal\"Ġhref=\"": 5548,
      "PyObjectĠ*__pyx_": 5549,
      "ĉĠ*Ġ@paramĠ{": 5550,
      "obta": 5551,
      "eval_": 5552,
      "wait_": 5553,
      "amil": 5554,
      "hex": 5555,
      "2))": 5556,
      "partĠ": 5557,
      "sĠ:Ġ": 5558,
      "System": 5559,
      "s?": 5560,
      "ĠtoĠtheĠ": 5561,
      "\"></script>": 5562,
      "287": 5563,
      "polic": 5564,
      "ĠĠĠĠp": 5565,
      "è¿": 5566,
      "Top": 5567,
      "v,Ġ": 5568,
      "s_list": 5569,
      "ffff": 5570,
      "!important": 5571,
      "Vector": 5572,
      "bodyĠ": 5573,
      "log(": 5574,
      "Auto": 5575,
      "er)": 5576,
      "Transform": 5577,
      "buf": 5578,
      "pipeline": 5579,
      "Apa": 5580,
      "imgĠsrc=\"": 5581,
      "bad": 5582,
      "big": 5583,
      "(__m": 5584,
      "insteadĠ": 5585,
      "2Ġ*Ġ": 5586,
      "experi": 5587,
      ".e": 5588,
      "Job": 5589,
      "y:Ġ": 5590,
      "items():": 5591,
      "leftĠ": 5592,
      "form-": 5593,
      "values": 5594,
      "just": 5595,
      "ĠĠĠĠĠĠĠĠd": 5596,
      ".remove": 5597,
      "OS": 5598,
      "bias": 5599,
      "node_": 5600,
      "fromĠsympy.": 5601,
      "depre": 5602,
      "Ġ*Ġ(": 5603,
      ",'": 5604,
      "Text(": 5605,
      "Contain": 5606,
      "raises(": 5607,
      "Custo": 5608,
      "STRING": 5609,
      "alseĠ": 5610,
      "rangeĠ": 5611,
      "Ran": 5612,
      "#Ġ-*-Ġcoding:Ġutf-8Ġ-*-": 5613,
      "xx": 5614,
      "ssion": 5615,
      "_MA": 5616,
      "actionĠ": 5617,
      "ĠĠĠĠĉa167": 5618,
      "Boolean": 5619,
      "agg": 5620,
      "fontĠ": 5621,
      "#else": 5622,
      "ĠĠĠĠĠĠĠĠĠĠĠĠĠĠĠĠĠĠĠĠĠĠĠĠĠĠĠĠĠĠ": 5623,
      "simp": 5624,
      "Controll": 5625,
      "video": 5626,
      "faceĠ": 5627,
      "message.": 5628,
      "navig": 5629,
      "staticmethod": 5630,
      "context.": 5631,
      "printĠ\"": 5632,
      "ĠĠĠĠĉa12": 5633,
      "login": 5634,
      ")ĠasĠf:": 5635,
      "3]": 5636,
      "shoul": 5637,
      "cube": 5638,
      ".get(\"": 5639,
      "compare": 5640,
      "tv": 5641,
      "'}": 5642,
      "variableĠ": 5643,
      "x4_tĠ": 5644,
      "height=\"": 5645,
      "400": 5646,
      "toĠuseĠ": 5647,
      "caption": 5648,
      "345": 5649,
      "config_": 5650,
      "aiĠ": 5651,
      "flex": 5652,
      ".name": 5653,
      "ted(": 5654,
      "moveĠ": 5655,
      "emptyĠ": 5656,
      "registr": 5657,
      "ĉĉself.": 5658,
      "ĠĠĠĠĉa199": 5659,
      "pt_": 5660,
      "COND": 5661,
      "732": 5662,
      "type=\"text/": 5663,
      "Applic": 5664,
      "u_": 5665,
      "ordin": 5666,
      "templateĠ": 5667,
      "_name,Ġ": 5668,
      "parent_": 5669,
      "pre\">": 5670,
      "bili": 5671,
      "cfg.": 5672,
      "price": 5673,
      "Addres": 5674,
      "Control": 5675,
      "A-": 5676,
      "weight_": 5677,
      "tuple(": 5678,
      "ĠisĠnotĠNone:": 5679,
      "sort": 5680,
      "P_": 5681,
      "06": 5682,
      "ĠĠĠĠĉa188": 5683,
      "sĠonĠ": 5684,
      "15;": 5685,
      "dictĠ": 5686,
      "bro": 5687,
      "sequenceĠ": 5688,
      "Layout": 5689,
      "Ġ=Ġint(": 5690,
      "224": 5691,
      "kernel_size": 5692,
      "volume": 5693,
      "dĠunderĠtheĠ": 5694,
      "versionĠ": 5695,
      "generate_": 5696,
      "reverse": 5697,
      "Fin": 5698,
      "url_": 5699,
      "raw_": 5700,
      "upper": 5701,
      "Pool": 5702,
      "è¯": 5703,
      "\"+": 5704,
      "selectĠ": 5705,
      "\"Ġalt": 5706,
      "batch_size,Ġ": 5707,
      "dim=": 5708,
      "ĠisĠNone:": 5709,
      "Ap": 5710,
      "input_id": 5711,
      "Own": 5712,
      "h:": 5713,
      "ĠaĠ": 5714,
      "umb": 5715,
      "mark.": 5716,
      "resp": 5717,
      "viewĠ": 5718,
      "link_": 5719,
      "WARRANTIESĠ": 5720,
      "figure": 5721,
      "ASĠIS": 5722,
      "1Ġ+Ġ": 5723,
      "SC": 5724,
      "ADD": 5725,
      "show_": 5726,
      "forĠ(varĠ": 5727,
      "cfĠ=Ġ0;": 5728,
      "super": 5729,
      "[j": 5730,
      "Arti": 5731,
      "ACK": 5732,
      "fromĠdjango.": 5733,
      "@pytest.": 5734,
      "-webkit-": 5735,
      "newĠDate": 5736,
      "Session": 5737,
      "amp": 5738,
      "tivity": 5739,
      "SeeĠtheĠ": 5740,
      "ĉtĉfĉfĉfĉf": 5741,
      "ERROR": 5742,
      "sqrt(": 5743,
      "dge": 5744,
      "cmd": 5745,
      "tools.": 5746,
      "(object):": 5747,
      "o\">": 5748,
      "real": 5749,
      "argumentĠ": 5750,
      "holder": 5751,
      "ĉĉĉĉifĠ(": 5752,
      "True:": 5753,
      "changeĠ": 5754,
      "millisecond": 5755,
      "strong>": 5756,
      "order_": 5757,
      ")Ġ/Ġ5": 5758,
      "int64": 5759,
      "(this,Ġ": 5760,
      "KIN": 5761,
      "*/Ġ": 5762,
      "ssh": 5763,
      "theirĠ": 5764,
      ".txt": 5765,
      "PATH": 5766,
      "mock_": 5767,
      "Arra": 5768,
      "ĠĠĠĠĠĠĠĠf": 5769,
      "colĠ": 5770,
      "writer": 5771,
      "AnĠ": 5772,
      "ĉĠĠĠĠĠĠĠĠĠĠĠĠĠĠĠĠĠĠĠĠ": 5773,
      "Mar": 5774,
      "text>": 5775,
      "deci": 5776,
      "Mock": 5777,
      "Union[": 5778,
      "path_": 5779,
      "Scale": 5780,
      "ware": 5781,
      "f(": 5782,
      "topĠ": 5783,
      "icro": 5784,
      "A,Ġ": 5785,
      "ĠĠĠĠplt.": 5786,
      "ĠĠĠĠ@classmethod": 5787,
      "parser.": 5788,
      "Second": 5789,
      "ApacheĠ": 5790,
      "image.": 5791,
      "uuid": 5792,
      "ĠĠĠĠprint(\"": 5793,
      "(__pyx_": 5794,
      "analysi": 5795,
      "forĠaĠ": 5796,
      "10)": 5797,
      "###": 5798,
      "custom": 5799,
      "PAR": 5800,
      "ference": 5801,
      "upleĠ": 5802,
      "asĠtheĠ": 5803,
      "fa-": 5804,
      "dropout": 5805,
      "Any": 5806,
      "relative": 5807,
      "ctionĠ": 5808,
      "math.": 5809,
      "colle": 5810,
      "bgcolor='": 5811,
      "dt": 5812,
      "thing": 5813,
      "Men": 5814,
      "ĉĉthis.": 5815,
      "ingĠimportĠ": 5816,
      "queeze": 5817,
      "#000000;": 5818,
      "LT": 5819,
      "ĠĠĠĠTheĠ": 5820,
      "index,Ġ": 5821,
      "ffect": 5822,
      "Name.": 5823,
      "(0": 5824,
      "display:Ġ": 5825,
      "(this.": 5826,
      "account": 5827,
      "Lex": 5828,
      "assign": 5829,
      "informationĠ": 5830,
      "æĺ": 5831,
      "\"),Ġ": 5832,
      "WITHO": 5833,
      "bar-": 5834,
      "scores": 5835,
      "name_": 5836,
      "useĠthisĠ": 5837,
      "âĶĢ": 5838,
      "style=\"border-bottom": 5839,
      "-0.": 5840,
      "ard_": 5841,
      "h,Ġ": 5842,
      "deep": 5843,
      "4);": 5844,
      "APIĠ": 5845,
      "appro": 5846,
      "pxĠsolidĠ#000000;": 5847,
      ":Ġbool": 5848,
      "mostĠ": 5849,
      "Lang": 5850,
      "ouse": 5851,
      "ary_": 5852,
      "visi": 5853,
      "02": 5854,
      "placeĠ": 5855,
      "lip": 5856,
      "decor": 5857,
      "ateĠtheĠ": 5858,
      "layers.": 5859,
      "privateĠ": 5860,
      "TF": 5861,
      "responseĠ=Ġ": 5862,
      "820": 5863,
      ":3pxĠsolidĠ#000000;": 5864,
      "style=\"border-bottom:3pxĠsolidĠ#000000;": 5865,
      "Interval": 5866,
      "after": 5867,
      "rc": 5868,
      "yyyy": 5869,
      "!important;": 5870,
      "&quot": 5871,
      "217": 5872,
      "pose": 5873,
      "air": 5874,
      "ĠĠĠĠĉa13": 5875,
      "cookie": 5876,
      "conv_": 5877,
      "_bl": 5878,
      "ĠĠĠĠĉa30": 5879,
      "dropdown": 5880,
      "SA": 5881,
      "st,Ġ": 5882,
      "Head": 5883,
      "Tool": 5884,
      "\"ASĠIS": 5885,
      "safe": 5886,
      "Tar": 5887,
      "Func": 5888,
      "N_": 5889,
      "gĠ": 5890,
      "ãĢ": 5891,
      "compon": 5892,
      "set_input_": 5893,
      "field-": 5894,
      "removeĠ": 5895,
      "[0,Ġ": 5896,
      "python/": 5897,
      "READ": 5898,
      "ĠĠĠĠĉa112": 5899,
      "throwĠnewĠ": 5900,
      ",ĠGL": 5901,
      "]);": 5902,
      "promp": 5903,
      "Ste": 5904,
      "pathĠ": 5905,
      "axe": 5906,
      "initialize": 5907,
      "ĠĠĠĠParameters": 5908,
      "dar": 5909,
      "s('": 5910,
      "\\3\\2\\2": 5911,
      "284": 5912,
      "inputĠ==Ġ": 5913,
      "scalar": 5914,
      ");ĠifĠ(unlikely(": 5915,
      "storage": 5916,
      "ject": 5917,
      "i=": 5918,
      "/usr/bin/": 5919,
      "attributeĠ": 5920,
      "FRO": 5921,
      "jector": 5922,
      "204": 5923,
      "file)": 5924,
      "rgba": 5925,
      "split_": 5926,
      "constraint": 5927,
      "card": 5928,
      "idi": 5929,
      "NotImple": 5930,
      "ĠĠĠĠĠĠĠĠĠĠĠĠ(": 5931,
      "y=": 5932,
      "Right": 5933,
      "ization": 5934,
      "rootĠ": 5935,
      "Keyword": 5936,
      "allel": 5937,
      "accurac": 5938,
      "Vi": 5939,
      "View.Memory": 5940,
      "rĠ": 5941,
      "libcity.model.traffic_": 5942,
      "town": 5943,
      "ĠĠĠĠĠĠĠĠĠĠĠĠĠĠĠĠĠĠĠĠĠĠĠĠĠĠĠĠĠĠĠĠĠ": 5944,
      "call(": 5945,
      "ExceptionĠasĠ": 5946,
      "&quot;": 5947,
      "at_": 5948,
      "20,Ġ": 5949,
      "stder": 5950,
      "nameĠinĠ": 5951,
      "NumberĠofĠ": 5952,
      "Zone": 5953,
      "Cal": 5954,
      "tialĠ": 5955,
      "&#x": 5956,
      "name.": 5957,
      "expres": 5958,
      "Found": 5959,
      "radius": 5960,
      "#ĠĠĠ": 5961,
      "Start": 5962,
      "Linear": 5963,
      "ValueĠ": 5964,
      "ãģ": 5965,
      "precision": 5966,
      "[],Ġ": 5967,
      "SELE": 5968,
      "Handler": 5969,
      "NS": 5970,
      "usingĠtheĠ": 5971,
      "info.": 5972,
      "False,Ġ": 5973,
      "AIN": 5974,
      "sur": 5975,
      "compli": 5976,
      "Count": 5977,
      "ListĠ": 5978,
      "<T": 5979,
      "oprot.": 5980,
      "s\">": 5981,
      "release": 5982,
      "erĠimportĠ": 5983,
      "measure": 5984,
      "tokenĠ": 5985,
      "/*!<Ġ": 5986,
      "width,Ġ": 5987,
      "WE": 5988,
      "GOT": 5989,
      "1ĠĠ": 5990,
      "trainingĠ": 5991,
      "ĠĠĠĠĉcfĠ=Ġ0;": 5992,
      "returnedĠ": 5993,
      "!Ġ": 5994,
      "934": 5995,
      "structure": 5996,
      "NotImplemented": 5997,
      "ia": 5998,
      "ĠĠĠĠĠĠĠĠwhileĠ": 5999,
      "VersionĠ": 6000,
      "Na": 6001,
      "äº": 6002,
      "\"Ġalt=\"": 6003,
      "left:Ġ": 6004,
      "2,Ġ1,Ġ": 6005,
      "transl": 6006,
      "frappe.": 6007,
      "12,Ġ": 6008,
      "alk": 6009,
      "pythonĠ": 6010,
      "GOTREF": 6011,
      "hide": 6012,
      "file(": 6013,
      "support": 6014,
      "knowĠ": 6015,
      "ing(": 6016,
      "1)Ġ{": 6017,
      "oldĠ": 6018,
      "_string": 6019,
      "gr": 6020,
      "AY": 6021,
      "\"\")": 6022,
      "0'Ġ": 6023,
      "ThisĠisĠ": 6024,
      "limi": 6025,
      "H:mm": 6026,
      "cog": 6027,
      "POST": 6028,
      "rea": 6029,
      "server_": 6030,
      "ĠĠĠĠĠĠĠĠĠĠĠĠassertĠ": 6031,
      "gory": 6032,
      "tru": 6033,
      "2017": 6034,
      "\")Ġ{": 6035,
      "activation": 6036,
      "constant": 6037,
      "iĠ=Ġ0;ĠiĠ<Ġ": 6038,
      "arrow": 6039,
      "selfĠ": 6040,
      "configuration": 6041,
      "out_channel": 6042,
      "theĠsameĠ": 6043,
      "floatĠ": 6044,
      "iprot.": 6045,
      "sph": 6046,
      "offsetĠ": 6047,
      "sĠtoĠbeĠ": 6048,
      "scen": 6049,
      "local_": 6050,
      "s()Ġ": 6051,
      "ship": 6052,
      "exampleĠ": 6053,
      "Error(\"": 6054,
      "THER": 6055,
      "size:Ġ": 6056,
      "boolĠ": 6057,
      "\"Ġwidth=\"": 6058,
      "3:": 6059,
      "wel": 6060,
      "category": 6061,
      "Ra": 6062,
      "moment([": 6063,
      "flowĠ": 6064,
      "enci": 6065,
      "ORT": 6066,
      "rt": 6067,
      "lineno": 6068,
      "ĠĠĠĠĠĠĠĠproc.set_input_": 6069,
      "Ñģ": 6070,
      "Search": 6071,
      "à¸": 6072,
      "TODO:Ġ": 6073,
      "{{": 6074,
      ".is_": 6075,
      "Da": 6076,
      "adap": 6077,
      "charĠ*": 6078,
      "properties.": 6079,
      "}\"": 6080,
      ".value": 6081,
      "ven": 6082,
      "Memb": 6083,
      "1e-": 6084,
      "|Ġ:": 6085,
      "PC": 6086,
      "ĠĠĠĠthis.": 6087,
      "ĠĠĠĠĠĠĠĠifĠisinstance(": 6088,
      "s/openmtc-": 6089,
      "ome": 6090,
      "urlĠ=Ġ": 6091,
      "everyĠ": 6092,
      "MMMM": 6093,
      "utĠ": 6094,
      "4Ġ=Ġ": 6095,
      "ĠĠĠĠĠĠĠĠsuper().": 6096,
      "1000": 6097,
      "unitĠ": 6098,
      "exists(": 6099,
      "sg": 6100,
      "shad": 6101,
      "Warning": 6102,
      "fp": 6103,
      "Sup": 6104,
      "Y,Ġ": 6105,
      "scan": 6106,
      "blue": 6107,
      "integer": 6108,
      "']:": 6109,
      "<imgĠsrc=\"": 6110,
      "PleaseĠ": 6111,
      "(u": 6112,
      "ĠthatĠ": 6113,
      "\"],Ġ": 6114,
      "city": 6115,
      "squeeze": 6116,
      "c)": 6117,
      "sĠanĠ": 6118,
      "nn": 6119,
      "ĠĠĠĠĠĠĠĠĠĠĠĠĠĠĠĠĠĠĠĠĠĠĠĠĠĠĠĠĠĠĠĠĠĠ": 6120,
      "haveĠaĠ": 6121,
      "`ĠisĠ": 6122,
      "ineĠ": 6123,
      "orizont": 6124,
      "erĠthanĠ": 6125,
      "s.get('": 6126,
      "NoneĠandĠ": 6127,
      "8_tĠ": 6128,
      "WITHOUTĠ": 6129,
      "serialize": 6130,
      "nee": 6131,
      "x2_tĠ": 6132,
      "Pol": 6133,
      "NUM": 6134,
      "selector": 6135,
      "soft": 6136,
      "ĠĠĠĠĉa86": 6137,
      "ĠĠĠĠĠĠĠĠ:return": 6138,
      "GB": 6139,
      "normaliz": 6140,
      "Softwa": 6141,
      "ĉĉĉthis.": 6142,
      "WOR": 6143,
      "ating": 6144,
      "choice": 6145,
      "\\3\\u0": 6146,
      "Ġ*ĠĠĠĠĠĠĠĠĠĠĠĠĠĠĠĠĠ": 6147,
      "ĠĠĠĠĠĠĠĠr": 6148,
      "bor": 6149,
      "iĠ+Ġ": 6150,
      "filter(": 6151,
      "wy-": 6152,
      "133": 6153,
      "contri": 6154,
      "STAR": 6155,
      "lst": 6156,
      "net_": 6157,
      "Row": 6158,
      "'),Ġ'": 6159,
      "y()": 6160,
      "ALL": 6161,
      "vĠ=Ġ": 6162,
      "zz": 6163,
      "ĠĠĠĠ@staticmethod": 6164,
      "searchĠ": 6165,
      "sĠ=Ġ(": 6166,
      "dir(": 6167,
      ".js": 6168,
      "originalĠ": 6169,
      "Emp": 6170,
      "sche": 6171,
      "{}'.format(": 6172,
      "MLĠ": 6173,
      "TYPE_": 6174,
      "ĠĠĠĠconstĠ": 6175,
      "monthĠ": 6176,
      "sizeĠ=Ġ": 6177,
      "attention_mask": 6178,
      "PyObject_": 6179,
      "dice": 6180,
      "INSER": 6181,
      "clip": 6182,
      "feature_": 6183,
      "10Ġ": 6184,
      ":,": 6185,
      "+'": 6186,
      "nlp.": 6187,
      "styleĠ": 6188,
      "Quo": 6189,
      "AI": 6190,
      "collap": 6191,
      "æį": 6192,
      "store_": 6193,
      "unittest.": 6194,
      "ly_": 6195,
      "8)": 6196,
      "ĠĠĠĠĠĠĠĠĠĠĠĠexceptĠ": 6197,
      "inner": 6198,
      "*(": 6199,
      "622": 6200,
      "fullĠ": 6201,
      "3-": 6202,
      "divid": 6203,
      "inf": 6204,
      "2D": 6205,
      "PR": 6206,
      "USE": 6207,
      "_in_": 6208,
      "envĠ": 6209,
      "Sequential": 6210,
      "who": 6211,
      "cdefĠ": 6212,
      "s.ĠĠ": 6213,
      "4_": 6214,
      "ĠĠĠĠĠĠĠĠĠ'": 6215,
      "zo": 6216,
      "Bar": 6217,
      ")Ġ!=Ġ": 6218,
      "actu": 6219,
      ":Ġ[": 6220,
      "heightĠ": 6221,
      "Encod": 6222,
      "sigma": 6223,
      "2018": 6224,
      "lit": 6225,
      "width=": 6226,
      "beingĠ": 6227,
      "javas": 6228,
      "+-+-": 6229,
      "Seq": 6230,
      "copyĠofĠtheĠ": 6231,
      "ATE": 6232,
      "ĠĠĠĠĠĠĠĠĠĠ'": 6233,
      "ough": 6234,
      "Ġ=ĠfunctionĠ()Ġ{": 6235,
      "Ġ=Ġrequire('": 6236,
      "187": 6237,
      "expectedĠ": 6238,
      "dup": 6239,
      "import_": 6240,
      "value)Ġ{": 6241,
      "date_": 6242,
      "escape": 6243,
      "`,Ġ`": 6244,
      "ĉĠĠ": 6245,
      "mask_": 6246,
      "relation": 6247,
      "]['": 6248,
      "var_": 6249,
      "View\":": 6250,
      "noi": 6251,
      "match.": 6252,
      "/*Ġ\"View.Memory": 6253,
      "/*Ġ\"View.MemoryView\":": 6254,
      "inlineĠ": 6255,
      "#ĠĠ": 6256,
      "jQuer": 6257,
      "\"Ġheight=\"": 6258,
      "...Ġ": 6259,
      "id=": 6260,
      "shift": 6261,
      "maske": 6262,
      "Matrix": 6263,
      "[k": 6264,
      "compres": 6265,
      "linkĠrel=\"": 6266,
      "Header": 6267,
      "61": 6268,
      "getĠtheĠ": 6269,
      "lar": 6270,
      "_name)": 6271,
      "(data": 6272,
      "SET": 6273,
      "keras.": 6274,
      "INT": 6275,
      "iterator": 6276,
      "',Ġtype=": 6277,
      "accept": 6278,
      "FIG": 6279,
      "1.0,Ġ": 6280,
      "prior": 6281,
      "(c)Ġ": 6282,
      "entry": 6283,
      "0/": 6284,
      "line-": 6285,
      "_input_": 6286,
      "_id,Ġ": 6287,
      "force": 6288,
      "name\":Ġ\"": 6289,
      "one_": 6290,
      "dictionaryĠ": 6291,
      "ARB": 6292,
      "freq": 6293,
      "fromĠpy": 6294,
      "s.\"\"\"": 6295,
      "sync": 6296,
      "314": 6297,
      "e.g.Ġ": 6298,
      "nav-": 6299,
      ":Ġstring": 6300,
      "hold": 6301,
      "grad_": 6302,
      "results/": 6303,
      "ĠĠĠĠĠĠĠĠĠĠĠĠĠĠĠĠ)": 6304,
      "software": 6305,
      "hover": 6306,
      "_blank": 6307,
      "fluid": 6308,
      "apply(": 6309,
      "sĠand": 6310,
      "chain": 6311,
      "again": 6312,
      "ANDĠ": 6313,
      "list,Ġ": 6314,
      "2(": 6315,
      "Dialog": 6316,
      "\"},": 6317,
      "s\",Ġ\"": 6318,
      "storeĠ": 6319,
      "Sto": 6320,
      "_idx": 6321,
      "\\n')": 6322,
      "\\n\")": 6323,
      "<h": 6324,
      "bbox_": 6325,
      "flush": 6326,
      "NOTĠ": 6327,
      "LU": 6328,
      "dĠtoĠtheĠ": 6329,
      "delay": 6330,
      "toĠaĠ": 6331,
      "mg": 6332,
      "cluster": 6333,
      "scriptor": 6334,
      "PFN": 6335,
      "bothĠ": 6336,
      "Polic": 6337,
      "null,Ġ": 6338,
      "_RE": 6339,
      "position:Ġ": 6340,
      "public": 6341,
      "threshold": 6342,
      ")Ġ?Ġ": 6343,
      "Document": 6344,
      "ĠĠĠĠĠĠĠĠp": 6345,
      "de_": 6346,
      "neigh": 6347,
      "6,": 6348,
      "context_": 6349,
      "shin": 6350,
      "GU": 6351,
      "ĠĠĠĠ[": 6352,
      "timeĠ=Ġ": 6353,
      "segment": 6354,
      ")ĠinĠ": 6355,
      "thisĠisĠ": 6356,
      "__Ġ=Ġ": 6357,
      "mix": 6358,
      "ONG": 6359,
      "tz": 6360,
      "list.": 6361,
      "ĠĠbackground-": 6362,
      "output.": 6363,
      "KIND,Ġ": 6364,
      "printĠ'": 6365,
      "QtWidget": 6366,
      "name,": 6367,
      "}\")": 6368,
      "agree": 6369,
      "er-": 6370,
      "vĠinĠ": 6371,
      "writing": 6372,
      "havi": 6373,
      "ĉ__": 6374,
      "stic": 6375,
      "repeat": 6376,
      "Py_s": 6377,
      "EST": 6378,
      "png": 6379,
      "unicode": 6380,
      "find('": 6381,
      "ĠĠĠĠĉa154": 6382,
      "#ifĠ": 6383,
      "ĠĠĠĠĉa175": 6384,
      "goo": 6385,
      "agent": 6386,
      "availableĠ": 6387,
      "token_": 6388,
      ":Ġ%s": 6389,
      "Date.CultureInfo": 6390,
      "Cap": 6391,
      "Conv2": 6392,
      "headerĠ": 6393,
      "Promise": 6394,
      "ĠĠ|": 6395,
      "ĠĠĠĠĠĠĠĠĠĠĠĠĠ'": 6396,
      "load(": 6397,
      "SĠOFĠ": 6398,
      "Device": 6399,
      "frameĠ": 6400,
      "La": 6401,
      "ĠĠĠĠr": 6402,
      "ĠĠĠĠĉa69": 6403,
      "/Ġ(": 6404,
      "php?": 6405,
      "ndim": 6406,
      "ationĠofĠ": 6407,
      "prote": 6408,
      "'][": 6409,
      "Rule": 6410,
      "[:,": 6411,
      "ers": 6412,
      "aboveĠ": 6413,
      "marker": 6414,
      "gover": 6415,
      "Http": 6416,
      "sorted(": 6417,
      "stage": 6418,
      "perform": 6419,
      "correctĠ": 6420,
      "Timeout": 6421,
      "Status": 6422,
      "anny": 6423,
      "_CH": 6424,
      "</em>": 6425,
      "IFT": 6426,
      "relu": 6427,
      "return_": 6428,
      "logic": 6429,
      "RefN": 6430,
      "165": 6431,
      "DECREF(__pyx_t_": 6432,
      "ĠĠĠĠĠĠĠĠifĠlen(": 6433,
      "typeĠ==Ġ": 6434,
      "(f'": 6435,
      "app_": 6436,
      "dĠbyĠtheĠ": 6437,
      "a/": 6438,
      "Sc": 6439,
      "column_": 6440,
      "IMP": 6441,
      "simul": 6442,
      "htmlĠ": 6443,
      "s(),Ġ": 6444,
      "Connection": 6445,
      "plotĠ": 6446,
      "square": 6447,
      "used": 6448,
      "cry": 6449,
      "annotation": 6450,
      "addr": 6451,
      "spect": 6452,
      "xture": 6453,
      "Url": 6454,
      "Expression": 6455,
      "lĠ=Ġ": 6456,
      "supportĠ": 6457,
      "asyncĠdefĠ": 6458,
      "ĠĠĠĠĠĠĠĠĠĠĠĠĠĠĠĠĠĠĠĠreturnĠ": 6459,
      "Height": 6460,
      "ĠĠĠĠĠĠĠĠ});": 6461,
      "[1:": 6462,
      "324": 6463,
      "YouĠmayĠ": 6464,
      "profile": 6465,
      ".join(": 6466,
      "ĠĠĠĠĠĠĠĠ('": 6467,
      "INTOĠ": 6468,
      "gen_": 6469,
      "licenses/": 6470,
      "[4": 6471,
      "commit": 6472,
      "Handle": 6473,
      "INSERTĠ": 6474,
      "aĠnewĠ": 6475,
      "XX": 6476,
      "cycle": 6477,
      "dir,Ġ": 6478,
      "split(\"": 6479,
      "cp": 6480,
      "useĠtheĠ": 6481,
      "uint32": 6482,
      "b\"": 6483,
      "Ġ=Ġos.path.join(": 6484,
      "final_update": 6485,
      "Pr": 6486,
      "Âł": 6487,
      "other.": 6488,
      "search_": 6489,
      "TIME": 6490,
      "WH": 6491,
      "GG": 6492,
      "Resource": 6493,
      "suit": 6494,
      "watch": 6495,
      "en_": 6496,
      "bgcolor='#0000": 6497,
      "dered": 6498,
      "#!/usr/bin/": 6499,
      "y,": 6500,
      "EXP": 6501,
      "35614": 6502,
      "f0": 6503,
      "Integer": 6504,
      "459": 6505,
      "Build": 6506,
      "s();": 6507,
      "548": 6508,
      "set()": 6509,
      "top_": 6510,
      "License,Ġ": 6511,
      "ä½": 6512,
      "35614807": 6513,
      "boxĠ": 6514,
      "âĶĢâĶĢ": 6515,
      "ousĠ": 6516,
      "transaction": 6517,
      "-1Ġ": 6518,
      "cance": 6519,
      "ĠĠĠĠĠĠĠĠt": 6520,
      "RefNanny": 6521,
      ")?/": 6522,
      "TimeĠ": 6523,
      "ĠĠĠĠ__Pyx_": 6524,
      "1):": 6525,
      "i>": 6526,
      "youĠmayĠ": 6527,
      "Item(": 6528,
      ")Ġ#Ġ": 6529,
      "take": 6530,
      "ĠĠĠĠĠĠĠĠĠĠĠĠreturnĠself.": 6531,
      ")),Ġ": 6532,
      "ç»": 6533,
      "Stack": 6534,
      "class=\"sig-": 6535,
      "Parser.": 6536,
      "toggle": 6537,
      "come": 6538,
      "body>": 6539,
      "ipĠ": 6540,
      "GET_": 6541,
      "2),Ġ": 6542,
      "Ġ==Ġ34": 6543,
      "509": 6544,
      "null)Ġ{": 6545,
      "../_": 6546,
      "autoĠ": 6547,
      "Ġ=Ġ__webpack_require__(": 6548,
      "random.rand": 6549,
      "norm_": 6550,
      "Langu": 6551,
      "Dir": 6552,
      "[self.": 6553,
      "invent": 6554,
      "table_": 6555,
      "MD": 6556,
      "ĠĠĠĠĠĠĠĠĠĠĠĠĠĠĠĠĠĠĠĠĠĠĠĠĠĠĠĠĠĠĠĠĠĠĠ": 6557,
      "UTC": 6558,
      "edit": 6559,
      "flatten": 6560,
      "bn": 6561,
      "stro": 6562,
      "OL": 6563,
      "int)": 6564,
      ".org/licenses/": 6565,
      "tionĠ": 6566,
      "small": 6567,
      "access_": 6568,
      "text.": 6569,
      "YouĠcanĠ": 6570,
      "register_": 6571,
      "ĠĠĠĠ<tdĠ": 6572,
      "ĠĠĠĠĠWaitingPage.": 6573,
      "max_length": 6574,
      "[1])": 6575,
      ")Ġ:Ġ": 6576,
      "h_": 6577,
      "PĠ": 6578,
      "Setting": 6579,
      "keyĠinĠ": 6580,
      "Speci": 6581,
      "IX": 6582,
      "compati": 6583,
      "=0,Ġ": 6584,
      "value=\"": 6585,
      "ension": 6586,
      "Current": 6587,
      "sĠforĠtheĠ": 6588,
      "3d": 6589,
      "sci": 6590,
      "s.Q": 6591,
      "somethingĠ": 6592,
      "calculate_output": 6593,
      "PFNGL": 6594,
      "ee": 6595,
      "Ġ+Ġ\"": 6596,
      "randomĠ": 6597,
      "black": 6598,
      "sĠ{": 6599,
      "vec_": 6600,
      "cs.": 6601,
      "Unit": 6602,
      "ĠĠĠĠĠĠĠĠforĠiĠinĠrange(": 6603,
      "One": 6604,
      "anotherĠ": 6605,
      "NumberĠ=Ġ": 6606,
      "mapĠ": 6607,
      "\"Ġ>&nbsp;</td>": 6608,
      "style=\"border-bottom:3pxĠsolidĠ#000000;\"Ġ>&nbsp;</td>": 6609,
      "IfĠtheĠ": 6610,
      "rest": 6611,
      "game.": 6612,
      "indexĠ": 6613,
      "org.": 6614,
      "(2,Ġ": 6615,
      "checkpoint": 6616,
      "acce": 6617,
      "ĠĠĠĠ]": 6618,
      "acity": 6619,
      "lead": 6620,
      "Buffer": 6621,
      "ASS": 6622,
      "Bin": 6623,
      "Comple": 6624,
      "(config": 6625,
      ");ĠifĠ(unlikely(!": 6626,
      "cover": 6627,
      "url)": 6628,
      "responseĠ": 6629,
      "CTYP": 6630,
      "degree": 6631,
      "frame_": 6632,
      "flow.": 6633,
      "argparse": 6634,
      "definedĠ": 6635,
      "engine": 6636,
      "Wrap": 6637,
      "charĠ": 6638,
      "stim": 6639,
      "VALUES": 6640,
      "onĠanĠ": 6641,
      "text)": 6642,
      "ĠĠĠĠĠĠĠĠ],": 6643,
      "ĠĠĠĠifĠ(!": 6644,
      "clientĠ": 6645,
      "withinĠ": 6646,
      "sep": 6647,
      "ĠĠĠĠĠĠĠĠĠĠĠĠ//Ġ": 6648,
      "Sco": 6649,
      "ĠĠĠĠĠĠĠĠthis.": 6650,
      "s\"Ġ": 6651,
      "è®": 6652,
      "treeĠ": 6653,
      "_batch": 6654,
      "yĠimportĠ": 6655,
      "destin": 6656,
      "whetherĠ": 6657,
      "histor": 6658,
      "al-": 6659,
      "staticĠ__": 6660,
      "table.": 6661,
      "180": 6662,
      "Enable": 6663,
      "atom": 6664,
      "transpose": 6665,
      "pyxb.utils.": 6666,
      "textĠ=Ġ": 6667,
      "resize": 6668,
      "query.": 6669,
      "utility.": 6670,
      "signal": 6671,
      "capt": 6672,
      "Distribute": 6673,
      "__main__':": 6674,
      "refresh": 6675,
      "Tree": 6676,
      "ht_": 6677,
      "relate": 6678,
      "article": 6679,
      "nes": 6680,
      "s(self.": 6681,
      "211": 6682,
      "endpoint": 6683,
      "744": 6684,
      "F_": 6685,
      "inline__": 6686,
      "214": 6687,
      "('utf-8": 6688,
      "rout": 6689,
      "String.": 6690,
      "Train": 6691,
      "lossĠ=Ġ": 6692,
      ",Ġself).__init__": 6693,
      "file_path": 6694,
      "n_s_": 6695,
      "Attr": 6696,
      "movie": 6697,
      "typeĠ=Ġ": 6698,
      "dialog": 6699,
      "yte": 6700,
      "Iterator": 6701,
      "\"Ġtarget=\"": 6702,
      "two": 6703,
      "block_": 6704,
      "*args,Ġ**kwargs):": 6705,
      "showĠ": 6706,
      "ĠĠĠĠc": 6707,
      ")Ġ->ĠNone:": 6708,
      "Ġ=Ġ''": 6709,
      "</dt>": 6710,
      "3f": 6711,
      "\"ASĠIS\"Ġ": 6712,
      "pa.": 6713,
      "custom_": 6714,
      "ster_": 6715,
      "matplotlib.": 6716,
      "600": 6717,
      "ĠĠĠĠĉa115": 6718,
      ".png\"Ġwidth=\"": 6719,
      "INSERTĠINTOĠ": 6720,
      "android:": 6721,
      "#includeĠ<": 6722,
      "2d": 6723,
      "PH": 6724,
      "Met": 6725,
      "html_": 6726,
      "License,ĠVersionĠ": 6727,
      "_SHIFT": 6728,
      "316": 6729,
      "passe": 6730,
      ">>Ġ": 6731,
      "Location(": 6732,
      "ANYĠKIND,Ġ": 6733,
      "antĠ": 6734,
      "param_": 6735,
      "colorĠ": 6736,
      "GOTREF(__pyx_t_": 6737,
      "Error('": 6738,
      "hasattr(": 6739,
      "tryĠ{": 6740,
      "ĠĠĠĠĉa137": 6741,
      "rid": 6742,
      "wra": 6743,
      ":Ġstr,Ġ": 6744,
      "Runtime": 6745,
      "\"lib/python3.7/site-packages/": 6746,
      "ĉĉĉ//Ġ": 6747,
      "logger.debug": 6748,
      "observ": 6749,
      "s/flag": 6750,
      "Classifi": 6751,
      "mapping": 6752,
      "install": 6753,
      "i,": 6754,
      "QtWidgets.Q": 6755,
      "wd": 6756,
      ");Ġ\\": 6757,
      "7Ġ": 6758,
      "candi": 6759,
      "ĠĠĠĠpublicĠ": 6760,
      "initial_": 6761,
      "9.": 6762,
      "v8::": 6763,
      "layerĠ": 6764,
      "pytest.raises(": 6765,
      "ench": 6766,
      "handleĠ": 6767,
      ".\")": 6768,
      "br>": 6769,
      "1:Ġ": 6770,
      "s[0].": 6771,
      "ĠĠĠĠ$": 6772,
      "simil": 6773,
      "interface": 6774,
      "ApacheĠLicense,ĠVersionĠ": 6775,
      "asynci": 6776,
      "receive": 6777,
      "binding.": 6778,
      "\\r": 6779,
      "\":\"": 6780,
      "padding-": 6781,
      "ApacheĠLicense,ĠVersionĠ2.0": 6782,
      "chat": 6783,
      "sf": 6784,
      "ĠĠĠĠĉa164": 6785,
      "decl": 6786,
      "ĠĠĠĠ<aĠclass=\"referenceĠinternal\"Ġhref=\"alfred3_interact.page.WaitingPage.": 6787,
      "m)": 6788,
      "ater": 6789,
      "regular": 6790,
      "ed,Ġ": 6791,
      "PROC": 6792,
      "ĠĠĠĠĠĠĠĠ[": 6793,
      "ĠĠĠĠĠĠĠĠsuper().__init__": 6794,
      "__init__(self,Ġ": 6795,
      "-2.0": 6796,
      "</font": 6797,
      "diag": 6798,
      "__b": 6799,
      "/shin": 6800,
      "incre": 6801,
      "saveĠ": 6802,
      "ĠĠĠĠĠĠĠĠ\"\"\"Return": 6803,
      "2f": 6804,
      "OUT": 6805,
      "Regex": 6806,
      "\"Ġtarget=\"_blank": 6807,
      "Date}": 6808,
      "filter_": 6809,
      "/X": 6810,
      "Stru": 6811,
      "session.": 6812,
      "6)": 6813,
      "\"Ġdata-order=\"": 6814,
      "Serie": 6815,
      "ifĠ__name__Ġ==Ġ'": 6816,
      "x,": 6817,
      "True(": 6818,
      "s=['": 6819,
      "s-iso": 6820,
      "ĠĠĠĠĉa214": 6821,
      "/shiny/": 6822,
      "stre": 6823,
      "ĠĠĠĠĠĠĠĠĠĠĠĠĠĠĠĠ<tdĠclass=\"col-desktop": 6824,
      "flags/flag": 6825,
      "<imgĠsrc=\"flags/flag": 6826,
      "s-iso/shiny/": 6827,
      "ĠĠĠĠĠĠĠĠĠĠĠĠĠĠĠĠ<tdĠclass=\"col-desktop\">": 6828,
      "<imgĠsrc=\"flags/flags-iso/shiny/": 6829,
      "indent": 6830,
      "ĠĠĠĠĠĠĠĠĠĠĠĠĠĠĠĠifĠ(": 6831,
      "ĠĠĠĠĠĠ<": 6832,
      "dag": 6833,
      "âĸĪ": 6834,
      "select_": 6835,
      "job_": 6836,
      "Mix": 6837,
      "tour": 6838,
      "2-": 6839,
      ".html#": 6840,
      "CTION": 6841,
      "pyxb.utils.utility.": 6842,
      "outĠ=Ġ": 6843,
      "DEBU": 6844,
      "/vc": 6845,
      "embe": 6846,
      "run(": 6847,
      "åĬ": 6848,
      "choi": 6849,
      "manage": 6850,
      "\\d+": 6851,
      "rn": 6852,
      "</dd>": 6853,
      "åŃ": 6854,
      "params['": 6855,
      "vertical": 6856,
      "ĠĠĠĠprint(": 6857,
      "CONDITION": 6858,
      "inver": 6859,
      "display_": 6860,
      "aria-": 6861,
      "__p0,Ġ": 6862,
      "TestCase):": 6863,
      "calculate_outputm": 6864,
      "role=\"": 6865,
      "middle": 6866,
      "ĉdefĠ": 6867,
      "dum": 6868,
      "ifĠ__name__Ġ==Ġ'__main__':": 6869,
      "ĠĠĠĠĉa39": 6870,
      "Operator": 6871,
      "func_": 6872,
      "s.append": 6873,
      "</font>": 6874,
      "267": 6875,
      ")ĠorĠ": 6876,
      "dm": 6877,
      "Seri": 6878,
      "worker": 6879,
      "|Ġ(": 6880,
      "language=": 6881,
      ";Ġ//Ġ": 6882,
      "exclude": 6883,
      "Ð¾Ð": 6884,
      "Menu": 6885,
      "maxĠ": 6886,
      "xl": 6887,
      "lawĠ": 6888,
      "exp_": 6889,
      "_by_": 6890,
      "(self,": 6891,
      "199": 6892,
      "constructor": 6893,
      "32,Ġ": 6894,
      "2Ġ+Ġ": 6895,
      "Random": 6896,
      "325": 6897,
      "occur": 6898,
      "Ph": 6899,
      "promise": 6900,
      "stedĠ": 6901,
      "[^": 6902,
      "name:Ġ": 6903,
      "}ĠĠĠ": 6904,
      "comb": 6905,
      "register": 6906,
      "string.": 6907,
      "problemĠ": 6908,
      "R_": 6909,
      "apache.org/licenses/": 6910,
      "Tit": 6911,
      "overĠ": 6912,
      "None):": 6913,
      "194": 6914,
      "ongĠ": 6915,
      "apache.org/licenses/LICENSE": 6916,
      "USE_": 6917,
      "fu": 6918,
      "Order": 6919,
      "requiredĠbyĠ": 6920,
      "decoder_": 6921,
      "fetch": 6922,
      "'+": 6923,
      "{},Ġ": 6924,
      "master": 6925,
      "node,Ġ": 6926,
      "sure": 6927,
      "çĶ¨": 6928,
      "bbox": 6929,
      "ĠĠĠĠwhileĠ": 6930,
      "notification": 6931,
      "queĠ": 6932,
      "INFO": 6933,
      "ĠĠĠĠĠĠĠĠprint('": 6934,
      "catchĠ(": 6935,
      "Pla": 6936,
      "actual": 6937,
      "Child": 6938,
      "s}": 6939,
      "mouse": 6940,
      "name):": 6941,
      ":Ġfunction(": 6942,
      "INGĠ": 6943,
      "applicableĠ": 6944,
      "zip(": 6945,
      "Dro": 6946,
      "[-": 6947,
      "CA": 6948,
      "andĠnotĠ": 6949,
      "submit": 6950,
      "Ġ=Ġ$": 6951,
      "ĠĠĠĠ/**": 6952,
      "bra": 6953,
      "PyLong_SHIFT": 6954,
      "159": 6955,
      "player": 6956,
      "ctypes.": 6957,
      "asci": 6958,
      "configurationĠ": 6959,
      "time.time()": 6960,
      "ĠĠĠĠĠĠĠĠ{": 6961,
      "anded": 6962,
      "c:": 6963,
      "ĠĠĠĠĠĠĠĠ\"\"\"Ġ": 6964,
      "(in": 6965,
      "2016": 6966,
      "authenti": 6967,
      "%.": 6968,
      "=ĠĠ": 6969,
      "1024": 6970,
      "s::": 6971,
      "isĠdistributedĠ": 6972,
      "topic": 6973,
      "deleteĠ": 6974,
      "env.": 6975,
      "notĠuseĠthisĠ": 6976,
      "shape[0]": 6977,
      "Ġ&&Ġ": 6978,
      "http://www.apache.org/licenses/LICENSE": 6979,
      "Whe": 6980,
      "_v": 6981,
      "secret": 6982,
      "Del": 6983,
      "Fini": 6984,
      ".read": 6985,
      "ILIT": 6986,
      "(?:": 6987,
      "\"Ġtarget=\"_blank\">": 6988,
      "ds.": 6989,
      "exceptĠinĠ": 6990,
      "_H": 6991,
      "cture": 6992,
      "0,Ġ\"": 6993,
      "AUTH": 6994,
      "qa": 6995,
      "alwaysĠ": 6996,
      "autom": 6997,
      "UnlessĠ": 6998,
      "obtainĠaĠ": 6999,
      "Cell": 7000,
      "NoteĠ": 7001,
      "AND": 7002,
      "ĠfileĠ": 7003,
      "ĠĠĠĠĠĠĠĠĠĠĠĠĠĠĠĠĠĠĠĠĠĠĠĠ\"": 7004,
      "eas": 7005,
      "ĉĉ};": 7006,
      "'Ġ/>": 7007,
      "control.": 7008,
      "sive": 7009,
      "d\":": 7010,
      "ĠĠ=Ġ": 7011,
      "<aĠhref=\"https://www.": 7012,
      "3/": 7013,
      "ĠĠĠĠprint('": 7014,
      "Ġ=Ġ14;": 7015,
      "332": 7016,
      "box.": 7017,
      "start,Ġ": 7018,
      "context.get": 7019,
      "systemĠ": 7020,
      "scale_": 7021,
      "112": 7022,
      "floor": 7023,
      "module,Ġ": 7024,
      "#ĠTheĠ": 7025,
      "Include": 7026,
      "dispatch": 7027,
      "customĠ": 7028,
      "1>": 7029,
      "itu": 7030,
      "notebook": 7031,
      "graph_": 7032,
      "BASIS": 7033,
      "COL": 7034,
      "aro": 7035,
      "operation": 7036,
      "ORĠCONDITION": 7037,
      "form.": 7038,
      "Raises(": 7039,
      "',Ġu'": 7040,
      "model(": 7041,
      "ĠĠĠĠĉa34": 7042,
      "fileĠexceptĠinĠ": 7043,
      "WARRANTIESĠORĠCONDITION": 7044,
      "staticĠ__inline__": 7045,
      "fileĠexceptĠinĠcompli": 7046,
      "s_per_": 7047,
      "sub_": 7048,
      "8x16": 7049,
      "validate_": 7050,
      "\"][\"": 7051,
      "call_": 7052,
      "return;": 7053,
      "ĠĠ\"\"\"": 7054,
      "providedĠ": 7055,
      "ĠĠĠĠĠĠĠĠĠĠĠĠĠĠĠĠĠĠ</td>": 7056,
      "eitherĠexpres": 7057,
      "languageĠgover": 7058,
      "è¡": 7059,
      "ĠÐ": 7060,
      "sĠorĠimpli": 7061,
      "project_": 7062,
      "Full": 7063,
      "\\2\\2\\u0": 7064,
      "tupleĠ": 7065,
      "serverĠ": 7066,
      "___": 7067,
      "me.": 7068,
      "{:": 7069,
      "ĠĠ/**": 7070,
      "sym": 7071,
      "ĠĠ};": 7072,
      "possibleĠ": 7073,
      "PS": 7074,
      "erĠtoĠ": 7075,
      "can'tĠ": 7076,
      "ĠĠĠĠĠĠĠĠh": 7077,
      "negative": 7078,
      "country": 7079,
      "languageĠgoverningĠ": 7080,
      "UĠ": 7081,
      "rgb": 7082,
      "ĠĠĠĠĉa200": 7083,
      "createdĠ": 7084,
      "Minute": 7085,
      "816": 7086,
      "ĠĠĠĠĠĠĠĠc": 7087,
      "t-": 7088,
      "importĠtime": 7089,
      "es,Ġ": 7090,
      "ĠĠĠĠ<div": 7091,
      "2d(": 7092,
      "rendere": 7093,
      "WARRANTIESĠORĠCONDITIONSĠOFĠ": 7094,
      "VIC": 7095,
      "ĠĠĠĠĉa213": 7096,
      "notĠuseĠthisĠfileĠexceptĠinĠcompli": 7097,
      "='0'Ġ": 7098,
      "distributedĠunderĠtheĠ": 7099,
      "episo": 7100,
      "Left": 7101,
      "code,Ġ": 7102,
      "Ġ=Ġfunction(": 7103,
      "true);": 7104,
      "':Ġ0,Ġ'": 7105,
      "document.": 7106,
      "LicensedĠunderĠtheĠ": 7107,
      "InvalidĠ": 7108,
      "ĠĠĠĠĠĠĠĠĠĠĠĠĠĠĠĠĠĠĠĠĠĠĠĠĠĠĠĠĠĠĠĠĠĠĠĠĠĠĠĠĠĠĠĠĠĠĠĠĠĠĠĠĠĠĠĠĠĠĠĠĠĠĠĠ": 7109,
      "pyxb.binding.": 7110,
      "Bod": 7111,
      "strip()": 7112,
      "100%": 7113,
      "metaĠ": 7114,
      "0),Ġ": 7115,
      "]*": 7116,
      "\"ASĠIS\"ĠBASIS": 7117,
      "languageĠgoverningĠpermission": 7118,
      "class='": 7119,
      "æĪ": 7120,
      "Target": 7121,
      "864": 7122,
      "LINE": 7123,
      "0Ġ0Ġ": 7124,
      "filenameĠ=Ġ": 7125,
      "tm": 7126,
      "556": 7127,
      "ency": 7128,
      "text,Ġ": 7129,
      "icon-": 7130,
      "data(": 7131,
      "bile": 7132,
      "smo": 7133,
      "te_": 7134,
      "doc.": 7135,
      "2020": 7136,
      "maj": 7137,
      "expand": 7138,
      "16;": 7139,
      "keyĠ=Ġ": 7140,
      "unknown": 7141,
      "containsĠ": 7142,
      "Director": 7143,
      "fast": 7144,
      "(intĠ": 7145,
      "behavi": 7146,
      "group_": 7147,
      "inedĠ": 7148,
      "eitherĠexpressĠorĠimpli": 7149,
      "tit": 7150,
[...]
