#version: 0.2
Ġ Ġ
ĠĠ ĠĠ
ĠĠ Ġ
Ċ ĠĠĠĠ
e r
o n
i n
r e
a t
ĠĠĠĠ ĠĠĠĠ
o r
s t
s e
Ġ =
e n
Ċ ĠĠĠ
ĊĠĠĠĠ ĠĠĠ
Ġ t
l e
a l
a r
i on
d e
a n
c t
i t
Ġ c
) ;
e t
r o
ĠĠĠĠ ĠĠĠ
Ġ {
a m
i c
Ġ p
ĊĠĠĠĠ ĠĠĠĠĠĠĠĠ
Ġ f
i s
e s
i m
u r
h e
u t
ĊĠĠĠĠ ĠĠĠĠĠĠĠ
Ġ "
a s
Ġ re
ĉ ĉ
in g
en t
Ġ n
Ġ }
( )
Ġ *
at e
Ġ '
- -
u n
i d
i f
l o
e x
Ġ (
u e
g et
Ġ s
or t
c e
e d
a d
l f
se lf
o m
a g
Ġ m
u l
Ġ in
a p
p ort
am e
t r
i l
e l
ur n
p e
Ġ o
Ġ b
Ġ d
Ġt he
t urn
Ġ v
a c
Ċ Ġ
o l
s er
' ,
i g
p t
i st
o t
im port
o de
/ /
u b
ĊĠĠĠĠĠĠĠĠĠĠĠĠ ĠĠĠ
a b
" ,
u m
* *
h is
Ċ ĊĠĠĠ
ct ion
Ċ ĉ
Ġ if
at ion
Ċ ĉĉ
r i
ĊĠĠĠĠ Ġ
e w
c h
Ġre turn
l ic
Ġ w
Ġ self
e m
se t
at a
Ġ S
an d
( "
Ġ a
a y
Ġ de
ag e
= =
Ġ st
I n
y pe
as s
ex t
on t
-- --
Ġ +
e st
Ġ l
( '
in t
e ct
i le
u p
ĊĠĠĠĠĠĠĠĠĠĠĠĠ ĠĠĠĠĠĠĠĠ
# #
q u
o d
v er
pt ion
) :
Ġ T
re s
Ġt his
ub lic
Ġt o
Ġ @
ul t
tr ing
Ġf or
p l
l ass
( );
ro m
h t
i z
t h
Ġ C
v e
t er
es s
al ue
Ġ #
ab le
t o
) )
Ġ A
d er
c k
Ġ <
p er
c on
R e
_ _
n ame
ac k
m ent
Ġ [
Ċ ĊĠĠĠĠĠĠĠ
Ġ is
j ect
at h
p ut
ar am
' )
ĊĠĠĠĠ ĠĠĠĠ
un ction
Ġc on
u s
Ġn ew
ĊĠĠĠĠĠĠĠĠĠĠĠĠ ĠĠĠĠĠĠĠ
en d
k e
c o
p ro
ul l
E x
" )
Ġo f
Ġde f
Ġ -
Ġ L
" :
a in
o w
al l
on e
or m
an g
er s
Ġ or
Ġ //
a se
S t
" "
Ġp ublic
i r
p o
Ġ e
ad d
Ċ Ċ
Ġ g
Ġ r
it h
Ġ as
a v
] ,
im e
ser t
n t
Ġ h
a ct
st r
l i
Ġ ex
Ġt r
ar g
ar t
Ġ P
Ġ j
o o
q ue
Ġ N
Ġc om
c om
ap p
p on
b ject
' :
o ut
Ġre s
it y
Ġ :
r or
N ame
Ġ get
Ġ= =
Ġ and
Ġt h
i re
) ,
iz e
I d
d ata
lo g
ode l
---- ----
Ġ /
S tring
Ġ* /
f ig
č Ċ
** **
in e
Ġ el
o ur
ĊĠĠĠĠĠĠĠĠ Ġ
Ġ D
al se
## ##
o p
o c
Ġ M
Ġ u
ĠĠĠĠĠĠĠĠ ĠĠĠĠĠĠĠĠ
Ġ F
) .
P ro
Ġ O
ig ht
i v
Ġp ro
ic e
ro w
== ==
t e
s c
ke y
in d
que st
L ist
Ġ I
[ '
an ce
de f
a x
at ch
ce ption
i al
un t
p aram
p le
O N
s ion
t his
i el
Ġn ot
a re
Ġf unction
iel d
in al
f orm
Ġn ull
ĠS tring
Ġ i
C on
" );
f f
= "
Ġ _
o s
re ate
v ent
de x
a ce
. _
T ype
f o
. .
E R
ri v
i ew
o id
i b
r ay
Ġ se
t ype
' ]
v al
or d
Ġ B
Ċĉĉ ĉĉ
u re
Ġv ar
Ġ R
Ġel se
Ex ception
f rom
riv ate
or y
s h
Ġst at
Ċĉĉ ĉ
a ult
() .
T r
en se
c lass
an s
ĊĠĠĠĠĠĠĠĠĠĠĠĠĠĠĠĠĠĠĠĠ ĠĠĠ
Ġd ata
Ġ import
Ġv oid
I N
Ġb e
p r
Ġ" ""
c ess
Ġf rom
ess age
a il
re turn
f ile
Ġ} ,
p s
C ont
v ice
Ġin t
p ath
Ġ set
en g
u le
u il
our ce
at or
Ġ on
it ion
en er
i es
Ġ .
qu al
un d
um ent
pon se
Ċ ĊĠ
Ġc lass
Ġ it
R es
a st
Ġ y
Ġw ith
d ate
T o
av a
Ġor g
c ont
r it
Ġ !
c ode
Ġv alue
et h
b er
le ment
lo ad
l l
i p
m o
arg s
g er
i ve
s on
p ublic
D ata
D e
Ġn ame
Ġstat ic
t y
Ġf inal
Ġ )
ut il
Ġ un
eng th
Ġc ont
v ar
Ġt est
ang e
E S
t est
č ĊĠĠĠĠĠĠĠ
č ĊĠĠĠ
c l
E n
v alue
Ġp rivate
o g
le ct
qu ire
ar d
T I
Ġ= >
an t
Ċ ĠĠ
er y
ac he
li ent
Ġas sert
E N
or k
Ġ x
t em
ig n
he ck
S er
c ol
ab el
C om
Ġ U
ic ense
C h
p re
u st
er ror
= '
Ġf ile
Ġ an
A r
ro up
ĠN one
b o
f t
le t
< /
E r
st ance
s s
Ġ W
eth od
Ġst r
l ist
u g
Ġ G
lo w
Ġcon st
Ġc h
Ġ $
Er ror
V alue
ht t
o re
lo c
ur re
ut h
Ġw h
S e
Ġ &
res s
Ġ} );
m l
a w
] )
i o
Ġ/ **
Ġtr ue
() );
n ew
Ġt ype
o b
in k
ur l
as k
u ser
f unction
O R
A R
Ġj ava
ĠL icense
an n
le an
lo ck
i x
g r
ut e
' );
l y
Ġp r
T est
Ġ >
re ad
pe ct
) );
Ġf alse
k en
#### ####
i ct
Ġs h
um ber
urre nt
Ġ im
**** ****
Ġ |
e c
ption s
y n
p ar
e y
Ġres ult
V iew
č Ċĉ
u ct
app end
m odel
I D
il l
==== ====
on g
ĊĠĠĠĠĠĠĠĠĠĠĠĠĠĠĠĠĠĠĠĠ ĠĠĠĠĠĠĠĠ
Ġb y
s ize
p y
() ,
A T
C ol
l ength
Ġ id
as sert
ri de
-------- --------
o st
Ġ H
O bject
ar get
od ule
sc ri
K ey
ar y
] .
Ġu se
ĠĠĠĠ Ġ
ation s
S T
i se
i de
ad er
Ġ In
" ;
ĠT he
pon ent
a ve
oo lean
u se
Ġ at
} ,
as h
O ver
l ay
r y
en ce
L E
pe c
per ty
b ack
Tr ue
p ack
o ck
= {
re f
Ġ& &
po s
tr ib
ate d
Ġo ut
a k
F ield
y le
Ġ %
() )
: //
M ap
u d
am ple
il ter
n d
[ "
st at
Ġc ol
E qual
F ile
Ġ he
uil der
S E
e b
Ġ! =
S et
ing s
Ġl ist
c reate
s p
Ġ key
B y
Ġ E
R E
' ;
Ġth row
T ext
Ġv al
Ġ `
r ame
( {
t on
re d
w ork
m in
Ġu ser
Ġre quire
Ġ al
Over ride
in dex
t ext
co unt
Ġ log
n e
con st
ow n
Ġpr int
A N
up date
Ġ __
ĊĠĠĠĠĠĠĠĠĠĠĠĠ Ġ
e p
ut ton
u es
A L
ap i
Re quest
m a
Ġth at
in it
I T
Ċ ĊĠĠĠĠĠĠĠĠĠĠĠ
St ate
it le
um n
id th
con fig
T ime
/ **
s o
ac h
ar ray
o unt
ĊĠĠĠĠĠĠĠĠĠĠĠĠĠĠĠĠĠĠĠĠ ĠĠĠĠĠĠĠĠĠĠĠĠĠĠĠĠ
Ġ V
ar ch
an ag
I tem
Ġdef ault
re am
A d
Ġ k
qu ery
Ġ en
ĊĠĠĠĠĠĠĠĠĠĠĠĠĠĠĠĠĠĠĠĠ ĠĠĠĠĠĠĠ
C lass
Con fig
Ġn p
r ap
d iv
" ]
Ġ J
htt p
m and
if i
Ġm odel
a ction
it em
Ġ< /
S c
f or
N ode
o u
t ime
y st
am es
m ap
w ord
m s
] ;
ce pt
l er
u ff
rit e
I m
oc ument
E lement
if ic
g e
Ser vice
Ġp aram
Ġ ()
pr int
form at
p es
yst em
ĠT r
b e
il d
pl ay
a it
o f
Ġre quest
ex port
Ġ add
i a
A t
Ar ray
ers ion
o ul
Ġs c
l ine
č ĊĠĠĠĠĠĠĠĠĠĠĠ
co re
g le
U T
c es
op y
E vent
oul d
Ġ ro
yn c
f er
lo at
st ate
se s
Ġ| |
n ode
od y
A p
d ir
le ction
str ing
( (
s ub
[ ]
ã ģ
U ser
re e
de d
Q u
ap e
in put
} ;
u c
Ġ= ==
A S
w w
uil d
E D
// //
it e
M essage
anag er
P ath
o und
res ult
Ġc reate
Ġs er
Ġ ?
t il
are nt
ag es
in fo
o int
g ist
er e
if y
st art
Ġ+ =
ar k
Cont ext
Ġp ath
Ġ Re
Ġd o
Ġtr y
TI ON
e e
D E
pack age
p h
o in
val id
ro ll
m ax
Ġs up
In fo
Ġp ar
"" "
a le
P aram
ind ow
Ġo bject
m on
Ġb oolean
Ġ} ;
Ġo b
A M
I C
y s
e at
er m
po int
Ġex pect
j son
ur ation
v iew
ht ml
Ġcon fig
mo ve
oo k
R O
N one
Ġa re
.. /
all back
Ġin put
or s
U til
o bject
U n
Ġ ext
Ġt ime
A C
j s
d is
ir st
c ord
N ot
ic k
arg ument
d ict
d b
and ler
en s
lic k
U R
Ġun der
et a
e ight
lo t
C ode
St at
B uilder
Ġn ode
r c
m at
( [
n um
l ink
l abel
n ot
m e
" >
L og
Ġo s
In dex
+ +
a uth
c ur
Ġ );
le te
Ġn um
Ġ all
ire ct
Ġ error
lo b
ter n
v el
O f
n er
b y
F orm
lo se
') .
ĠTr ue
Ġ le
er r
r ight
im it
ri b
Ġd ist
Ġ- >
M odel
Ġc ase
De f
ĠL ist
Ġ{ }
T h
c lient
Ġres ponse
Res ponse
__ (
p en
re quest
at es
e vent
D ate
) {
t ot
ain er
r aw
end s
Ġp l
he d
Ġs ub
oo gle
ä ¸
or g
scri ption
Ġm ethod
Ċ Ċĉ
Ġd is
def ault
w are
() :
Ġ} )
n et
Ġl en
ial iz
Ġ app
Ċĉĉĉĉ ĉĉ
e qual
a ke
F alse
pl it
Ġit em
act ory
tr y
G roup
tr ans
ate g
pl ate
re n
M anager
č Ċĉĉ
uff er
et er
ro id
Ġst art
Ġt ext
w rite
Ġs pec
Ġthrow s
I S
re ak
} );
U p
ar n
Ġ( !
ap ache
O r
trib ute
f ield
ann el
er t
pl ace
/ *
ic s
b ase
V al
a ise
Ġp re
ic es
ĠĠĠĠ ĠĠ
ut ion
Ġ ac
.. .
id er
so le
IN G
t ings
m odule
and le
f rame
w ait
ĠC on
stat us
Ġm essage
Ġ let
Res ult
te ger
and om
or der
u al
Ġm ax
con d
c urrent
et urn
Ġc heck
m essage
int er
] [
Ġe vent
ne ction
B e
par se
us h
******** ********
ĠA r
c heck
S h
Qu ery
g roup
. /
es c
######## ########
E T
Ġ[ ]
") .
ol der
y pes
Ġin dex
is sion
et ers
Ġout put
S ize
Ġf ield
j oin
f ind
Pro perty
A s
A n
i e
Ġst ate
pl i
o ol
ĠF alse
ĠP ro
Ġ args
Ċĉĉĉĉ ĉ
loc al
d f
A c
o ver
om e
ĠO bject
čĊ č
m b
Ġc urrent
In put
ass word
htt ps
ment s
en c
') ,
Ġ \
======== ========
Ġc an
pt y
str uct
Ġ ent
Ġ z
w ith
Ġin stance
se d
l d
h er
per t
im age
t t
q l
tr ue
en sion
ub le
Ġ em
L ay
u de
li b
in ed
lic ation
f ace
ect ed
g oogle
n ull
f l
assert Equal
ust om
l en
Ġ url
param s
List ener
Ad d
le d
ann ot
Ġs o
ĊĠĠĠĠĠĠĠĠĠĠĠĠĠĠĠĠĠĠĠĠĠĠĠĠĠĠĠĠ ĠĠĠ
cont ent
Ġp os
pert ies
co pe
Ġc l
lay er
ver sion
rit er
d uct
Ġsup er
bo x
out put
m p
A G
Ġw ill
B utton
en u
L e
P ar
Ġex cept
s um
Ġ K
Ġ[ '
cont ext
Ġm ay
Ġn o
' ],
N ull
pro to
a f
C lient
ol d
Ġt arget
EN T
p rivate
C O
Ġ end
' '
Ġr ange
A P
res ponse
i able
In stance
Ġex p
St ream
d at
at ive
} )
o k
Ċ ĊĠĠĠĠĠ
util s
ption al
ver t
t arget
In t
Ġcont ext
ri pt
at tr
ut ed
s g
Ġh as
he ma
in stance
Ġtr ans
L O
un c
it s
ĠA p
Ġy ou
Ġ lo
Ġdist rib
Tr ans
O n
Ġw e
Ġo ptions
Ġa wait
u f
Ġc opy
S ON
se nt
ï ¼
ĠT his
ug in
Cont ent
nt ity
el l
l ang
O ut
W ith
A ct
se lect
en v
f ilter
m ethod
b ug
Ġin it
r un
Ġ update
ob j
ut o
uc cess
r l
th er
Stat us
pl y
o x
Ap p
it or
w eb
T able
Ġc atch
I L
ĠO R
U L
w args
ser v
A ction
Col or
lob al
s w
ro und
A D
Se lect
A B
Ġl ine
L oc
m it
C ount
Ġn umber
re g
Ġclass Name
n p
") ,
m d
Ġ{ @
ft ware
---------------- ----------------
. __
ag s
t itle
s plit
Ġel if
c re
n o
t able
Ġl abel
F or
S I
a int
S ub
Ġstr ing
to ken
P os
Ġb reak
Ġext ends
ad ata
D I
F actory
sh ape
o ptions
it er
D esc
m et
to p
C H
Ġa ct
able d
ro l
Ġd ocument
O T
ĊĠĠĠĠĠĠĠĠĠĠĠĠ ĠĠĠĠĠ
rap h
ĠA N
Ġe lement
Ġ ]
u res
Ġ Y
b r
a z
Ġr aise
H andler
re move
c ent
Ġ ab
am p
ib le
iv ity
ut es
ĠU n
tr ain
ã Ĥ
c s
u i
t es
st yle
Ġr un
ic h
pro cess
" ))
t he
G et
gist er
Ġsh ould
Ġ* *
il en
Ġt em
E ntity
$ {
A ll
n ext
ĊĠĠĠĠ ĊĠĠĠ
b ar
P l
Ġin ter
or ch
Com ponent
fer ence
H e
Ġc ode
Ġ ag
ĠC om
com p
Ġval id
un it
an k
L o
lic ense
Ġand roid
Ġp y
id get
h as
n ect
> >
ĠS t
m ain
Ġb ase
v ider
com mon
erm ission
č ĊĠĠĠĠĠĠĠĠĠĠĠĠĠĠĠ
ifi ed
Util s
To ken
Ġm in
ot e
Ġcon sole
d a
Ġdistrib uted
ser ver
ult i
tot ype
col or
ain s
b ody
t ected
In ter
Ġ( '
fo re
res sion
ifi er
Ġrequire d
Ġn e
A l
Lay out
w idth
all y
res h
ic al
u age
T ypes
ww w
Ar g
O D
F rom
loc ation
Ġs ource
B ase
r ag
r id
Ġd at
c lose
Im age
roll er
i ent
po st
ff set
p ace
ific ation
Ġwh en
Ġ array
Ġa ction
s up
č ĊĠĠĠĠ
Ġ query
ail s
Ġob j
a de
ab ase
" .
ilen ame
e lement
a ir
Ġval ues
C T
P O
B lock
c le
Ġ row
Ġim age
' ))
ad ers
b lock
w h
n ing
c all
b l
Ġs ize
s ing
pr ing
E m
Ġc lient
av ax
export s
U S
N umber
Ġ up
U N
M ethod
P E
Ġ ],
b uild
U rl
in es
Ġ X
n g
ct x
id d
//// ////
F I
o v
å ı
or age
M P
eat ure
ens or
ex p
st ant
se arch
ĠO F
g ing
cl ude
im g
Ġ Ð
ĠAr ray
m y
AM E
v is
u id
def ined
H E
ro p
Ġj son
ri x
ĠD e
Ġo ther
tr act
E d
op en
' s
P age
f inal
Ġ load
re quire
Ġst yle
com ponent
L abel
l p
sh ow
T Y
ic on
M L
pro ps
ĊĠĠĠĠ ĠĠ
s ource
Ġparam s
ĠI f
P oint
p arent
per ation
Ġ Exception
s rc
val ues
n umber
at er
H O
Ġ Ex
o ve
Ġn et
Ġ ad
tt p
D is
d oc
frame work
Def ault
equal s
Ċ ĊĠĠĠĠĠĠĠĠĠĠĠĠĠĠĠ
Ġg ener
Ġa x
Ġcont ent
d own
ç ļ
Ġ http
çļ Ħ
H T
g ener
Ġ/ >
pos it
d d
n der
to String
r a
se nd
n s
ĠR eturn
o ot
p ush
orm al
f alse
Ġc all
čĊ čĊĠĠĠ
ĠI N
pro totype
Ġc o
", "
f loat
re en
Ġo pen
w e
ateg ory
im ple
ent ity
al c
ol ic
ang o
model s
d o
Ġl ong
C ase
p age
Ġre ad
auth or
c od
ĠR es
ĠS et
v ide
Ġuse d
ust er
Ġf loat
Ġm ap
il ity
m ark
Ġ one
Ġj avax
iz ed
R AN
f low
AT E
Col umn
A uth
Ð ¾
V ar
å Ī
Ġcol or
y mb
ex ample
Ġt itle
\ "
R I
Ġv ersion
j ango
re q
ial og
č Ċĉĉĉ
Ġto ken
p atch
k wargs
Ġ ed
ot al
e ar
' .
ect or
th on
p x
ex ec
[ :
b in
st ore
Ġm odule
ed ia
ang uage
ial ize
++ )
h ost
ĊĠĠĠĠĠĠĠĠĠĠĠĠ ĠĠĠĠ
le g
Ġn ext
S tr
it ies
iz ation
m od
p art
Ð µ
Ġ{ '
L ine
Ġf l
ĠĠĠĠĠĠĠĠ ĠĠĠ
om ain
app ing
En d
C E
ĠC ON
F ilter
Ġh ave
S ource
G ener
ro ot
Equal s
an el
at tern
er n
pro perty
D et
it ch
unt ime
s cope
f ix
as ses
Ð °
re place
C ON
j ava
at t
g round
ser vice
c or
Ġp art
ymb ol
In teger
Ġan y
pro ject
Ġas ync
O Exception
Ġ us
ol ve
Ġt able
an y
em ber
Ġ! ==
b uf
iv en
s pring
form ation
irect ory
O ptions
Ġwh ile
Ġf irst
C reate
l ast
Ġse lect
Ġwh ich
l n
p lot
m atch
ig h
St yle
V ersion
Ġpro cess
ap h
ition s
P r
Res ource
\ \
Ġg roup
A nd
ms g
re act
( _
s ave
Ġexpect ed
F A
l t
Ġm atch
Ġv iew
ist s
t x
Ġcol umn
t d
' t
Ġl imit
p c
Ġd b
Ġ( (
UR L
ES S
p end
str act
T O
o pt
com mand
de lete
Ġw ork
Ex p
b utton
C heck
en der
n ames
ap ter
is h
le ft
L I
per ator
am b
Ġ --
ock et
Par ser
E X
Ġ ,
ild ren
C lick
posit ory
Ġt orch
ĠS ee
Ġfor mat
H el
c y
gr aph
w ard
N AME
Ġa uth
a use
col umn
At tribute
ĠS ystem
Form at
L ink
Ġ/ *
our ces
Ġstat us
d ist
] );
item s
opy right
Ġim ple
th en
s ign
li p
un k
W idth
Ġw idth
Ġp oint
By Id
t n
St art
t ask
de bug
str aint
Ġc allback
lo ud
Val id
Ġl ast
ĠF ile
P I
Ġp ass
ĠT est
Ser ver
Ġ' /
x y
ã ĥ
iz er
trib utes
Ġb ack
ĠI S
Ġp er
") );
et ch
P re
up le
C l
b ot
'] )
et ime
x ml
c at
* /
Ġ Q
O b
le m
J son
T he
olic y
Ch ange
rap per
Up date
he ight
id x
S ystem
b ind
Ġm e
i k
Ġm et
struct or
T ask
ion s
en e
T em
m t
F F
F rame
R ow
T H
Ġ argument
Ġon ly
Ġre f
ĠAN Y
sp an
Ch ar
row s
r ic
key s
N o
annot ation
B uffer
Ġpar se
Ġo pt
Ġf ind
d im
c lick
ES T
t ag
ĉĉ ĉĉ
Ġp age
Ġ> =
ses sion
re l
ith er
ex pect
if t
Ġmodel s
Ġpro tected
ĠReturn s
Ġc ount
Ġf ilter
Ġre nder
print ln
Com mand
g ress
ï¼ Į
c c
ty pes
set s
spring framework
le ss
re ct
Ġp ermission
Ġ[ "
ĠC opyright
ĠW AR
ĊĠĠĠĠĠĠĠĠĠĠĠĠĠĠĠĠĠĠĠĠĠĠĠĠĠĠĠĠ ĠĠĠĠĠĠĠ
al led
Ġfor m
ĠG et
ul ar
L IC
Ġp arent
B ox
gr am
im est
Ġm od
lo y
ch annel
Ġof f
at ing
M et
t ing
s k
scri pt
ir on
F unction
Ġser ver
] ]
M odule
Ġ ar
de scription
pos ition
Ġcom mand
ĊĠĠĠĠĠĠĠĠ ĊĠĠĠĠĠĠĠ
ile d
Ġ q
Ġm sg
Ġ ap
Ġre g
Ġcom p
i ction
U P
bo ard
: :
le ase
ent ial
Ġc ur
M ode
Config uration
ast er
Ġcom ponent
b atch
file s
ess ion
ĠĠĠĠĠĠĠĠĠĠĠĠĠĠĠĠ ĠĠĠĠĠĠĠĠĠĠĠĠĠĠĠĠ
r ad
or ld
ow er
qu ence
ĠL og
Ġ< =
I s
Ġassert Equals
mo ck
id s
Ġv er
pli ed
are d
Ġd ict
s ample
ĠT h
Ġd ate
Ġor der
f irst
Ċĉ Ċ
Ġg iven
Ġr ight
Ġt f
{ }
st ream
if f
s pec
Ġlog ger
t ain
Pro vider
em b
f ter
U M
S up
ay load
Ġm ust
Ġpar ser
t om
r andom
å Ĳ
Ġl ay
ĠWAR RAN
ĠC ol
r on
Ġex ec
el se
IN D
Ġfile s
C o
æ ľ
" ],
tern al
ĠI m
ith ub
En try
ĠY ou
ess ages
Ġde scription
M A
Re f
c ase
um e
Out put
> <
Ð ¸
ĠU ser
tr a
> </
OR T
Ġhe ight
eat ures
o le
Com p
Ġc or
d u
> ();
Ġtr ain
ab s
st ri
ic le
čĊ čĊ
s v
M od
Ġso ftware
Ġspec ific
H ash
TION S
ail able
ang ed
K E
add ress
] :
Ñ Ĥ
ch ar
UL T
Cont ainer
: "
v o
ay s
ut or
u ch
St ack
Ġw indow
Ġm ock
M E
Ġ ...
W indow
', '
ĠA n
Ġo ver
æ ķ
Ġb lock
T ag
Ġ ),
u x
proto buf
ĠC h
Ġe ither
co py
Ap i
act ive
Ġi o
s l
S to
Ġm ain
Ġw rit
Ġ local
Ġt ask
ä »
Ġres ource
H eight
Ġs p
Act ivity
Add ress
. """
i an
ol low
c ache
ch ange
n ow
è ¯
Ac cess
ac es
Ġhe lp
Ġch ar
Em pty
amb da
ĠD ata
license s
Ġ Ċ
j unit
v ed
ren der
TI ES
ĠW IT
E L
Ġro ot
Q L
w eight
ot her
= [
Or der
../ ../
Ġ" \
le vel
imest amp
Ġm ake
Ġl anguage
ref er
Ġf ound
(' .
stat ic
Ġh andle
() ).
M enu
P art
t ed
de t
)) ,
ializ er
to ol
Ġs ys
)) )
P er
m ode
` ,
que ue
Ġin st
V ER
un ter
R eturn
an e
set tings
er o
Ġ ass
)) .
ĠD ate
R un
ĠAp ache
ĠM ap
im al
EN SE
sh ould
Ġe ach
a iled
gist ry
at rix
(' #
act or
Ġa v
Con nection
Ġ" /
ĠS er
ri ver
Ġ{ "
} >
() {
Ġis instance
t s
Ġs w
V is
Param s
Ġse s
d ocument
Ġ( "
w indow
h andle
Ġ arg
O L
c ss
H ttp
Con stant
d s
m er
N ames
w o
Ġ' ./
(' /
arn ing
g ithub
s or
h ash
Ġ' ''
Ġsh ow
T R
ĊĠĠĠĠĠĠĠĠĠĠĠĠĠĠĠĠĠĠĠĠ Ġ
Pro cess
par ser
rom ise
ack age
ĠJ SON
ĠO ptional
Ġun defined
add ing
um er
C ache
Ġdo uble
pre sent
Ġses sion
ist ory
em ail
o use
Ġpro ject
ĠM ath
i que
ent ic
Ġto p
in ue
J SON
å ħ
ang le
Ġw as
sp ace
Ġpos ition
**************** ****************
ĠWARRAN TIES
tem plate
em ent
Ġb uild
Ġser vice
Ġpro perty
Arg ument
ĠV ersion
de vice
He ader
Ċ ĊĊĠĠĠ
in ition
C L
Ċ Ċĉĉ
per s
Ch ild
ap t
Ġl ength
S ession
Pos ition
port ed
in s
p assword
Ġ" ,
port s
L icense
Ex ec
Ġresult s
Ġ$ {
Ġexp ress
alc ul
O P
Ġob tain
Ġd f
Cont roller
re gister
Log ger
m ask
Param eter
ig inal
r ange
ent er
a a
cur ity
p loy
Ġ qu
Ġm y
ont h
ĠA s
E ach
rag ment
D B
Ð ½
HO UT
Col lection
ĠArray List
Ġag re
Ġn ames
ĠC reate
Ġt otal
dis play
################ ################
Re cord
n own
Le vel
tot al
b ook
u ck
ç Ķ
T arget
Pro perties
f unc
ĠS e
Ġb ody
idd en
Ġre l
i as
c p
he ader
st ack
A b
co ver
enc y
Ġb atch
ire ction
ĠIn teger
at ure
ig r
g in
po p
V AL
con nect
Q U
I con
F l
P RO
Re g
Ġr andom
ĠWIT HOUT
B ack
. *
Ġin d
component s
f ilename
pro p
ol ution
æķ °
Ġre q
le x
Ġp ost
T itle
a o
gr id
ref ix
T op
ff ect
æ ĸ
Pro to
Ġpermission s
o ffset
c f
R ule
L ength
lo ss
č ĊĠĠĠĠĠ
s ort
r ics
Ġby te
res ource
= (
B ody
l ong
g en
Ġde lete
g n
T ER
ut f
č ĊĠ
f r
Sto re
ĊĠĠĠĠĠĠĠĠ ĠĠ
` `
in ner
con f
ĠT HE
X X
I M
Ġ å
Ġen v
Ġg lobal
Ġ ctx
P anel
Ġs rc
n n
Ġp ort
A TION
f ull
In it
scri be
S pec
pl ugin
ã Ģ
an ch
ph a
As sert
p i
C all
Ġus ing
p ing
ĠC ont
read y
B ar
ad min
at form
g o
sc ale
he l
================ ================
C allback
Ġdo es
Ġb ut
en ces
ĠK IND
ers on
Lo ad
M atch
lic e
KE Y
Ñ Ģ
ign ore
Ġm ore
im es
pt h
v as
č ĊĠĠĠĠĠĠĠĠĠĠĠĠĠĠĠĠĠĠĠ
D o
FA ULT
Ġse arch
Ġdis play
d raw
TY PE
tx t
M ax
D ir
log ger
Ġ[ ],
Ġinstance of
Hel per
s m
Ġlog ging
ig ger
Ġh ash
und le
Ġm ode
ent ifier
e ed
ry pt
point s
T P
M ock
pli ance
Ġtem p
O M
g s
Ġapp lic
p ed
ing le
Ġb ot
io us
ub l
Ġre t
Ġin fo
ĠRe act
put e
Ġ En
f n
Ġs k
b it
ut ure
Ġim plied
": "
R out
g ame
A g
st ep
em ory
L ong
el ine
Ġre move
Desc ri
Q ue
po ch
Ġ Value
im um
data set
Se arch
ple te
} /
act er
N ew
T E
, "
Re ader
Ġg over
Ġs ort
Ġpl t
p ng
Ġex ception
AG E
W eb
LIC ENSE
arg in
Ġc ache
Ġent ry
p ol
A Y
Ð¾ Ð
Loc ation
po se
Ġpro vide
Ġal low
ra ft
ĠĠĠĠĠĠĠĠ ĠĠĠĠ
e ps
row ser
Th at
l ate
ĠLicense d
ant s
Ġoff set
Ġin to
Ġne ed
Ġt ag
Ġwrit ing
å ®
Ġp red
Ġit er
Un it
c an
im er
) ]
de v
ĠDe f
g l
Ġparam eters
Ġs ign
Ġl ink
hed ule
è ¿
Desc ript
Re ad
S ER
(" #
f s
c i
im ary
N et
T ree
Ġst ore
Ex t
Ġle ft
R em
. $
Ġf ont
ver se
Ġ api
~ ~
Ġim g
Ġ https
OD O
red ential
S p
ĠI D
n ap
App lication
Tem plate
c loud
Ñ ģ
M in
ĠT ype
w n
ĠG ener
o ftware
čĊ čĊĠĠĠĠĠĠĠ
in ce
result s
D ocument
ĠĠĠĠĠĠĠĠ Ġ
sh ot
cont ains
Ġcont inue
D ialog
Ġ æ
Ġapplic able
trans form
Ġcom pliance
AC K
Ġre cord
AP I
Be an
iron ment
Ġhe ader
Ġo p
Ġargument s
ul um
Ġvar iable
val u
C ard
in sert
N um
Sc hema
o ption
ĠB AS
Ġv is
m ary
ä º
(" /
get Name
ex ception
Ad apter
cont ainer
Ġ Error
c ard
Ġde t
Im pl
AB LE
O ffset
Ġl aw
Ġs ave
M O
IT Y
ol ume
ĠCON DI
field s
Ġfield s
To ol
ĠA dd
low er
ĊĠĠĠĠĠĠĠĠĠĠĠĠĠĠĠĠĠĠĠĠĠĠĠĠĠĠĠĠĠĠĠĠĠĠĠĠ ĠĠĠ
Ġgover ning
ĠBAS IS
g ment
S S
as ic
l ight
ĠCONDI TIONS
W riter
N on
Ġse cond
ud io
Ġw rite
Ġnum py
s ql
Ġp assword
Ġbe fore
ur i
Val ues
Ġin formation
Ġex ist
se cond
M apping
Ġlimit ations
m ed
cent er
t f
( $
by te
F T
tem p
Ġf ollow
ĊĠĠĠĠĠĠĠĠĠĠĠĠĠĠĠĠĠĠĠĠ ĠĠĠĠĠ
pro duct
ire d
al le
he ad
[: ,
expect ed
å Ĭ
( `
a ded
Ġtem plate
in ation
ition al
is ion
ulum i
W idget
Ġcon nection
Ġparam eter
Ġagre ed
ac count
user name
a uto
object s
action s
j ob
s ide
Re pository
f oo
Ġs um
in ary
exec ute
U E
o perator
Ġp h
E C
Ġimple ments
s uccess
ĠS h
pre d
G ET
ĠT o
ance l
} .
Ġs ample
ri ct
Time out
al s
Ġspec ified
re cord
'] .
C ell
Select or
ent ry
Cont rol
w idget
( -
cs v
Ob j
Ġ[ ];
Ac count
č Ċĉĉĉĉ
Ġde st
r t
ĠUn less
as ync
Ġh ost
ib r
i ver
( __
ent s
Ġset tings
Ġse nd
get Element
Ċĉĉ Ċĉ
Ġs uccess
c allback
i od
Ser v
Set tings
Ġy our
e ch
eng ine
c ast
am er
Ġde vice
U ID
ĠA PI
Ġf in
St orage
D own
cod er
am ount
play er
load er
ord s
Ġ err
å ¤
//////// ////////
net work
ĠI OException
Ġa fter
g b
D at
assertEqual s
ut able
Ġwh ere
ord in
ut er
b oolean
Re ference
app lication
Ġat tribute
M M
i us
Ġpre v
EN D
ĠC lass
N O
[ -
By te
ch ild
st op
è ®
Re quire
ma ke
B oolean
Ġ' .
æ Ī
as on
c ustom
we en
o om
ĠS c
an ces
a i
se e
he et
R ange
d k
ç »
ix el
im ation
s ol
lay out
Ġc ustom
th rows
Ġch ange
me an
y m
I G
Ed it
ĠD E
Ċĉ ĠĠĠ
} `
ĊĠĠĠĠĠĠĠĠĠĠĠĠĠĠĠĠĠĠĠĠĠĠĠĠĠĠĠĠĠĠĠĠĠĠĠĠ ĠĠĠĠĠĠĠĠĠĠĠĠĠĠĠĠ
f ont
Ġth en
ax is
P layer
M sg
V E
Ġ{ };
in st
Ġb uilder
W ork
s core
Ġch annel
Descri ption
Ġ$ (
pe ed
con sole
r ule
cle ar
assert True
c r
< ?
d jango
lt a
ĊĠĠĠĠĠĠĠĠĠĠĠĠ ĠĠ
label s
d omain
() ))
Ġd im
' ):
Pro ps
ide o
Ġ> >>
pre fix
per ations
le ar
uck et
e g
Ġcont ain
l imit
ang es
Ġj ob
sc hema
ĠL O
ializ ed
ER R
z er
o ff
ce ll
cl asses
ug h
ern el
O peration
Ġg raph
å Ń
s ystem
Ġo ld
P h
Item s
P ost
x f
I ter
param eters
Lo ader
r am
Ġ Z
is sing
ed it
log in
Ġcon d
leg al
st d
Ġs ame
ar r
Ġd one
AT A
m an
Ġat tr
de st
Ġcreate d
met adata
im ages
ä ½
cre t
a j
et ry
ĠW h
Not Null
ĠT ODO
C urrent
Ġ` `
Ġinter face
iv ed
Z E
Ġem ail
R ender
ator s
P L
m enu
Ġf rame
Ġm ulti
Ġd oc
Ġitem s
ap ply
z e
Ġ" .
sw ing
Pro ject
' }
Descript or
J ob
O pen
g lobal
is hed
w ay
and ard
i ke
R L
I OException
bo se
_ .
m ine
r u
P arent
i er
Ġpro duct
Var iable
for Each
res olve
Ġent ity
Ġw eb
By tes
Le ft
l ing
ĠS oftware
Loc al
Ġ" "
ĠĠĠĠĠĠĠĠ ĠĠĠĠĠĠĠ
R ES
Ġac count
Ġ location
O ption
m eta
ir t
g gle
oc us
Ġst ream
Ġb l
Ġm ark
ab ility
Ġle vel
' },
i res
En abled
W AR
( ()
G raph
Ġch ild
idd le
Ġ ĊĠĠĠĠĠĠĠ
'] ['
S ign
et ween
ex ists
O ne
Ċĉĉĉĉĉĉ ĉ
ip eline
Ġb utton
module s
Ġb ool
node s
inter n
se n
ĠN ot
In valid
è ¡
Ch annel
ension s
select ed
(" \
um p
Ġf ilename
Ġdata set
Exp ression
F ound
Th read
Field s
v m
li de
Ġhe aders
G rid
Ġwith out
< >();
Ġh ref
im pl
x b
oc i
b s
o od
con v
P ort
amer a
al end
ign ment
bo und
Ġdat etime
c imal
av ig
Ġdat abase
n ormal
Ġem pty
Ġax is
Ġadd ress
Ġr ule
i um
Ġac cess
ĠDef ault
] ))
Ġp d
) }
g t
Ġun it
em pty
Ġtrans form
Ġ' <
yn am
N ext
M eta
Re gistry
cl s
m ission
Met adata
F OR
g ed
+ "
Pro duct
ex pr
al y
Ġp layer
çĶ ¨
Ġn on
l at
type of
web pack
ro le
Ġn n
se ction
nap shot
ĠC heck
æ Ĺ
Constant s
SI ON
Pl ugin
sup er
e v
r ate
c md
con nection
ST R
ri or
s ys
Ġ' #
Ġ Key
ĠH ash
or ies
t ree
ac ity
C C
resh old
d ay
l ines
ĠAp p
oo p
b uffer
Ċ ĊĠĠĠĠĠĠĠĠĠĠĠĠĠĠĠĠĠĠĠ
ack et
ĠAs sert
* -
Ġassert That
ig in
Ġst ep
ĠĠĠĠĠĠĠĠ ĠĠ
t mp
i os
r s
f in
ĠF or
P ool
Ġth read
p k
Ġth ere
c d
Ġd jango
ac cess
Ġcon vert
(' ./
P AT
g es
Ġpro perties
d om
p g
av ed
M S
Ġpro ps
Ġcol lection
ib ility
lay ers
Det ails
ĠB ase
e am
cod ing
iction ary
Ġcont ainer
b ed
Ġit s
Ġ" <
l legal
Ġsh ape
is s
en code
urre n
re t
R ole
Ġ loc
() ));
C ustom
-- -
Ġd own
P ER
P olicy
ch ildren
time out
Ġreturn s
alend ar
Ġst rict
u ction
Ġ' \
P assword
f eatures
Map per
Ġw eight
æ ĺ
h older
ĠT ext
Ġsw itch
Select ed
ERR OR
od ing
__ __
Ġcon f
Ġd type
Ġf ull
R ed
eth er
f it
b uilder
Ġg r
return s
pro file
pre v
as ure
redential s
Ġ- *-
R el
: `
intern al
p Types
T his
ĠH ttp
c raft
Ġm er
gr ad
arg e
En um
W rapper
D O
f ill
Ġselect ed
ar m
AL L
is Empty
Ch anged
Ġ ĊĠĠĠĠ
Ġ license
ateg y
Ġ' '
â Ķ
af e
ve lo
cont rol
le ep
Trans action
pro perties
Ġd irectory
Ġb r
Ġfollow ing
] ),
W h
I P
require d
Ġf ail
ĠN OT
U B
Ġb uffer
ri es
he aders
ir m
Ġh ere
Ġc lose
ĠA ll
A SE
D S
entic ation
f eature
c ip
Ġinit ial
b reak
c ategory
ĊĠĠĠĠĠĠĠĠĠĠĠĠĠĠĠĠĠĠĠĠ ĠĠĠĠ
PO ST
set Text
re m
.* ;
Ġ ;
w s
vis ion
am ed
Def inition
ĠValue Error
Ġre ference
stri p
h andler
x c
Ġsc ale
m ar
o ice
f older
w ise
not ation
Ġex ample
Param eters
O S
b tn
" +
k nown
B U
I f
SI ZE
do uble
Ġprovide d
Ġe v
â Ģ
å Ľ
l s
Ġ View
it ude
P AR
M ENT
S w
Ġ ì
R oot
(" .
t ab
Ġin clude
var iable
) ):
mat rix
l in
ĊĊ Ċ
es h
Tr ace
ol ver
ĠS ub
ot o
Ġcl s
valid ate
Ġbe en
Ġo ption
ac y
get Id
ver y
Ġp lot
L ast
f ul
Ġ" '
Ġk wargs
ĉĉ ĉ
am il
o us
Ġth an
ĠP aram
p ress
est ed
Ġkey s
on ly
ĠCon fig
r untime
De lete
ce d
Ġ ignore
d rop
un try
ĠH T
g reg
riter ia
Inter face
Ġm at
m ember
Input Stream
Ġre ce
g or
Ġimple ment
F ragment
Ġby tes
. ,
Ġ ĊĠĠĠ
getElement ById
ĠP y
use d
" ])
l ambda
j e
Ġp adding
M ark
get String
col lection
Ġ$ ('#
Ġ html
Ġgener ate
Ġav ailable
ĠN O
S C
re qu
HT ML
in clude
Que ue
Ġre present
t en
ch ron
w d
B l
Ġm ask
EX T
Ġ" ",
aise s
ĠU RL
Array List
F loat
H ER
TI C
s ite
Ġt mp
ad o
D el
Ġs b
j o
Ġs ystem
Ġlay er
S ymbol
Ġconfig uration
d one
n one
W E
x d
re st
get Value
al ys
ver ter
ix ed
c rypt
R ight
: '
po ol
and roid
+ '
, '
Ġe qual
Ġro le
Ġ icon
Ġc ell
Ġh andler
] ['
m anager
Ġen umer
al og
Ġ' ',
irt ual
f ail
ĠIm age
D ER
alys is
( @
Ð »
E l
r and
U RE
user s
++ ;
Ġt y
re set
T ab
Ġt ree
Ġf eature
D oc
Ġmet adata
Ġnet work
Ġauth or
om etry
M ath
if fer
{ '
ee k
x e
dat etime
LO G
.. ..
Ġst op
Ġn ormal
par ator
Ġlo ss
gor ith
by tes
{ "
t ensor
w ner
se q
A ss
De vice
Ġc v
â ĸ
D ict
row able
Con straint
ON E
(' \
ro ute
Arg s
Ġal ready
im ul
arn ings
ãĢ Ĥ
R est
at io
c b
yn chron
ynam ic
vo ke
Ġn ow
Ġj ust
ann er
ater ial
ĠLO G
tr ack
con n
Ġor iginal
DE FAULT
cl uster
C lose
Id s
ĠO r
B ound
Auth or
mo unt
c atch
ĠN ode
y ear
emb ed
pre c
Key s
A A
Serv let
å º
ex it
bo ol
ar io
-------------------------------- --------------------------------
) [
> (
ro ss
ĠB uilder
Re port
Pro file
Ġo ptional
D raw
def ine
ans w
ick er
SE T
x a
d ing
IN T
ĠD o
Ġre gister
ĠA b
d irect
Ġ{ },
Ġ' ../
Ġg ame
Ġpl ace
Ġcon structor
AS S
m ulti
O p
S uccess
CO L
c id
C K
Ġp ayload
Ġuser name
Do uble
ath er
p ass
En v
D ist
DI R
h idden
H ost
Ġact ual
Ġd raw
im ent
Ġsc hema
index Of
Dis play
æ ł
it o
to Be
RO M
( !
Ġo peration
at s
S ync
. ",
ay ment
Ġf r
Ġse e
a ff
de sc
n on
Ġat t
pro b
em o
al k
Ġ( {
ĠIn t
word s
Ġpl ugin
} </
l ap
A re
ĠL ong
Ġb ox
c hed
Sc ript
um b
ĠP ath
refer ence
th row
ĠU p
Ġb ound
sum er
oo se
é Ģ
os s
Ġact ive
alcul ate
emb ers
al ance
Ġt ypes
event s
al t
Ġobject s
Lay er
ĠAN D
il er
PAT H
U I
X ml
end ing
B ind
e le
Ġlabel s
File s
Ġp refix
Ġd ir
State ment
Ġpro b
IL ITY
Ġc alled
m ath
tool s
Ġs ome
column s
w orld
Ġg rid
ĠRes ponse
p are
/ >
O K
æ į
are a
a h
ic ro
u uid
ic ate
Ġc re
: ]
Ġnode s
Ġid x
F O
S H
å ¼
F irst
ĠPro pTypes
bo ot
error s
p u
Ġm argin
if act
dir name
Ġst ack
t ags
i ant
ĊĠĠĠĠĠĠĠĠĠĠĠĠ ĠĠĠĠĠĠ
app ed
P RE
ĠS O
Act ive
q a
x x
Ġpy thon
n ess
Ġs ql
M e
ĠW e
Ġc md
sup port
\ /
py thon
ke ep
U D
style s
str uction
. ")
ä ¿
Ġs ingle
de code
am l
Ġw ord
urren cy
Ġ: :
Ġreturn ed
ro y
Ġa uto
doc s
ĠL oc
( *
Ġset up
enc ies
Ġ' @
Ġg o
stat s
re port
F ont
P ackage
' +
sh ort
. "
C re
Ġsc ript
Ġrequest s
t orch
Ġcor rect
Ġpro to
Ġ' -
Ġ" ";
Em ail
Ġver ify
c ar
zer os
co res
C ategory
Ġt uple
Ġtime out
Ġr aw
ro uter
å į
Ġc lear
Ġelement s
sc reen
k it
Ġ' ,
Ġcon n
AN T
ĠI llegal
Ġm atrix
G ame
O UT
Con d
create Element
Date Time
it es
i ag
iter al
G ER
p a
R ect
ro ugh
n orm
se curity
ĊĠĠĠĠĠĠĠĠĠĠĠĠĠĠĠĠĠĠĠĠĠĠĠĠĠĠĠĠĠĠĠĠĠĠĠĠ ĠĠĠĠĠĠĠ
serv ices
Ġmethod s
I O
P ORT
Ġt wo
ĠTr ans
hed ul
ext end
com ment
f actory
con cat
iv es
D ATA
UR I
ĠF OR
ple ment
m edia
LE CT
On ly
t a
S QL
Tr ack
ce l
com m
A v
Proto col
p attern
o ad
US ER
f etch
Ġerror s
St ep
ent ion
Ġvalid ate
l int
pr ice
e val
e poch
dat abase
start s
In d
e f
y y
st orage
h ide
Ġm eta
s ocket
Ġres olve
" }
d ot
ĠB y
'' '
act iv
Ġb etween
F eature
Ġcon nect
'] [
input s
v oc
Ġback ground
IN E
s lice
H older
M ain
Sc roll
Ġpoint s
gorith m
Ġ es
serv ed
as sed
Ġs plit
Ġar r
={ {
view s
Net work
so ft
> {
get S
b ers
ub e
Ġf unc
" ):
Ġy ield
Ġstr uct
al low
v ue
ĊĠĠĠĠĠĠĠĠĠĠĠĠĠĠĠĠĠĠĠĠĠĠĠĠĠĠĠĠ Ġ
ĠA uth
Trans form
c a
c v
and id
Sh ow
ĠA t
im izer
Ġ Ċĉ
mine craft
` .
Ġf etch
en ded
log ging
Test Case
or iz
) (
ĠA l
Ġtr ack
ĠE vent
ibr ary
Dat abase
> \
Ġt x
Ġin cl
ĠB lock
ol y
Ġd iv
ä¸ Ģ
)) );
channel s
m m
B ot
Ġf s
Ġcl uster
con vert
ubl ish
/ {
s u
Pro gress
i ate
at ic
ĠIn put
A uto
create d
ĠN umber
Ġ utils
Ġ ).
as c
C an
M ulti
e q
Be fore
ir cle
get Instance
e er
sc roll
ass ign
] +
Ġse nt
Ċ Ċĉĉĉ
WAR E
Ġp erson
åı ĸ
Gener ator
AN D
P ermission
b eta
ĠM odel
Par se
l a
ĠP RO
con trib
c ap
t ip
Ġp op
ser ialize
å ľ
ro t
## #
Result s
get Message
h ome
log y
T otal
( /
ist ence
Event Listener
R ad
. ");
lip se
Ġ queue
f c
Ġ" #
Ġp attern
ĠE X
k a
Ġb order
Ġw ait
ĠB oolean
Se lection
M edia
i or
Ġ Request
mat er
Ġp ackage
Con f
Ġapp lication
un defined
A ut
d iff
ple x
igr ations
Ġ} ),
ĠR E
o se
Ġl ines
let ed
V ert
j ust
f g
A X
As ync
ac c
Ġevent s
vide o
Ġp ulumi
M atrix
Cl uster
gener ated
č ĊĠĠĠĠĠĠĠĠĠĠĠĠĠĠĠĠĠĠĠĠĠĠĠ
P R
Hash Map
TI ME
Ġ$ ("#
Ġ --------
H andle
G r
p m
e ach
param eter
C RE
Ġ_ .
gener ate
res pon
s ure
al let
æ ī
FI LE
ĠP ar
s ible
Pr ice
o ard
V ector
anag ement
ĠT ime
ĠP AR
iffer ent
C ur
ĠCol lection
com mit
D ATE
ĠAr gs
et s
Ġde bug
un ch
AB ILITY
it ive
a ut
g y
Ġver bose
at tribute
uc er
(' --
ver age
C ore
k er
reg ion
Ġb it
set up
i i
Ġ' "
pro tected
op s
Ġch ildren
Ġcopy right
; </
test s
ac ing
d r
**** **
Ġs cope
ĊĠĠĠĠĠĠĠĠĠĠĠĠĠĠĠĠĠĠĠĠ ĠĠ
Ġenumer ate
B uild
cf g
Ad min
Require d
Iter ator
MA X
à ¤
ï¼ ļ
aw s
S D
ploy ment
VAL UE
Ġcont ains
Ã ©
Ġde pend
co unter
P attern
z ip
Ġ" ./
group s
S um
Ġ" -
b a
= \"
cont roller
p ag
Se quence
mo v
Mod al
Ġext ension
Ġed it
X ML
ud ent
z z
ç ½
AC T
": [
iddle ware
ĠA c
Null able
Ġ$ .
Ġl ambda
de lta
In ternal
å ¯
ĠI tem
CON T
Ġpro gram
Ġmer ge
th read
Ñ ĥ
s q
t ick
ag ent
amil y
Ġl ike
annot ations
å ĩ
Ġun ique
Ġat tributes
te am
é ĩ
ach ine
æĺ ¯
e ad
ind ices
D F
Ġupdate d
å Į
Ġcolumn s
mater ial
Ġf ill
Ġto ol
B undle
G L
h av
S ocket
n a
Ġ art
ĠHash Map
Id entifier
ro ke
IT E
w ays
ist ic
Ġv ert
Ġon Click
Ġre place
č ĊĠĠĠĠĠĠĠĠĠ
p ayload
f a
d river
al pha
Ed itor
pl atform
p ad
Ġ' _
ĠĠĠĠĠĠĠĠ ĠĠĠĠĠ
Not Found
j sp
Are a
F ore
Ġc lick
At tributes
âĶ Ģ
i po
ĠLog ger
our s
" ].
m essages
ä¸ ª
F ull
Ġde l
per iment
d type
Log in
gn ore
ĠL I
Ð º
b b
pli er
| .
Ġprev ious
sk ip
Re ce
B O
ure d
W OR
d t
am pl
z one
FT WARE
re al
ĠI t
) /
pro t
! !
res ources
sv g
S k
G HT
() ),
Ġsh ort
answ er
Ġal so
Ġ è
Ġcont rol
ir d
Ġf ailed
D irectory
c ause
back ground
W S
on es
m utable
lo or
Reg ion
= -
z h
Ġt ags
g a
') );
quest ion
ad ow
col lect
W N
Ġs m
Ab stract
Ġ' %
Ġopt s
rib ution
Ġre port
ĠW eb
proto col
Ġin sert
tr ace
im ate
Argument Exception
Ġt ensor
à ¸
Ġ" +
Node s
d ates
Ġass oci
G e
Ġres p
g ine
U LE
Ġtype of
s leep
argument s
čĊ čĊĉ
ializ ation
ĠF ROM
Ġfin ally
Ġt er
Rout e
in ess
h igh
Ġm enu
Ġr ad
E CT
( ['
B atch
" },
Ġ( _
M IN
AN CE
P ane
Ġab stract
M OD
m ail
se ed
Event s
' \
ĠN ame
ordin ates
cl ar
om ent
Ġz ip
Ġ\ "
value Of
B P
s ymbol
æĹ ¶
Ġf ig
Ġd on
ert ific
aw t
Ar t
Ġm an
ĠJ son
Ġdet ails
Ġde sc
ch ain
æį ®
cl are
Ġd irect
UT H
ache d
ä¸ º
ed ge
Ġ} ).
Ġg e
valid ation
Ġc ategory
Ġgener ated
Ġc enter
AR T
ĠSO FTWARE
ĠR untime
L ock
Stack Trace
Ġadd itional
S P
ĠAb stract
tr ie
Det ail
t imestamp
ĠP romise
tr im
d um
Ġde v
> ,
w t
sh ip
s i
G E
ĊĠĠĠĠĠĠĠĠĠĠĠĠĠĠĠĠĠĠĠĠĠĠĠĠĠĠĠĠ ĠĠĠĠĠ
he ll
P UT
gist r
pl ates
Ġe lem
ĠO n
() [
p air
s ig
Ġa ut
Ġx ml
ĠCom ponent
Ġinput s
us r
qu are
at tributes
L A
Vis ible
script or
ate way
ĊĠĠĠĠĠĠĠĠĠĠĠĠĠĠĠĠĠĠĠĠ ĠĠĠĠĠĠ
sample s
Non Null
Ġ amount
} }
Ġb uf
Ġright s
py test
Ext ension
Ġno qa
De cimal
j pg
f ire
Ġw ant
f aces
) ",
arg v
č ĊĠĠĠĠĠĠĠĠ
Ġs core
P refix
Ġreg ion
je ction
Inter val
A x
ç Ľ
ple t
Ġg en
__ ,
Sc ale
ĠD is
pl an
ist ics
o ptional
an c
Ġcl asses
h r
Ġsup port
Exec ution
Ex pect
uff ix
Ġ' __
S cope
Ġc oding
Ġex ists
ter m
Ġlo ok
ver s
ĠS QL
check ed
In st
oriz ont
> .
hedul er
/ ',
set State
ar i
u ce
ĠM essage
Ġthe m
Ġ' --
ä» ¶
AP P
com pute
al th
g re
Ġrow s
avig ation
string ify
Ġad ded
Sc reen
P air
N OT
od o
ro s
Ġs l
C I
Ġab ove
é Ĺ
w rap
~~ ~~
} ")
B r
se c
Ġap ply
u ded
ĠA d
'] :
E ffect
bot tom
Ġuser s
Ġ ĊĠĠĠĠĠĠĠĠĠĠĠ
F ail
ä¸ į
T ensor
Ġo wn
UL L
å ½
Ġf n
Ġc y
ĠN o
Ġexec ute
V ENT
int e
e ff
Ġcom mon
i ps
d ash
n av
str ap
Ġ" __
S imple
ĊĊ ĠĠ
U ri
h istory
ĠTh rowable
he me
if est
ir c
Ċ ĊĠĠĠĠĠĠĠĠĠ
C P
Ġ" _
Ġl a
p lic
co s
Ġ ):
Ġbase d
dis able
el y
) ',
Ġre ject
V IC
Ġ et
T AG
ed itor
rior ity
vent ory
fl ag
igh b
} "
sol ute
MO DE
ic ode
ast ic
Ġhe l
View ById
res sed
> '
C S
weight s
čĊ ĠĠ
Ġdis patch
L ower
get Class
= ['
Ġhe ad
Ġ ..
A fter
R ate
F older
Ġst d
c lean
ern al
Ġtest s
å °
orizont al
opt s
h and
Ser ializer
Gener ated
Ġb ind
d c
m aster
M ember
d irectory
Ġsort ed
Ġf older
p olicy
I gnore
in f
up lic
t ure
ĠP l
> "
F ailed
Ġ[ {
G R
č Ċĉĉĉĉĉ
L imit
O wn
it ter
Pro xy
C A
ĠR ed
up load
Ġfl ag
comp ile
get Logger
Output Stream
l ab
Point er
Ġm essages
alle l
Ġf eatures
d m
l ers
C TION
æ Ŀ
Not ification
ĠF orm
æ ŀ
Ġs ocket
Con nect
ĠL ink
Ġtrain ing
Ġlay out
num py
B it
ĠIn ter
At tr
pt s
Ġem bed
ro om
path s
Ġassert True
var s
OR S
Ġbe cause
Ġre set
v id
lo op
us iness
G lobal
Ġwh ether
ĠR em
Ġt ab
ot ion
r gb
F low
T EST
Ċĉ Ġ
] ],
Ġre ader
AC E
Str uct
Ġi p
sub string
af ter
stat es
sup ported
Ġd omain
Ċĉĉĉĉĉĉ ĉĉ
Ġ} }
SE LECT
Ġs ymbol
M y
s n
w in
ĠV al
Ġk ernel
cur s
R andom
Ġ est
Ġpy test
Ġin ternal
C ap
ant ity
Ġper form
ĠP r
mo use
init ial
_ (
h ip
ĠM ock
Ġp assed
Ġd ifferent
Ġ utf
sh ift
Ġim ages
h y
Ġin valid
ĠParam eters
i ation
__ )
Ġin v
u k
Ġ util
Ġcontain ing
met rics
Ġsk ip
Ġsub ject
ĠF unction
F in
F L
ro ad
ĠT H
r ift
âĶĢ âĶĢ
G EN
Ġvariable s
V er
s im
mer ge
D ay
Ġal ign
Se cond
æľ ī
Ġb ar
I R
LE D
ĠA S
print StackTrace
. ')
Ġm ath
ĠV ar
Ġpro p
Ġlist ener
ook s
TH ER
m onth
be gin
on s
Ġc lean
sum mary
query Selector
com plete
Ġdef ined
Ġc ard
D D
Object s
è¡ ¨
ĠC lient
ud a
Ġw riter
cre ment
w arn
Ġ' ../../
At t
Back ground
gener ator
W rite
mod al
Ġexist ing
ateg ories
Ġlog in
u y
Ġex ports
ak es
Comp at
p b
config uration
ple ted
Ġ" )
"] ["
D ao
Ġst orage
Ġpro file
ĊĠĠĠĠĠĠĠĠĠĠĠĠĠĠĠĠĠĠĠĠĠĠĠĠĠĠĠĠ ĠĠĠĠ
Ġbe gin
add r
Ġd ictionary
S ort
he m
ĠHT TP
Ġm ove
own er
Ð ²
n b
Sup port
Ġp ut
Ġcond itions
Char Field
ĠAn y
G B
I MP
ces sed
al ar
': '
second s
Ñ ı
tr igger
S O
Ġlo op
Ġme an
H istory
com e
sub mit
N UM
de pend
Ð ¼
Ġcom ment
Ġed ge
E W
ĠDE FAULT
D es
Ġch unk
â ķ
g est
en able
ertific ate
d x
igr ation
__ _
et ri
ec lipse
t w
al ert
det ails
ĠO THER
---- ---
de pth
Ġnot ice
ur ing
Im plement
ç½ ®
Int ent
names pace
ool s
Ġexp ression
ase s
b order
y nt
æ Ķ
Ġex tract
tr ies
pro vider
p ulumi
du ction
). __
in v
æĸ ĩ
met ric
de c
F unc
Ġcur sor
ur face
P ag
Ġse quence
L S
ic ator
Stat s
Ġc annot
to ggle
Se curity
her it
w rapper
ain ing
ifi ers
i ed
æ İ
wh ere
ĠU se
HT TP
Ġre m
Ġl at
st eps
on y
O ff
S U
iter ator
Ġab out
cur sor
RE D
é Ļ
ĠF ield
ĠCon straint
Ġp air
Ġen code
ĠM y
': {'
Ġm ov
(" %
Ġro t
cover ed
<? >
ĠS T
ä¸ Ń
Ġ-- >
t uple
Test s
Ġal pha
inter val
D omain
, -
l ation
ĠS imple
e k
se ns
en ch
Ġy ear
ĠJ ava
) *
M AT
ang ular
at om
get P
Ġre al
p or
b ad
j i
dis abled
Ġpar sed
ĠRes ource
f uture
# !
ch unk
Ġb inary
get C
wh en
O ptional
Ġv ideo
Ġde scribe
Y ear
ĊĊ ĊĊ
an ization
__ .
" {
ĠQ t
ook ie
En gine
load s
Sc hedule
ific ations
g u
Se ction
be fore
to Equal
it al
Ġc b
Ġ ct
Ġs pace
d ig
M an
Ġ" %
Ġty ping
Ġse ction
l r
Ag ent
Ġd iff
ì Ŀ
ĠR un
He aders
Ġse ed
t ile
( ?
od er
pe at
RI GHT
de ep
per mission
Ġth rough
common s
å Ĩ
Ġre served
Ġc ap
ru pt
f e
Data set
Ġassoci ated
(' ../
Con structor
L L
r ank
ĠO pen
V ID
A mount
ow ired
in valid
sh all
Ġ` ${
az y
ot h
po ut
P S
Ġen coding
se quence
Element s
r al
Load ing
Ġre st
"> </
Ġo ur
inter face
Ġs ure
valu ate
Ġm ember
w arning
Ġb tn
Ġd ay
g it
uil t
Ġvalid ation
Ġac cept
å Ģ
for ce
re ce
Ġnames pace
Ċ ĊĊĠĠĠĠĠĠĠ
Aut owired
Click Listener
Valid ator
Ġthe y
R untime
d ialog
é ¡
ĠF ound
pl t
Ġ" --
ç §
ic ip
Ġp lay
pr imary
Ġ keep
Ġ- =
ĠSer vice
æ ³
add Class
$ (
ix in
ĠE d
P C
bl ue
te ction
P y
Ġmulti ple
b g
Ġh igh
Ġfunction s
u ally
ens ity
æķ° æį®
d uration
Ġm igrations
Ċĉĉĉĉĉĉ ĉĉĉĉ
D A
čĊĉ čĊ
_ ,
Ġsup ported
serv let
Ġact iv
ĠString Builder
Ġex tra
id ual
ynt ax
Ġv m
iz es
Ġass ign
act ivity
if orm
Ġs aved
ac cept
Ġpro gress
ad s
Ġt ri
en abled
Ġdist ance
Com ment
ak er
: \
cor rect
ĠPy thon
An notation
ĠT O
mo ved
f x
u it
Ġcon v
FI G
ĊĠĠ ĊĠ
ĠUp date
V ideo
åŃ Ĺ
D R
h s
the me
Ġb est
ĠA ct
te gr
gr ade
J ava
en ers
: %
p anel
li ke
Ġf ree
D TO
N S
can vas
av ailable
Ġs imple
f actor
U s
az z
M ove
or iginal
v ector
ch at
Ġtrans action
ĠĠĠĠĠĠĠĠ ĠĠĠĠĠĠ
con current
Q t
ex ist
pr ite
Cond ition
element s
er ies
pers istence
Ġw rapper
refer ences
o ices
ĠIn c
Exec utor
trans late
at ar
ĠIn it
r f
resh ape
sw itch
h ref
Ġallow ed
Valid ation
M onth
Com mon
he lp
un ique
ä ¼
Ġpos sible
Ċĉ ĠĠĠĠĠĠĠ
Ġrun ning
Ġw orld
lo aded
ler t
User s
il ities
c al
Ġpr imary
/ '
v olume
Ġ" );
Ġmod ify
s ync
Ġex port
ĊĠĠĠĠĠĠĠĠĠĠĠĠ ĊĠĠĠĠĠĠĠĠĠĠĠ
h a
pre dict
append Child
ur al
t ml
Ġcon trib
Ġp erm
} \
e lem
Ġad min
gistr ation
D im
ĠO ut
Ġal ert
Ñ ĭ
čĊ čĊč
P op
ç ±
D iv
M on
Col lect
ĠPro ject
End point
ĠIllegal ArgumentException
O B
T imestamp
and as
cont act
Ch ildren
Ġs im
Ġh and
ĠI ter
å® ļ
Ġp ool
ul ation
load ing
dist ance
hel per
ĠP re
sing le
h o
ch art
command s
c m
let on
ĠL e
Ġ' ';
filter s
P lay
ex tract
ĠRes ult
U UID
p df
VER SION
Ch art
Ġcom pute
S Y
D uration
U se
B ook
Ġdis able
add EventListener
XX XX
Ġsc reen
Ġp eg
Ġ ë
B inary
s imple
M essages
c ity
Ġex it
Ġt imestamp
Ġv ector
per son
Con verter
(' -
lang uage
Lower Case
v oid
F R
Or g
Ġp k
ĠC re
Ġinst ead
B ER
Ed ge
. ',
M ouse
EN TI
t imes
UN T
Ġb rowser
Un known
Ġe very
EL D
ill is
full y
be ans
W eight
rel ation
ro pout
] ).
F uture
s pect
w riter
ong o
re lease
! --
apt ure
att en
m ac
Ġh ow
bl ank
ĠM ethod
det ail
#! /
v c
Ġj oin
se cret
Ġaction s
ag ger
i pe
pro xy
Rout er
è ½
cur r
Ġthe me
Ġchar acter
Re gister
Constraint s
S pace
andid ate
Ġcor respon
s dk
Ġd irection
å ¸
ES C
ick le
z ero
Ġattr s
der r
P erson
d l
İ ·
cp u
c alled
b rowser
as sets
****** /
output s
ath s
v a
Char acter
ç± »
s ince
FI X
P red
_ ;
RE QU
b ucket
sc ene
am ma
ap er
static method
read er
at is
f d
MOD ULE
P T
ĠVal id
ĠB utton
plugin s
rom e
ĠT able
Ġ-------- --
env iron
Ġw r
Array s
ac ion
Rem ove
local host
N ormal
ĠP ublic
Ġpr ice
ĊĠĠĠĠĠĠĠĠĠĠĠĠĠĠĠĠĠĠĠĠĠĠĠĠĠĠĠĠĠĠĠĠĠĠĠĠ ĠĠĠĠĠĠĠĠĠĠĠ
token s
lo ok
Ġe poch
ci pe
ee ded
serv able
] *
loc ity
Env ironment
cl one
Ġo wner
act ers
cond ition
s b
æ ģ
get Text
A V
c ut
J ECT
ĠTh read
trans action
' >
Ġg l
æ Ģ
BU G
at ter
m emory
åĲ į
Process or
leg ate
Ġwith in
ãģ ®
Ġde lta
S ave
dis patch
Pl ace
ixel s
el astic
ializ able
Ġen um
re pository
Render er
aw ait
Ġvis it
Ġcon s
j ack
Ġd om
am az
Ġ+ +
ol ved
E M
: {
__ ':
C or
Ġs ide
Ġt imes
D b
ex tra
co ok
n an
N av
in voke
al f
(' <
du ce
! =
ro py
CO DE
an is
={ '
Ġd uration
LI ST
Ġf ix
\ ":
pro gress
è¡ Į
Ġag ain
` ;
Res ources
ad oop
Action s
Str ategy
Ġfor ward
hav ior
ul p
F r
Ġinit ialize
} '
] ):
u int
co st
sq rt
Ex pr
B ig
ĠA R
IN ST
f loor
æĪ Ĳ
Ġ Query
Ġrem ote
Pro gram
ĠB ig
to LowerCase
è ´
$ .
Ġt erm
ĊĠĠĠĠĠĠĠĠĠĠĠĠĠĠĠĠĠĠĠĠĠĠĠĠĠĠĠĠ ĠĠ
con structor
par k
ĠB uffer
le v
c li
Con tract
D est
vis ible
Ð ´
Ċĉ ĠĠĠĠ
< >(
Ġc ore
ve c
Sh ape
Y Y
Ġl ib
b re
Ġg rad
p p
requ ency
//////////////// ////////////////
******************************** ********************************
Ġs a
f ast
Sh ort
c uda
ĠCol umn
An imation
Ġcan vas
Ġthe ir
Ġs ite
amaz on
ĠType Error
D rop
wh ile
k ernel
m i
ĠN ote
cur acy
Ġm onth
fl ags
STR ING
url s
ver ify
Ġf actory
prec ated
âĸ Ī
a im
red uce
O F
rem ote
init ialize
Data Frame
rule s
Ġother wise
Ġstat s
OR Y
æģ ¯
ĠCol or
le arn
Ġ uri
VAL ID
ĠC o
W e
ot or
d irection
Ġpre sent
ĠCom mand
Ġed itor
Ax is
Ġen able
Ġs ynchron
RE AD
å ¾
ad ing
en um
Fl ag
ter s
B UT
Cont act
val s
Ġpro vider
U SE
i ence
std out
Ġc fg
Ġh idden
set Attribute
In formation
Ġ< <
comp are
V I
LE TE
down load
oo g
ient s
Ġcom mit
Ġenv ironment
ĠA ction
S l
VIC E
f eed
O perator
ar s
EN G
S top
Ġdocument ation
ĠU til
ale s
T ags
ock er
our se
Ġp ad
ĠSet s
Ġthe se
Met rics
Ex ample
uff le
Ġc op
HER E
ä ¹
[] []
r ary
se lection
riter ion
az ure
wh ite
T ick
ĠC ode
Ġp atch
top ic
T RI
m un
p et
/ "
O perations
D to
train ing
ð Ł
Ġ ----------------------------------------------------------------
Ġend point
ĠD ict
S V
Ċ ĊĠĠĠĠĠĠĠĠĠĠĠĠĠĠĠĠĠĠĠĠĠĠĠ
ph one
Ġn ative
Ġinst all
ol l
-------- ----
ar ies
Ġin teger
Ġro ute
ĠC ustom
m ult
col ors
rom pt
. \
- %
up per
Ġst ride
ç ī
Ġf lex
Ar r
ĊĠĠĠĠĠĠĠĠĠĠĠĠĠĠĠĠĠĠĠĠĠĠĠĠĠĠĠĠĠĠĠĠĠĠĠĠ ĠĠĠĠĠĠĠĠĠĠĠĠĠĠĠĠĠĠĠĠĠĠĠĠĠĠĠĠĠĠĠĠ
Sup press
ign Key
S ingle
Con v
Co unter
Ġbe ing
Ñ Į
åĽ ŀ
D irection
n ative
Ġp ack
ĠH e
p adding
re po
box es
J S
c ancel
imit ive
ĠP oint
Im port
IMP ORT
( \
Ġcont roller
ĠOr der
ref resh
S ample
b est
M ET
in c
st mt
mo b
Equal To
end point
LO W
Text Field
exp ression
le s
Ġ[ [
av or
m k
g on
exception s
Ġ' ')
A li
ĠSer ver
o res
Pl an
A IN
Y ou
å ·
čĊĉĉ čĊĉ
ĠFound ation
T erm
Ġco unter
inner HTML
un its
Ġter ms
Ġimplement ation
get Type
icro soft
T ile
M ov
he x
İ· åıĸ
Ġre trie
icon s
Que st
Ġsecond s
v ol
plet ion
ĠG roup
Own Property
Ðµ Ð½
F n
em on
AR Y
u ite
Ġdoes n
R S
ĠT em
Ġd rop
ri ve
ĠC all
B order
Bot tom
bl ack
è¯ ·
åľ ¨
Point s
ĠSt ate
M D
m bo
d ays
de l
Ġtr igger
W arnings
Ã ¡
CL UD
ĠF l
const ants
fo und
Ġ< !--
Ġs uch
ST AT
Ġ[ -
Ġag ent
clar ation
ä¿ ¡
unt il
s afe
Ġch anged
Ġm issing
Ġbot h
C ancel
Ġm on
at alog
Ġtoken s
t k
Ġ ~
åħ ¥
Ġpath s
Ġd ialog
BP ACK
a e
Ġ' {
W orld
ĠRe g
En ter
ĠGet s
th reshold
/** */
Ġ lock
em it
ud it
ĠLoc al
m apping
a udio
get Key
act ual
Ġ$ ('.
Ġid ent
Ġdef ine
å¯ ¹
Pro p
Ġse lection
d ucer
class Name
qu ires
stri ct
Ġen abled
process ing
({ '
de scribe
al ing
f ake
x s
Ġd river
Bind ing
FI ELD
ĠDo uble
c ision
ne g
pos ite
inst all
In ner
co gn
Com plete
mbo k
I Z
ul ate
S ide
th ing
P romise
ĠBy te
h i
v ices
B ASE
aj ax
G en
S core
v g
/ ******/
Ġ Qu
Ġ" {
Ġc sv
vis it
s in
E st
De bug
Ġs ig
åĪ Ĩ
æ Ń
attr s
h adoop
RE G
col s
Ġre direct
test ing
Ġoutput s
ug gest
Run ner
Ġin cid
M illis
w j
(). __
Ġset ting
pl us
hel pers
Sub mit
al ign
B tn
p ages
} ",
plot lib
Ġw idget
ter min
L INE
s peed
Ġp olicy
ĠSt at
H ome
] (
ordin ate
Ġ' )
Ġr ate
o peration
C alendar
cover y
è §
WE BPACK
Res olver
task s
Ġcom put
b asic
Set ting
y cle
a ug
serv ation
r b
Ġt ile
re c
Ġ am
Ł ¥
D river
Ġm emory
Ġto String
w ik
ĠD at
C riteria
ag ic
L anguage
ĠG rid
re ply
p ipeline
Ġch anges
class method
N ING
ĠL oad
AT ED
Ġcond ition
sh ared
æĪ ·
Ċĉ ĠĠĠĠĠ
ĠD B
Ġse gment
Ġid s
UN D
Se gment
') [
(" <
ĠN et
Ġlo mbok
CON FIG
: ',
Ġt s
f b
f ocus
ext ension
Ġsc roll
code s
CLUD ING
const ant
starts with
____ ____
ut ation
B E
Ġrel ative
d p
) \
Style s
Pr int
Ġo perator
Ġ ##
Ġm apping
Ġmax imum
F E
p ower
im ator
per iod
S ql
r aises
de lay
IN FO
() }
Ġde pth
B ag
ch or
om atic
con straint
h icle
Ġm anager
################################ ################################
IN TER
Ġdown load
T x
Ġs ince
CO MP
Auth entication
T EXT
è ¾
(" ./
Ġarg parse
jsp x
Line ar
M aterial
f p
oot er
fl ush
I ST
H tml
s lot
H as
str ument
Ser ies
Create d
__ ()
tem pt
å ±
ag ing
valu ation
')) ,
ast ype
e ffect
Ġbot tom
ĠÐ ¿
s ome
line ar
us s
ãģ Ħ
ff ff
AN G
out er
| |
CC ESS
cl us
ĠIn dex
A UTH
form ed
s cores
Ġd t
Ġent er
ĠEx ample
ab ilities
pol y
mb ed
Ġj Query
res p
b lob
ser ve
sm all
æ Į
Ġfor ce
rad ius
ĠGener al
Bound s
map s
Ġ ĉ
Ġweight s
f lex
ers ist
M emory
ĠCont ext
ĠP age
or igin
Act iv
Ġ angle
remove Class
ĠT ask
Ġload ing
Ġh istory
Ġre ct
d y
st ock
Ġis s
Ġind ices
ç ¬
Ġ lower
Ġp e
B L
S end
art icle
sub ject
n able
F ocus
_ {
= %
Ġwh at
Ġr s
ĠE lement
N N
Ġf low
Ġact ivity
per ature
ĠInt ent
åŃ ĺ
exp and
The me
m c
ach ment
Group s
Ġexec ution
pre vent
define Property
C R
Ġac c
G ui
V O
T ipo
I I
ud ing
Ġal t
Ġ[ (
T y
c n
D OM
P acket
av g
' "
nd array
] }
Ċĉĉĉ Ċĉĉ
Ġmatch es
Ġo perations
TI VE
road cast
J oin
ĠE ntity
åĢ ¼
wj gl
Ġdistrib ution
åĪ °
aly t
d ic
cy cl
ab c
ĠU SE
S napshot
br anch
ç ¤
F IL
one y
se mb
å ī
C opy
s lf
$ /
ud y
Ġz ero
ST ATE
IMPORT ED
ĠAp i
ex cept
per cent
ĠS H
j et
av el
bin ary
m argin
ĥ ½
ser ies
Ġro uter
Suppress Warnings
ĠI MP
Ġan other
ight s
pi pe
Id entity
ac le
Ġc alculate
Ġb in
th rift
UL AR
H and
Ac cept
Ġper iod
Ġrece ived
] ["
S L
Ġid entifier
variable s
elastic search
m em
l im
X Y
Up load
To uch
log ic
: ",
Ġm ouse
éĹ ´
pe ated
sc hedule
h ot
Ġcont act
ĠCreate d
is on
Ġl ibrary
Con sumer
Ġch ain
Ġgroup s
Ġmet ric
t ol
bound s
= \
se gment
h ing
Ġt eam
j av
il ar
D ig
ĠB e
Class Name
N U
Ġplace holder
Ġpl atform
( ",
select or
Ġf it
ob ile
Ġen sure
de cor
parse Int
Ġse q
({ "
ul a
for ward
Ġne g
ç Ĥ
NotFound Exception
AG ES
Ġtop ic
W ord
ĠD ocument
se g
ue st
ob s
ation al
T uple
v en
Ġent ries
dum ps
Ġre ason
Ġ" @
ĊĠĠĠĠĠĠĠĠ ĊĠĠĠ
ed ges
P ower
ĠB uild
åı ¯
Menu Item
res ize
Column s
then Return
Ġt ick
st ar
Ġc ould
Ġ{} ".
Collection s
Vis ibility
Ġmet rics
v s
f il
ĠL ine
I F
in cip
B us
Ch ain
dest roy
Ġ append
I p
p in
ur ch
Z one
fer ences
ĠEx ec
ĠS tr
Ġde code
De pend
jack son
T imer
m id
ad a
S lot
class List
Ġro und
Ġ( $
Ġu uid
w atch
N ESS
Ġv ol
åĬ ł
ĠS E
ent ities
get User
f ree
ri p
Ġint ent
¦ ģ
Ġd er
b ias
R et
ĠOut put
Ġres ources
== =
Ġon Change
C enter
Format ter
ver bose
Implement ed
================================ ================================
co ur
Ġd ig
B asic
p d
E MP
Ġlo aded
In ject
. '
d ump
(" -
PO SE
res ses
update d
CO MM
om eth
Ġpred iction
CO UNT
Ġser ial
db c
u et
Names pace
ESS AGE
b c
Ġcur r
y aml
LO CK
Pre sent
Ġtr ace
è® ¾
ĠV ector
ot es
Ġare a
um my
Group Layout
ĠWh en
not e
Ġw ords
and s
ometh ing
aw n
Ġo k
Ġunit test
g reen
| ;
ement s
ĠG raph
ĠTo ken
Ġre covered
P ublic
Ġm edia
Ġl ang
Error s
rel u
Ġal ways
ç Ĳ
ĠP O
Ġre verse
is ode
æĸ °
Ġup load
O pt
j a
OL DER
ST ART
p id
ĊĠĠĠĠĠĠĠĠĠĠĠĠĠĠĠĠĠĠĠĠĠĠĠĠĠĠĠĠ ĠĠĠĠĠĠ
Ġb ook
ĠM IT
vo ice
Ġhas attr
p at
L Y
lo ur
k s
d i
R ot
Ġrule s
Ġd uring
Rem ote
Row s
Ġde aths
h ook
k ind
t i
Ġn ested
Ġn eeded
Ġv olume
reg ex
ĠL IM
S m
Ġ_ ,
av ing
get Property
Fore ignKey
Ġparse Int
esc ape
W I
å ¹
is c
R aises
çĤ ¹
Ġc ar
Access or
Ġw ay
ĠLIM IT
Cur sor
Ġincid ents
we et
Stat ic
is her
Ġd s
re pr
um an
R aw
ç¤ º
velo p
) "
voc ation
CL ASS
get Default
Gener al
é ¢
ĠM ain
id entity
Ġc n
Ġincl uded
ad line
REQU EST
Ġw ould
mo st
r pc
Ġcomponent s
ĠX ML
a N
ĠD esc
method s
AC TION
Ġ" ../
od ay
RE CT
s lide
ic o
| (
Ġcom plete
ĠW ork
Ġpro xy
Vert ex
ĠM et
ĠSe arch
Ñģ ÑĤ
Ġfl ags
red irect
al ity
Ġf oo
as List
V olume
ĠAt tribute
Ġf eed
Ġde s
v ance
ĠC l
Ġdis abled
Ġ ];
co untry
Ġload er
æŀ ľ
s r
Sp an
Ð ¿
An gle
Ġre pository
F ixed
Ġ" ")
O wner
__ ":
Ġ engine
Ġe val
look up
Ġnot ification
> ',
get Attribute
M AP
re et
f aster
et ter
ĠĠĠĠĠĠĠĠĠĠĠĠĠĠĠĠ ĠĠĠ
Ġcommand s
match es
ut ors
lib rary
æĸ ¹
d en
( **
ĠCre ates
Ġuser Id
ĠB UT
LO AD
us ic
Al low
Ġpred ict
ion es
Ġinter val
Fail ure
f eat
back end
ĠRuntime Exception
j ax
ateg or
ch oice
al ias
Ġdef inition
çĲ Ĩ
ĠB E
AT OR
b us
åĪ Ĺ
ĠW HERE
er c
not ations
dim s
Im g
ener gy
DE BUG
pe ar
æ ±
åį ķ
assert Raises
čĊ čĊĠĠĠĠĠĠĠĠĠĠĠ
Ġstr ings
Ġcomp are
set ter
ĠO UT
p ay
Ġproto col
Top ic
Expect ed
í ķ
a u
ĠM od
de g
=" /
M IT
r atio
Ġor igin
Ġc alcul
w r
in itions
G u
on d
S A
b ul
ĠCon stant
b n
prevent Default
Ġo cc
l iteral
Ġre moved
I B
M ask
ãģ Ĺ
hash Code
iver s
\ .
Ġget attr
Sw itch
S heet
opt im
Ġlay ers
Ġdest ination
arch ive
Ġp andas
pro gram
h ist
incip al
Ġth reshold
k t
m esh
Ġ ))
UT F
get Time
Ġ ])
N ative
ĊĊ ĊĠ
S peed
function s
CH ANT
umer ic
el li
Ar ch
Ġ low
Ġh y
form s
Ġm d
St andard
fr ames
apt ion
è¿ Ķ
uplic ate
Ġnot e
On ClickListener
LI ED
user Id
he el
Rel ation
t im
cycl er
' {
Re act
WOR D
A lert
config ure
ä¿¡ æģ¯
M T
UR POSE
get Item
Loc ale
C ar
c lip
Text View
unk nown
Ġspec ify
D iff
Ġn orm
åĩ º
rupt ed
ge o
INST ANCE
ĠC O
Ġe ffect
L ight
ä¸ ĭ
t le
ĠM ER
b um
B Y
not ification
assert False
Ġ ^
Ġset Up
IT NESS
] ])
if ies
link s
Ġ} ));
c nt
Ġuse State
L Object
as y
faster xml
v es
F ER
Ġ> >
Ã £
s aved
Ġstate ment
ard ing
ĠA uto
se p
Ġcol ors
block s
IG HT
Ch unk
include s
Per iod
Ġrel ated
Ġb ucket
ĠM edia
ĠO N
th at
č Ċĉĉĉĉĉĉ
c alc
Ġfilter s
P H
Ġs ol
Ġmat plotlib
ĠF I
b le
ĠPAR TIC
Al ign
Ġex c
g ui
D om
ĠS up
N e
Ġde lay
Ġnum bers
Can vas
ad apter
` );
Ġg oogle
Ġsub process
H igh
K EN
D IS
Ġro om
ĠT ree
I LED
M issing
Ġstyle s
ç º
é Ŀ
+ =
Ġgener ator
c ert
str ong
ch anged
Ġin ner
ĠL ay
Av ailable
ĠC OP
Ġview s
ed List
med iate
ENG TH
ĠP URPOSE
b alance
ut down
Ġdepend encies
Sum mary
ate st
D irect
let te
Ex tra
Dist ance
Ġ% (
Ġv e
CHANT ABILITY
Ñ ĩ
Ġset Timeout
Ġselect or
Re al
if e
Ġ answer
ĠN ew
File Name
af ka
Ġc ost
M er
Ġbl ank
T eam
Ex port
im ated
ent ries
Ġp ipeline
c up
cat alog
anag ed
Ġbr anch
ĠPARTIC ULAR
Ġrad ius
ap es
={ "
To String
ä ¾
struct ure
Ex ists
ĠCh ar
F etch
ĊĠĠĠĠĠĠĠĠĠĠĠĠĠĠĠĠĠĠĠĠĠĠĠĠĠĠĠĠĠĠĠĠĠĠĠĠ Ġ
Ġw x
ubl ished
Rad ius
t c
Ġcontent s
Ġm aterial
D rag
r type
Cl asses
Ġchar acters
Http Servlet
c lo
åĲ ¦
ĠI P
å İ
) ])
Ġse ns
! ");
Ġp s
Instance State
B ED
Ġs peed
j up
ĠCOP Y
enc oder
sign ed
ĠIm port
Ġsynchron ized
graph ics
get Data
Ġc r
h ave
Ex ist
Draw able
m ing
Ġev en
fo ot
SU CCESS
- >
W ait
Ġf a
Ġc ause
Block ly
čĊč ĊĠ
"> <
/ %
S o
AM P
t imer
ut ing
Dis patch
Ġle g
Widget s
en ario
ĠO b
over age
č ĊĠĠĠĠĠĠĠĠĠĠĠĠĠĠĠĠĠĠĠĠĠĠĠĠĠĠĠ
Sign ature
Ġdim ension
ĠPro cess
Ġde scriptor
A ST
En able
se ct
Text ure
Byte String
Ġg u
ĠMER CHANTABILITY
Ġa udio
ł ģ
Ġopt im
F eed
id entifier
. </
Ġde clare
ĠS ource
Ch at
Json Property
" \
G RO
} '.
p us
or n
Ġj s
ust ers
ench mark
fr ont
Ġf ire
čĊĠĠĠĠ čĊĠĠĠ
ers hip
FL AG
comp any
ik ari
Ġ' [
sh are
ĠSt art
ç ®
(" --
Content s
è ¦ģ
Ġcall s
ĠRe ad
ĠW H
ä¸ Ĭ
Not e
imul ation
ri end
ĠD AM
M B
ro bot
Ġab solute
st age
inte gr
STAT US
c amera
se ss
M ixin
Ġt ake
Ġch art
Ġhel per
j Query
z en
log s
f req
p an
ex c
oot h
D ESC
: .
w rit
pe g
Ġk ind
s By
Ġinst ances
re verse
late st
in herit
An y
c redentials
i h
Ġde ployment
Trans ition
Ġv ia
Ġ -------
() ]
Ġb oard
po und
ect ors
c urrency
in ject
Ġsample s
ĠF ITNESS
OR E
has OwnProperty
end or
ref s
ĠS pec
de mo
que e
ÑĢ Ð°
LO C
. <
ĠIMP LIED
Ġd st
L en
Ġcon straint
L at
} ".
boot strap
l on
Ġat om
C LI
Ġde leted
g ers
ãĥ ¼
s pe
"] [
sort ed
Ġmodule s
è¿Ķ åĽŀ
DE F
é Ķ
L ook
Ġbound s
qu ential
ãĢ ģ
Con n
G N
sl ug
Ġneed s
âĸĪ âĸĪ
Ġbe low
prev ious
an ded
- .
ĠLIMIT ED
Ġser ies
ur a
Ġm any
) +
t wo
åī į
ash board
uet ooth
ãĤ ĵ
a res
He ad
ubl isher
s quare
list ener
g uild
Ġsp an
asc ript
Ġde c
pred iction
ĠApp lication
alyt ics
Argument s
in ator
is EqualTo
M any
Ġstore d
ar row
A IL
default s
r m
St age
Data Type
R oom
ĠE VENT
C D
Ċ Ċĉĉĉĉ
| )
Ġp acket
Ġh ome
urch ase
c am
as is
TO KEN
Pointer Exception
' re
> ",
Ġopt imizer
ar ange
Ġstat es
Ġover ride
Tr igger
Ġcol lect
ĠIn valid
M ESSAGE
b ig
ampl ing
Ġc ancel
Ġre po
Ġpart s
= _
ie ce
c art
t p
L ENGTH
åĲ İ
( ["
v irtual
Ex ternal
UR CE
Ph one
re gistry
Ġre lease
ĠPro perty
Ġcop ies
Ã §
content s
çĶ¨ æĪ·
ĠR andom
er ic
ĠArray s
Ġsum mary
as set
Ġsc hedule
S plit
E MA
Ġc amera
[] {
part s
ĠS w
Ġ ĊĠĠĠĠĠĠĠĠĠĠĠĠĠĠĠ
i ance
Tem p
Us age
Ob server
Ġtask s
e a
ro ker
Ã£ o
ĊĠĠĠĠ ĉ
P lease
u lo
(" [
ĠSt ream
Ð¾Ð ²
Com bo
.... ....
ĠConfig uration
greg ate
Ġcollection s
Ġp romise
co ords
sc an
VID ED
o ugh
Ġm oment
Ġst andard
draw able
be an
Ġcurrent ly
fix ture
A udio
Ġm ost
Ġh ar
velop ment
ame l
HE AD
st er
Ð ·
Ġf ragment
il li
render er
n io
s ame
Ġsign al
t ty
po sed
Ġl on
se l
m embers
Ġun its
app s
ĠStat us
ĠT uple
Ġf ake
n r
hel lo
æİ ¥
st it
Sc ene
ĠP er
in u
å¼ ı
DE X
ward s
P ayload
ĠM ake
PR ESS
Ġm s
ĠS ec
Ġp ublish
ING S
/ ${
En coder
ĠD O
'] ;
m issing
ge ometry
æ³ ķ
ĠCOPY RIGHT
d rag
in o
ON G
E mbed
Ġl ater
å ŀ
& &
v l
Ġme asure
not ify
main ing
ĠS to
ĠLOG GER
è ·
ĠAr g
C amera
RE E
æł ĩ
Ġa ff
U ST
åĬ ¡
Ġf actor
Sub ject
lic it
am age
id ent
Ġm ult
ĠHT ML
b i
S pring
[ (
ĠG NU
ĠH el
ĠÐ ²
in a
Ġtest ing
¦ Ĥ
og ram
Ġw in
E nt
ip y
ĠNot Implemented
un ct
ĠEx p
Init ial
Th row
Ġrel ation
find ViewById
Ġref resh
on ce
Ġcorrespon ding
Author ization
Ġstyle d
Ġ' +
ĠB l
ot ype
Ġ( -
åı Ĥ
ç łģ
ict ure
jup iter
ong oose
S M
ĠL abel
Id x
Ġsub mit
able s
Gener ic
C loud
Ġc redentials
Ġvar iant
s f
p ic
Ġs yn
ĠD ec
ĠD et
s ym
Ġmark er
ch o
ant ed
æĸĩ ä»¶
} ',
Ġp oly
L ines
ĠUn ion
P references
Ġon ce
PAR AM
Ġ{} '.
Ġn one
ER S
Del ay
Ġre d
sub scribe
an alysis
ĠU I
Met ric
Ġst eps
Path s
ĠM eta
Ġab s
tr l
Ġind ic
j avax
irc uit
ext ernal
ĠF ilter
st ub
}` );
} ')
run ning
As set
V M
Ø §
++ ++
Ġs ync
u pt
Ġsh ared
M iddleware
Up per
Ġcon struct
ĠG ame
c he
HO ST
Ġr ank
fl at
Ġg re
Ġb g
t l
g ulp
ot a
In sert
Ġ question
pre pare
Component s
M ar
cook ie
fl ater
Ġpart ition
O O
Ġup per
de scriptor
RO OT
opt imizer
An alysis
ĊĠĠĠĠĠĠĠĠĠĠĠĠĠĠĠĠĠĠĠĠĠĠĠĠĠĠĠĠĠĠĠĠĠĠĠĠ ĠĠ
g oog
p n
sign al
Ġc ss
åŀ ĭ
Hel lo
Ġper cent
W arning
Ġ licenses
A F
B rowser
ĠP ost
FF FF
V e
Me asure
mp loy
re ject
pro c
ĠA nd
P ass
W T
éĻ ¤
umb n
s yn
j b
', ['
al i
Ġc ity
Ġ{} )
W R
set Value
] /
Request Mapping
exp ress
: -
com ing
t re
Ġal gorithm
P ress
place holder
conf irm
o perations
m u
ç ¼
Ġl in
En coding
quee ze
Ġt w
Ġmod ified
N ON
op le
Ġsign ature
Ġev t
pro x
Ġw rap
Ġco ordinates
Ġd id
ex periment
ë ĭ
ist ribution
Ġme ans
ĠLI ABILITY
ry ption
Ref resh
work er
w eek
Ġes lint
Ġp ush
av es
s un
Ġ Id
ph p
NUM BER
Pl atform
Ġdefault s
AR CH
FA ILED
Bag Constraints
enc oding
custom er
Trans fer
> ()
String Utils
Ġed ges
> )
ãģ Ļ
count s
Trans port
TRI BUT
s napshot
At om
æ µ
B oard
get ter
Entity Manager
Ġ" [
åĽ ¾
Ġu i
ĠG e
Ġstruct ure
Ġre quires
ĠD rop
st derr
par ison
L D
red it
vid ers
Ġincl uding
EC TION
en ant
Ġse cret
ãĤ ĭ
Ġan notation
stri ction
M ore
pl ain
ĠL IC
Ass ign
Ge ometry
NO DE
Ġs napshot
p ub
F ind
Ġp anel
P P
= ["
T C
Pr imary
ä» ¥
Ġrecord s
un der
ampl er
Ġun known
è ĥ½
Ã ³
Ġf uture
conn ected
c ircle
Ġs lot
ĠU N
Ġrepresent ation
ĠNO TI
(' _
po logy
ĠCollection s
---- -
( ',
Ġ(! (
entic ated
project s
W IT
T S
d iag
um ul
rel ative
Custom er
p ow
(" ");
ç «
ĠN ull
leg end
fix ed
č ĊĠĠĠĠĠĠĠĠĠĠĠĠĠ
ç İ
ab stract
ce ed
DE LETE
elli j
l g
B ad
TR ACT
ĠCont ent
B oot
B R
Ġn amed
C art
AS K
aa aa
Re q
if ference
ĠCon nection
Be gin
Al ignment
Ġ until
Ġ Ñģ
requ ires
S UB
icip ant
s a
ĠU RI
C redentials
ac er
ä¸Ģ ä¸ª
Ġtarget s
Ġse g
> /
Se cret
Ġsm all
K ind
Ġperm it
ort h
s id
am ent
Ġo c
ax es
greg ation
æ ĭ
Ġextension Registry
ĊĠĠĠĠĠĠ ĊĠĠĠĠĠ
Ġ que
In f
char At
tem plates
d n
User name
Ġvis ible
Ġus age
Ġ' </
un ded
Ġp ol
P icker
sh op
example s
Ġloc ale
Ġt urn
ĠDesc ri
Ġpy game
av en
Ġfind ViewById
int ellij
Ġo l
pack ages
ĠPro duct
Ġ ###
"] :
f name
Ġind ent
I A
Return s
ly ph
T F
C alled
add All
å §
')) .
* (
Label s
request s
P U
Ġse par
) '
BED S
ĠP art
Ġr untime
app ings
Ġf ace
get Current
m g
S ite
Ġiter ator
unit test
ĠSe lect
C ESS
Ġnull able
Ġin side
Data Source
Ġsh ift
Ġc al
run ner
(' %
P ush
ï ¿
Pro b
m ag
ad os
ĠT ensor
b d
target s
s py
Ġb ad
å »
Ġiss ue
il ation
b f
) ],
E E
æ ı
Ġf ast
Ġconst ant
P oly
Method s
re ason
} ]
h ouse
er ved
get M
== '
th eta
")) .
ĠLIC ENSE
ĠC or
P ayment
or ph
v ince
P TION
T wo
') },
B ucket
b and
B ACK
Ġe qu
il on
s ur
Ġuse s
ats by
Ġb undle
Ġext ernal
ĠCon vert
T imes
> `
or ing
Ġcl one
l and
get Context
ch a
oc ial
inter op
ĊĠĠĠĠĠĠĠĠĠĠĠĠĠĠĠĠĠĠĠĠĠĠĠĠĠĠĠĠĠĠĠĠĠĠĠĠ ĠĠĠĠĠ
======== ====
cept or
dist rib
Ġt imer
Ġ Ċĉĉ
F actor
ĠObject s
Ġcache d
ĠSc hema
Quest ion
ar p
in der
scri ber
R GB
ãĤ Ĵ
Ġfile Name
un iform
Ġ: ,
Ġe ps
z oom
Ġf ixed
current Time
g pu
ĠF loat
\ '
trans ition
record s
ĠM ulti
L U
b abel
Ġan imation
de clare
Ġex clude
m ul
trans port
x ff
ĊĠĠĠĠĠĠĠĠĠĠĠĠĠĠĠĠĠĠĠĠĠĠĠĠĠĠĠĠĠĠĠĠĠĠĠĠ ĠĠĠĠĠĠĠĠĠĠĠĠĠĠĠ
Ġse nder
Ġy et
++ ){
in i
parse d
Ġal ias
Ġcontrib utor
P A
St ub
ĠF ind
to uch
ces ses
Ġex pr
id ence
Ġg ood
anch or
Ġad apter
~~~~ ~~~~
Ġmatch ing
F S
ev t
å ĳ
Art ifact
file path
loc ale
ĠArg ument
Y PE
-------------------------------- ----------------
An sw
P ASS
Ġ' $
T ri
ĠG oogle
Generated Message
me asure
ĠIm mutable
mar shall
Ġown ership
({ },
get Int
cess ary
ializ ers
ĠA lex
cl ared
Rule s
mark er
Fl ags
fig ure
ys ql
ĠL anguage
ol ute
comp at
Ġactiv ation
de p
g i
Per cent
Ġto ggle
ĠP h
Ġc c
Serv ices
B alance
Ġconst ants
Ġreg arding
PRE FIX
Ex tract
Ġr gb
s queeze
sw agger
Ġle ast
ic ient
li ct
is Array
Match er
de s
Ġs olution
âķ Ĳ
} {
Sh ould
ĠJSON Object
F ix
To ggle
m iddleware
Ġb ias
f ailed
con tract
P eer
ĠM odule
ĠNOTI CE
> =
Ġs n
EN V
f h
p ublish
ĠNotImplemented Error
Check ed
Ġstart ing
Ġrequest ed
[: -
Ġaut omatic
Ġcom b
Bit map
r ase
Ġto o
Ġh ide
Ġst age
ĠRem ove
ĠDat abase
Ġl i
Ġw ere
è®¾ ç½®
ier arch
att ach
ä½ ľ
; \
call s
B C
b undle
TI T
mon y
M ult
Det alle
ut ter
Get ter
Or Builder
tegr ation
ĠPar se
ç Ń
] =
_ )
sl ider
sh a
Part ition
ang er
n amed
UP DATE
Ġt im
il led
an a
abs olute
Ġhe x
W rit
Ġl ight
gr pc
mob ile
refer red
ï¿ ½
s heet
b t
C UP
F amily
H ave
: ,
all eng
Ġp ower
u a
qu ote
m ak
Sh ared
starts With
com b
Ġp ickle
init e
åı ·
ĠC ard
Ġph one
inst ances
se nder
voc ab
et ic
N A
Ġnormal ize
dash board
In v
assert That
an imation
ser ializer
ĠDe lete
ç» ĵ
I t
ĠS ign
æĹ¶ éĹ´
cour se
Mark er
Ġm ed
ĠCom p
ren g
åº ¦
)) {
M anagement
Ġre c
% (
F C
il i
let ion
ir ror
P a
ä½ į
re p
ĠS k
m n
ĠB it
ĠRe f
Ġde p
Ġfor ms
å½ ķ
E Y
` )
cond itions
process or
Ex it
mo oth
Un ique
Ä ĥ
ip her
æ Ł¥
inte ger
Ġsc an
T im
Ġser ialize
Ġequal s
version s
Ġcheck ed
Ġ{ !
da o
V IS
^ ^
é¡ µ
Ġax ios
ĠE m
Ġg lob
com plex
ĠS ession
Ġwork er
t ures
Ġp ag
######## ####
qu ant
co in
str ategy
AR D
R C
Ġco untry
(' [
r um
ient ation
con s
L ibrary
un e
Ġtrans ition
Ġp a
cont ain
ro utes
P rivate
} :
Second s
ĠUn it
$ ('#
M at
mock ito
ĠSQL Exception
å» º
Ġd ot
data sets
al a
Init ialized
z ure
Ġ åĪ
Ġf ore
ĠA tom
ĠP ermission
Ġblock s
I ON
å ¿
T ABLE
IC Ag
Ġset s
P ack
è ±
ĠV er
mon itor
z on
Ġprob lem
Pop up
Ġsk learn
o per
) ?
cycler View
reng th
pack et
Ġc ert
j ac
Ċĉĉĉĉĉĉ ĉĉĉ
SE CON
Meta Data
B B
Ġa st
Node Id
M ed
ill a
k n
umbn ail
Ġagre ements
i ol
COL OR
C trl
={ ()
G o
Ġun icode
ĠAuth or
DA O
env ironment
v n
ad or
N amed
Ġm aster
de ploy
") [
Ġassert False
pro d
Ġs age
Ġw arnings
ĠB ack
d ark
ç» Ħ
å Ŀ
k w
- +
m ix
Ġexec utor
re peat
ys ical
Filter s
Ġtensor flow
d st
c ategories
rupted Exception
al oad
Ġhash Code
ĊĠĠĠĠĠĠĠĠĠĠĠĠĠĠĠĠĠĠĠĠĠĠĠĠĠĠĠĠĠĠĠĠĠĠĠĠ ĠĠĠĠ
n om
MODE L
C UR
Mon itor
ag raph
g ray
t v
exec ution
Ġm em
Ġav oid
Ġcall ing
ĠJ ob
ĠR ES
train ed
åĬ ¨
Ġch oose
Ġb s
l as
Ð ¹
Ġde cimal
Ġp i
iv al
check point
ĠD ATA
Tool s
Permission s
åıĤ æķ°
co ord
Ġart icle
ĠWARRAN TY
Com mit
SER VER
Vis itor
ĠNet work
iv ely
æ± Ĥ
], [
h over
Ġv ec
) -
i per
Ġm ade
Ġse ll
st one
part ition
p ared
Ġde adline
Ġsc ene
C ookie
lo s
Ġ" ;
Ġpl an
è± ¡
sign ature
Ġd ays
åı ĳ
f amily
Ġb asic
Ġreg ex
Down load
Sup er
U i
Ġas set
Ġp lease
Re p
O FF
c ross
ĠW indow
es Module
Work er
Ġfl ask
z a
ĠR est
Ġback end
I ss
// *
AR G
FOR MAT
iss ue
b log
ĠEx t
< <
' })
T T
TE MP
Ġk now
cre ase
Ġd a
Ã Ń
job s
Ġmin imum
ant ic
air port
role s
Ġse c
W allet
lap se
Ġex act
/ :
Collect ors
ĠVar iable
g g
br id
Ġs in
d ropout
Ġ é
Ġfail ure
=" #
Ġ{ ...
Ġg ot
Con vert
E VENT
In struction
b old
s d
st andard
Ġst ill
vers ation
N orm
div idual
FOR M
i j
Ġh old
is Required
ext ends
velo per
Comp Parser
æľ ¬
Ġ" ");
set ting
De cor
Ġstd out
In clude
rel ated
ĠH OLDER
ph ase
Ġcustom er
has Next
ss l
b on
p romise
Ġa verage
Ġtx t
normal ize
def inition
N AM
Ġd en
se m
WI SE
interop Require
ĠÐ ½
i et
p ri
L iteral
us age
CRE ATE
L oop
Lo aded
Br anch
SER VICE
N E
Ġst ub
> ");
ĠC an
un g
CH AN
H ex
Ġo per
ĠĠĠĠĠĠĠĠĠĠĠĠĠĠĠĠ ĠĠĠĠ
ĠG ET
f ollow
d to
Sub scription
ir th
ĠA ss
m ut
e ded
Ġse curity
list en
Ġp at
F ire
C riterion
ut c
D one
ĠĠĠĠĠĠĠĠĠĠĠĠĠĠĠĠĠĠĠĠĠĠĠĠĠĠĠĠĠĠĠĠ ĠĠĠĠĠĠĠĠĠĠĠĠĠĠĠĠĠĠĠĠĠĠĠĠĠĠĠĠĠĠĠĠ
ET HER
Ġe p
ĠSub LObject
'] ),
fer red
ĠU UID
with in
ê °
cy cle
Ġkey word
present ation
R atio
de sign
in x
t ail
M o
is o
R A
Ġm id
scri ptions
m oment
map per
Ġplugin s
ar ing
P aint
Ġde ep
Ġspec ial
dest ination
p tr
([ [
Dis abled
host name
n x
E P
ne ighb
D U
Ġ* =
ĠTH IS
H ook
ĠEn um
Ġ' :
p icker
ce ler
ext ensions
S K
State Exception
} ).
O ther
ur ations
Set s
over ride
C md
Ġthrow n
c wd
l st
p ause
ar c
r aise
ro zen
sub plot
sh adow
use s
ob ot
mk dir
p ayment
G ap
Ġon Changed
Ġprocess ing
å ĵ
pk g
ĠIN CLUDING
go od
us ion
ref lect
ynchron ous
æ ¯
N ECTION
Ġs cores
ĠGener ated
char acter
Per formed
Ġhar mony
Ġal ong
valid ator
ĠG L
UM N
st roke
ex clude
ĠPRO VIDED
br ains
cache d
" />
m q
Ġc s
F inal
ĠD OM
it ation
. )
Ġre ply
ak ing
Ġassert NotNull
De v
Ali as
Ab solute
æĹ ¥
ing er
Sup ported
ĠWh y
Ġc alc
O k
uss ian
fl atten
m x
AR K
ĠR el
b box
el if
ĠSH ALL
h our
Ġlink s
Ġlook up
Sc heme
å§ ĭ
Ġc lip
y es
Or igin
ĠD ep
ĠOn ly
ĠP layer
ĠM AX
å Ļ
TI M
ĠHash Set
ĠV AL
u zz
ï¼ ī
Ġpre pare
Ġh ist
Window s
D ynamic
æ ¬
Ġo prot
ä½ ¿
Ġimplement ed
al loc
n ers
ail y
ç ´
Run ning
rid ge
ĠBuffer ed
p ixel
Ġet c
red ux
Non null
Ġs uffix
H OD
ĠB Y
Ġser ializer
og raph
MA IN
mod ified
contains Key
T RAN
ĠDAM AGES
Pred icate
Ġp t
Ser ialized
ĠWh ether
Connect or
Ġcase s
Constant es
Ass ignment
Date Format
ĠTo ast
or ig
= ""
Ġh app
Key word
Ġ$ (".
C annot
S ame
ĠP lease
cl uded
un ce
permission s
er as
am ing
De pth
Ċĉĉ ĠĠĠ
Le g
l uc
ï¼ Ī
C ost
ter mine
C ould
Ġre try
Reg ex
D C
Ġle ss
> :
ĠEX PRESS
åĻ ¨
Ġf p
curs ive
W ID
Ġ qual
Ġuse ful
i am
IS ING
ĠCom mon
Dim ension
ub er
ĠPro perties
n ost
vert ex
th ird
Conf irm
ĠPr int
LE FT
(` ${
'] ))
åĮ º
F act
IN DEX
En tries
comp iler
Al gorithm
T er
Ġwrit ten
Task s
Mock ito
(' ../../
PO INT
point er
per form
Ġe q
ĠO peration
---- --
PRO PER
log o
rypt o
ĠCON TRACT
tr i
sub scription
al o
N aN
Operation Exception
in line
TER N
éĢ ļ
> ';
e valuate
Ġjava fx
ĠAlex a
} `,
ur able
S UP
ENT ER
te ch
Co untry
ĠK EY
æľ Ģ
ĉĉĉĉ ĉĉĉĉ
Ġch oices
el low
quest ions
Ġre gistry
Pre v
ĠF L
x l
éĿ ¢
m anagement
pe er
(( (
Ġg it
W atch
f ol
mploy ee
F ac
k g
red is
check box
epoch s
Ġvert ex
M achine
WOR K
âĶĢâĶĢ âĶĢâĶĢ
Ġx s
ĠLI ABLE
éĩ ı
ĠS ty
part ment
anc er
GRO UP
Ġp ixel
ç ¨
File Path
åħ ³
h l
po graph
ħ į
he alth
dis k
è¿ ĩ
r d
ap is
r v
Ġconf irm
Ġnot hing
t m
n c
S im
Ĵ Į
hem as
b all
Ġinv ok
cre te
sig ma
g ov
Ðµ ÑĢ
C F
æ Ĭ
o y
Ð ±
ir ation
Ġpy lint
rot ation
Ġretrie ve
Ġpart ial
b id
Version UID
Im ages
ĠAR ISING
Ġ ĊĠ
um es
L AY
Ġp o
ft ime
com ments
face book
Act ual
ĠC riteria
C AS
e ver
at ial
M IS
ĠO S
List eners
at ory
Ġ" </
s uffix
g lob
iv o
åĮ ĸ
p f
ud o
Ser ializable
P ay
qu ences
ãģ Ĩ
Ġen coder
as m
__ ["
ic ation
ĠBig Decimal
Ġ= ================================================================
ker as
Ġin f
De claration
Update d
ç¬ ¦
Ġf ocus
Ġn b
Re lease
V irtual
Ġp ixels
ĠAc count
ĠWH ETHER
w all
mo re
clus ive
P lot
ci i
å¤ §
Ignore Case
\ ",
ĠCon struct
Ġed u
Ġ" :
S ensor
Ġs leep
inter faces
S ING
S PE
trans pose
rand int
ĠT EST
ploy ee
" })
Ġw ell
è ĩ
! ")
Th an
v im
hand lers
le arning
Ġc at
list s
g atsby
gre es
abs path
Re place
er red
Ġid entity
P ES
Variable s
SE D
encode d
W eek
Ġnum s
AD D
if ec
Th rowable
Ġpk g
F UN
ri ent
Ġconfig ure
Block s
Combo Box
H ub
amp a
ikari Config
e qu
Ġsuccess fully
ĠB asic
Ġpar a
key word
Ġh older
_ %
F ill
Ġm embers
Ðµ ÑĤ
up o
per m
andid ates
ON T
w b
vert ical
id o
Ġserial VersionUID
Ġjust ify
R UN
Group Name
Ġp ur
g ateway
**************************************************************** ********
Stat es
N ULL
pograph y
çĶ Ł
ĠN ULL
Ġchannel s
Ġb eta
riv ile
card s
el ist
foot er
C lear
Ġ' {}
Ġsh util
d ings
oo st
Ġd rag
ĠOTHER WISE
PL AY
ct rl
() ):
Ġde al
ed er
ch ool
a unch
aly zer
un used
äº İ
olic ies
Link s
Ġu id
ifec ycle
? ?
I llegal
æī Ģ
in y
an te
C ertificate
] {
ap sed
ile s
N ONE
s ources
M aster
var iant
Art icle
Ġg t
Ġtrans late
ĠRed istribution
S lide
en ate
ĠT ORT
Ġexp and
pl ies
bit Field
Descript ors
L ib
n y
part ial
Ġ um
P adding
Ġp ages
Ġro bot
M AN
v let
Co ord
âķĲ âķĲ
Z oom
FA IL
int ent
Ġ[ ])
Ġfilter ed
ĠM ark
Ġl r
j oint
o auth
åĲ Ī
work flow
table s
M ount
ir s
ill s
Ġs heet
as ing
all ery
. ');
Ġandroid x
Ġne ighb
Ġneg ative
Ġ'/ '
Wh en
ĠA UTH
Ġcon tract
Ġcre ating
L ite
pos al
cord ing
put ed
Code c
ma zon
OR DER
C M
ĠS ET
ãģ ĭ
: [
ãģ Ł
Ġautomatic ally
Se quential
UT E
pend ing
ont o
Ġr and
IC T
anis m
")) );
P RI
Sw ing
cip ient
ĠAc cess
ĠLay out
Ġauth entication
du ced
Ġw eek
ĠA g
script s
AS F
G rad
G ateway
ĠRes erved
Col ors
IG N
f ragment
w allet
rot ate
assert Is
By Name
Ġart ifact
M ED
è® ¤
Look up
ĊĠĠĠĠĠĠĠĠĠĠĠĠĠĠĠĠĠĠĠĠĠĠĠĠĠĠĠĠĠĠĠĠĠĠĠĠ ĠĠĠĠĠĠ
ise d
Cre ator
Ġst roke
, ),
, )
ĠI s
D AT
Ġ er
DO WN
] -
Byte Array
u v
] ',
on ical
è µ
en ame
l ision
a ur
Pre view
& #
ĠAS F
Ġ{} ",
ĠC H
Im mutable
f ac
Ġc ast
Ġconn ected
Ġp rior
Ġdirect ly
Value Error
f old
ĠO ther
Th reshold
è¯ ¢
Answ er
Ġd ynamic
sc heduler
Ġd y
in ventory
ĠÐ º
ist r
Read y
get All
ĠM O
C SS
Ġs lice
ab ric
pro cessed
len ium
H orizontal
add Component
Ġnot ify
cont inue
Ġdet ail
Ġwr ong
Ġè İ·åıĸ
is co
at ype
$ ("#
ill ing
ard s
Ġfin ish
d ynamic
he st
Re set
comm un
L C
AD DR
ĠM ax
get Status
od b
M esh
Ð¾Ð »
m es
IT S
m r
ĠĠĠĠĠĠĠĠĠĠĠĠĠĠĠĠ Ġ
Bl ank
ampa ign
ic a
Red irect
Re po
Ġc ross
trans l
Ġurl lib
t ar
Ġencode d
Ġz one
L oss
re ward
ĠĠĠĠĠĠĠĠ ĠĊ
ĠR ights
le ms
sc alar
Se c
st ere
st udent
Ġvalid ator
Ind icator
GeneratedMessage V
è¯· æ±Ĥ
Ġp eer
çĽ ®
B T
am a
t or
ä½¿ çĶ¨
p ot
x r
CON F
crypt ed
re store
Ġser vices
dev ices
P ipeline
Ġres pon
è Ģ
Request s
b p
JSON Object
op acity
Sup plier
LIC ATION
F ace
o i
M igration
B A
D ays
m iss
ĠHOLDER S
Pro totype
ĠQt Widgets
W H
r is
Match ers
Struct ure
iv ing
tool tip
ICAg ICAg
' ^
Ġline ar
Ġd iag
Ġ: ]
Re ason
Ġdefault Value
M embers
b its
Ġm esh
amazon aws
v t
(" ../
AB EL
P Y
Ġ"/ "
us ing
čĊ čĊĉĉ
Ġ"' ",
work space
Ã ¤
a verage
LE T
CLI ENT
Ġignore d
'] );
oc ab
ierarch y
Ġch arge
av atar
OT AL
Ġrepresent ing
r x
O per
ĠS ymbol
Ð° Ð½
Ġ{ {
Ġpro per
Ch oice
Ġm emo
Ġ" (
f cs
D T
[ \
h am
User Id
Ġad just
embed ding
r ing
Ġregister ed
P e
ĠM on
Ġm ight
dim ension
Ġrender er
HttpServlet Request
pre view
de serialize
Ġw atch
Ġc ent
å¯¹ è±¡
Ġde cor
p ick
Ġb ig
Ġd x
Ġb box
ĠA CTION
Sc an
get Resource
Ġdes ired
, \
qu antity
ir a
currentTime Millis
pe ak
Ġcom pleted
Ġpos itive
Ġ age
F eatures
ĠUn supported
Ġre striction
ĠWIT H
Del ta
no ise
Ġb uilt
C overage
SER T
ĠH andle
ph ere
Ġi prot
N ET
Ġap plied
fail ure
Ġb lob
ul k
c rop
trans fer
Ġor ig
g res
ig u
h at
Ġ čĊ
Ac c
avig ator
) ')
B reak
limit er
EN CE
Ġax es
e ep
}/ {
MS G
Ġon Create
ne ed
Record s
uk kit
state ment
Ġmod al
Ġbind ing
ind ent
Ġc over
w x
sens or
With out
sen ter
de coder
ab out
param etri
Ġbe an
b one
G G
AS H
Mod ified
Ġch at
reg ular
S CH
s izes
cl a
pre ter
ĠLoc ation
alleng e
ens ors
man ifest
R pc
Ġ! !
str ftime
Ġent ities
ou ch
DI RECT
ĠText View
o h
Ġc loud
LE MENT
Inst ances
ad ded
Ġtr a
ç±» åŀĭ
Ġpack ages
æ ¨
qu ot
li k
Ġth ose
Ġwork ing
s hell
Ġstr ategy
S ender
or a
Ġw s
Ġs hell
H R
q dm
è İ·åıĸ
é ħį
ãģ «
Ġp ick
ĠM enu
ĠIn ternal
init ializer
Hel p
åĬ Ł
Ġs lide
ap s
And roid
product s
å® ŀ
M s
Ġt k
Ġcre ation
C LO
t z
cr im
x path
Ġe valuate
pos itions
Ġsh are
Ġcons ider
vance d
IN VALID
Ġr atio
get B
")) ,
crypt o
-+ -+
O W
ľ Ģ
ĊĠĠĠĠĠĠĠĠĠĠĠĠĠĠĠĠĠĠĠĠĠĠĠĠĠĠĠĠĠĠĠĠĠĠĠĠ ĠĠĠĠĠĠĠĠ
ĠParam eter
ur ity
al er
Ġc ookie
Ġup dates
Ġph ase
prop Types
Pr imitive
Ġs afe
Ġx y
á »
F ilename
Assert ions
h orizontal
w ave
co ordinates
ĠP erson
Ġrot ation
interopRequire Default
C OR
ç ©
g m
c alculate
ge om
f ade
sent ence
> }
Ġs ym
Sh adow
str ings
it ect
Ġ" *
Ġsig ma
re peated
V EL
ig o
set Visibility
(" '"
sp lice
ĠConstant s
ĠC ache
Ġget Name
Ġn s
Se q
i q
è· ¯
re load
Rece iver
WID TH
work ers
ç Ļ
re v
L ike
w alk
ĠT ag
ens ure
Ġz oom
ing leton
Ġl atest
V AR
j ar
Ġ" ).
Ġne cessary
ĠS te
wik i
Ġ" ../../
ĠR out
p aces
= >{
/* !
Integer Field
Ġm ac
B LOCK
parametri ze
M I
N avigation
t ax
ĠTrans action
so und
ĠCon structor
S rc
Ġs ur
Ġan alysis
G O
Ġ ĊĠĠĠĠĠ
% %
S ys
t abs
ĠF ree
å° ı
Ġex periment
get Bytes
set Name
met ry
Ġsh all
(' @
c ryption
ĠIter ator
b at
exist ing
\ ">
Ġl wjgl
Ġdis k
multi ple
Ġde termine
Ġin ject
ĠN e
file Name
ĠSet tings
å ĴĮ
In ventory
S uch
to Have
ard ware
ĠI O
dec ay
equals IgnoreCase
b ank
Sh are
Er r
U ES
éĢ ī
con struct
us d
Ġfont Size
pro ve
Ġcomp at
ä¾ ĭ
De ployment
L P
ĠGener ator
g z
r ating
to Array
ł éĻ¤
] ",
Ġc os
de leted
ĠAs ync
Al pha
and box
} ),
ĠAdd ress
Ġ' *
f mt
Rece ived
se parator
Ġv irtual
ĠÐ ¸
Ġlist s
M ac
Ġdim ensions
Ġsc ipy
Un able
not es
åĨ ħ
C ircle
R ank
ĠS ER
å¼ Ģ
entic ate
CONT ENT
H int
ĠHttp Response
dist ribution
Py thon
ph oto
i ally
oo ser
ĠÐ ´
in ct
ĠInput Stream
Over lay
Sl ider
Red ucer
L ang
Z ero
activ ate
es is
Ġw arning
y label
x FF
get Field
st ride
äº ¤
mo us
Ġ" $
Set up
ade s
insert Schedule
open api
U uid
V o
Ġext end
čĊĉĉĉ čĊĉĉ
i pt
fin ish
Ġin voke
Ġs omething
S n
ĠP attern
Ġle arning
EC K
F ooter
Ġpro cessed
Ġdeployment EntityManager
pl or
ip art
is Valid
Ġstart ed
ĠFL AG
ĠIllegal StateException
Rad io
T ODO
Ġ} ]
tr as
ä¼ ļ
u ages
Id ent
te le
Ġan chor
TE GER
Ġbackground Color
$ ',
dat er
Â ł
Ġd ue
v inc
bin s
E mit
Ġ End
S ent
Ġc art
Ġ âĢ
sp h
Ġarray s
Def ine
w ar
re try
Ð° ÑĤ
čĊĠĠĠĠĠĠĠĠ čĊĠĠĠĠĠĠĠ
J s
In flater
fl ux
æĺ¯ åĲ¦
IN K
ĠI F
erc ise
ony mous
Ġm ount
dum my
t odo
Ġsens or
Ġm ut
allow ed
Ġ ĊĠĠ
Ġ arch
List Item
Proto s
ites pace
ĠB undle
Ġy aml
Action Listener
bind ing
getElement sBy
gener ic
Ġ$ ('
pattern s
Ġpair s
Ġqu ant
ĠĠĠĠĠĠĠĠĠĠĠĠĠĠĠĠ ĠĠĠĠĠĠĠ
exec utor
n ed
ve y
Multi ple
) ")
Upper Case
Ġ čĊĉ
ĠC OL
Application Context
Ġproduct s
roll ers
Ġ) {
V ue
Ġfr ont
f un
ĠAct ivity
ĠD jango
status Code
y ml
Ġ-- -
id ad
Ġm o
ĠSt orage
Re c
Ġ} ],
ĠC loud
s To
ĊĠĠĠĠĠĠĠĠĠĠĠĠĠĠĠĠ ĊĠĠĠĠĠĠĠĠĠĠĠĠĠĠĠ
ĠTem plate
close d
Cl ause
Ġ| =
t b
VI EW
Ġf ails
Process ing
R AY
Valid ate
rad io
Hash Set
N C
c alendar
ip ment
re view
stere otype
g amma
Ġn av
w p
Par allel
Ġcom ments
Ġh er
ends with
Ġiter ation
S ound
pe ek
account s
= []
base name
¦Ĥ æŀľ
^ \
Ġwork s
ë ı
ĠÐ ¾
. ";
et ing
ĠLog in
æ Ľ
Token s
new s
W rap
tr ial
luc ene
Ġcon sumer
ex change
åĪĹ è¡¨
ĠF rame
S oftware
ER Y
è¿ Ļ
ĠS ave
spec ial
è¿ Ľ
last ic
TO P
Ġreg ular
ĠValid ation
H y
Ġob s
Vert ical
f act
Log ic
[ ])
ser ial
Ġin line
Ġno ise
F ree
ac lass
St udent
cell s
T ip
Re gistration
ĠHe ader
ĠH ome
D id
Ġc urrency
ail ability
i ro
ly ing
ĠM e
Ġch oice
Ġin stant
ac curacy
urre d
IL D
ĠAtom ic
Ġc lo
_ );
art ifact
ç© º
S uite
| ,
ma j
FI R
ud get
Ġ ans
}` ;
assert NotNull
ãģ ¾
Track er
CH ECK
ĠNOT E
ĠĠĠĠĠĠĠĠĠĠĠĠĠĠĠĠ ĠĠ
Var s
display Name
Ġcom plex
Ġsub scription
activ ation
Ġro utes
h ub
Ġpre vent
å½ ĵ
Ġ í
ĠF ont
Ġcheck s
ersist ent
is m
W r
u ent
Ġtrans port
n avigation
fix tures
f lip
iz ard
ĊĠĠĠĠĠĠĠĠĠĠĠĠĠĠĠĠĠĠĠĠĠĠĠĠĠĠĠĠĠĠĠĠĠĠĠĠ ĠĠĠĠĠĠĠĠĠ
Ġcl azz
à ¥
Ġadd Criterion
č ĊĠĠĠĠĠĠĠĠĠĠĠĠ
æĶ ¹
Buffer ed
ĠD es
integr ation
go al
/ ",
Ġ) }
dir s
T L
Stat istics
Ġc ourse
Ġcheck point
Ġexception s
P o
Api Model
Ġh our
Ġfr ames
ast e
Module s
ĠS o
inherit Doc
ĠJ S
ĠNull PointerException
/* .
Ġt re
ac l
Ġav g
re name
Ġcol s
Ġtemp or
ĠT YPE
( ...
Ġp riority
ĠSt andard
Exec ute
T OTAL
tick s
ì Ħ
ĠRe ference
loc ations
: ])
ĠC ount
im p
} _
Ġc m
** *
Ġac cording
x label
æľ Ł
Ġtable s
å¤ ±
con verter
Back end
Ġp ayment
(" {
To ast
Ġallow s
ĠD I
Ġgr anted
ag er
ĠF ire
IN PUT
ĠDrop box
T ele
Ġth eta
par allel
parent Node
ĠCont ainer
el s
pro j
Sk ip
j h
OR M
fol io
č ĊĠĠĠĠĠĠĠĠĠĠĠĠĠĠĠĠĠĠĠĠĠĠĠĠĠĠĠĠĠĠĠ
att ention
äº º
ĠRun nable
ouse l
Ġvis ual
ĠO ver
Ċ ĊĠĠĠĠ
ĠDefault s
Ġn d
Function s
Ġbl ue
æĢ §
Ġre ward
es ian
ĠDe vice
ID E
ĠS TR
° ĥ
Des er
S urface
åľ °
è Ĭ
Work flow
Ġu k
ãģ ı
ers istence
back ends
åº Ķ
depend ent
PASS WORD
UN K
semb ly
ed irs
RO L
add Widget
dat ab
le af
Ġde coder
ĠP os
äº Ĩ
$ $
ph i
ç¨ ĭ
String s
m icrosoft
CH AR
jav ascript
Ġp rom
ĠM atch
li ve
Ġc andidate
h old
ĠEd it
Ġ ----------------
ĠG lobal
æ¬ ¡
C ity
Ġpos itions
! ')
Ġrece ive
ist ent
Part ial
now led
Ġco ords
b az
h it
v ing
Com pletion
ib ling
Ġinter pol
G A
Ġlog s
po ss
xy z
ĠM atrix
prop ri
M ail
AC HE
'] ]
net es
ĠSh ort
lev ant
Ġ} }>
U sed
uber netes
G oogle
Ġat tempt
m achine
ĠKey Error
an imate
Ġre maining
æĢ ģ
ten ant
Ġext ensions
window s
Ġclose d
s olution
dat as
as cii
Ġ{} );
Ġ** /
Ġread y
Tool bar
Ġc alendar
d ocker
Ġsh uffle
gener al
Rot ation
ĠM in
ĠD raw
View Holder
h om
Ľ å»º
Ġpoint er
ĠV ue
m ol
py plot
ĠO ne
wh ich
æĸ¹ æ³ķ
ot os
sp ot
ĠD im
filter ed
tw itter
ĠTh ere
Ġd p
Action Event
æł ¼
h ooks
od os
y e
Ġent ropy
SI GN
n ested
l arge
un checked
Ġ om
Ġcorrect ly
== "
Se lf
Argument Parser
AT CH
ĠW rite
Ġt e
Code s
g dx
pro ved
Tr ain
Ġdata sets
pop up
se ll
Ġd r
Ġbe havior
ĠAr t
drop down
log its
ĠHttp Servlet
PRE FER
Ġversion s
constraint s
Ch anges
Object Name
F IN
ĠRe quire
]) );
process ors
js x
Ġdistrib ute
) ");
g ate
su ario
De ep
new Builder
! ",
Ċ ĊĠĠĠĠĠĠĠĠĠĠĠĠĠĠĠĠĠĠĠĠĠĠĠĠĠĠĠ
= ${
Ġm ongoose
Ġatt ach
high light
? :
auth entication
Args Constructor
Ġp ending
get her
Ġh it
é ĥ
ãĥ ³
Transform er
A WS
Check er
Ġasync io
B ool
ãģ į
Ġadd r
O ld
ì Ĺ
ch rom
Ġsuccess ful
PROPER TY
Ð ³
Ġc a
AA AA
File Sync
qu id
Ġre duce
post s
Mod ifier
/ {}
Ġt a
Ġit self
Ġformat ted
'} ),
l ng
Ġb oot
P D
re vision
ĠUtil s
Ġbl ack
Ġ č
ĊĠĠĠĠĠĠĠĠĠĠĠĠĠĠĠĠĠĠĠĠĠĠĠĠĠĠĠĠĠĠĠĠĠĠĠĠĠĠĠĠĠĠĠĠĠĠĠĠĠĠĠĠ ĠĠĠ
fin ished
ind s
De coder
åĪ Ļ
()) {
Ġ Ã
F i
ì ĭ
æ¨ ¡
get X
ce eded
P N
jet brains
get Parameter
k o
ĠGener ic
Query Parse
N ow
SECON DS
B uf
Dis k
IB LE
Ġmin utes
la unch
Ġm achine
-- ;
EMP TY
re trie
ãģ ¨
Ġfin ished
sk y
ĠSto re
Ġmat ched
Ġmon itor
ĠW orld
Ġassign ed
set Property
Ġ" {}
iv ot
ĠR ule
=- =-
ced ure
} -
l an
EN ABLE
h ib
"] ;
Ġre dis
to UpperCase
cla imer
log ical
r df
c lock
Ġ angular
f q
ĠCh ange
g p
Ġin spect
P ixel
TY PES
en o
_ '
P K
j query
') (
Ġ Ñ
link ed
ĠQ ue
ĠA WS
Add r
Ġtrans fer
C alcul
Ġne ver
C lean
an o
Ġth ree
g h
m os
get Content
ĠSh ow
Ġb its
an cy
Ġk nown
Ġs ix
Internal Frame
ĠR ender
P ut
Ph oto
G IN
Conn ected
ce il
h d
| {
For ward
n l
RES ULT
ĠN ON
E lem
Ġge ometry
Ġc p
cre ation
get Parent
@ @
Ä ±
ĠA D
Dest roy
ĠEn v
ĠSec urity
Ġde ploy
Ġto uch
ĠG r
Ġbefore Each
ĠT ABLE
Pl ane
p aper
Ġh ig
Ġdis cord
Ġpro totype
ĠInit ialize
Com parator
iz ing
iss ues
z y
on ed
lect ron
Ġm ag
ĠU sed
IM AGE
co eff
Ġd ump
¶ Ī
ãģ Į
Man ifest
é ľĢ
sub str
NAM ES
P ending
em y
mark s
il y
n i
sum e
b uilt
ul se
Ġb us
ĠCh annel
ur as
Sc anner
order ed
am ps
widget s
(" _
Ġpre cision
ern ate
M obile
* \
[ _
To Props
Ar row
) >
ur er
l ize
i ator
Util ities
Ġs ources
match er
st and
Out er
(' ');
at o
ĠT ool
ĠData set
Ġgener ic
Qu al
Ġk eras
Sc heduler
ĠExp ression
Ġin crement
ve locity
ç§ °
T X
Ġh ikariConfig
back up
N ested
Response Body
Ġcomp any
nb sp
ĠR ow
vinc ia
ĠSer ializable
d ictionary
m f
ch ant
APP LICATION
L ABEL
rgb a
Ġt qdm
Ġperson s
C urrency
im a
aj or
Ġexp licit
UT O
D iag
set Enabled
U sing
Ġprediction s
h ours
e ve
Ġp id
Ġsent ence
Class ifier
ĠDropbox Types
ch anges
Ġf ac
Ġst udent
Ġp in
V oid
Ġop acity
c rit
ĠPAR SER
ter ms
ir med
base d
:] <
mak edirs
ir y
ĠNot ification
Func iones
oc used
ĠDescri ption
he my
V ol
ä¿ Ŀ
» ĺ
pair s
re nt
R etry
m ass
assert In
alc hemy
C ss
Ġbutton s
V ec
æľ į
') ]
> :]<
P ages
collection s
I E
ategor ical
el ong
ĠR O
P URE
Ġc li
v v
ãĤ ¹
ilar ity
Ġwork space
Ġinst alled
num bers
ick y
dat ing
an it
im ize
Ġadd ing
Ġmap per
gist ers
Ġt akes
q s
ch oices
m iddle
itect ure
co pes
S ol
Se parator
im ag
we ather
Ġ END
ifi able
m igrations
Ġin dividual
ìĿ ´
SE CRE
Ġm x
cur ve
P erm
su ite
an im
View s
bad logic
Ġdest roy
Big Decimal
A ge
M argin
De legate
N eg
L ive
L T
Tool tip
>> >
ĠS end
Part s
Ġtransform s
D AY
$/ ,
answ ers
att ack
Ġm u
inal g
ĠS p
LA ST
E qu
m otor
D ictionary
Ġde scri
av ity
el come
PO S
spec ific
P riority
sc heme
h u
get Path
set OnClickListener
Sh ader
Ð¸ ÑĤ
ï¿½ ï¿½
G re
ĠĠĠĠĠĠĠĠĠĠĠĠĠĠĠĠ ĠĠĠĠĠ
iter als
Inter ceptor
Ġco ordinate
avig ate
p riority
Un ion
åº ı
CA DE
Ġf name
UM ENT
cp p
K it
Ġb alance
ã Ħ
Ġwork flow
il ent
? .
h alf
s sh
are st
>{ @
ĠStr uct
num s
ĠRe cord
illi seconds
æĮ ĩ
Ġsup ports
He alth
éĩ į
TRAN S
ĠLine ar
em p
ĠF irst
ĠR ect
c x
Ġst mt
St roke
Ġget s
__ .__
Ġan notations
æ ®
ĠS ort
comm end
% ;
ĠP red
Button s
thread s
pro duction
è¾ ĵ
ĠS olution
Rel ative
Ġt v
pre ad
Ge o
b al
p ull
Mer ge
maj or
ug ht
add itional
/ _
ook ies
Ġp ublished
In stant
C Y
WAR NING
in formation
»ĺ è®¤
Ġwr apped
b usiness
yy yy
p rompt
List View
L AT
Window Configuration
Ġfig ure
ì ŀ
er ance
Ġagain st
g if
é Ľ
Con st
çī ĩ
Logger Factory
Ġdef erred
ĠPl ugin
Ġget All
let ter
App Compat
propri ate
Ġt ele
' ",
Ġde termin
for ge
Ġsaved InstanceState
Con cept
ach ing
format ter
| \
Ġcon cat
g son
Ġf d
play ers
Test ing
Set ter
plic a
fo x
Ġar ound
W ords
Re ply
out h
VIS IBLE
G it
P reference
Qu antity
A W
sing leton
Ġlo s
g c
ĠGener ate
g ree
ĠIn stance
Ġac curacy
on al
Ġst derr
NO WN
mun ity
Ġlocal Storage
OB JECT
i ans
ech no
plic it
Ind ent
ep isode
uff ers
o pe
=" {
button s
Cre ation
åı £
TI AL
Ġin struction
neg ative
ĠD IS
Table Name
`` .
Ċ ĊĠĠĠĠĠĠĠĠĠĠĠĠĠ
st rength
e el
w heel
Layout Params
A I
get State
Ob servable
ĠTest s
m ysql
grad ient
mov es
Ġpred icate
ĠSe quence
N EW
ãģ ¯
Ġcount s
G ood
è½ ¬
HEAD ER
valu ator
w ind
vert ices
Ġcomput ed
B al
RE EN
æ³ ¨
Ġem it
g ene
Ġconfig ured
COL UMN
A E
ilen ames
Op acity
urn al
=' "
Ġ" &
mg mt
á ĥ
Or iginal
sen ce
Ġpr ime
g able
Ġ' &
ess aging
List s
_ "
Serialized Name
ON LY
velo pe
ç Ĭ
B its
ro tt
Display Name
Ġm m
________ ________
UR N
ber t
AR E
Ġread ing
S R
Ġlet ter
Ġl ik
ĠPro to
B lob
SECRE T
------------ --
C ourse
eb ook
ĠV is
S N
lo dash
Ċĉ ĠĠĠĠĠĠĠĠĠĠĠ
Ġre p
Ġrun ner
s ap
M ON
Ġd ummy
ĠRe gister
RO W
DESC RI
i ants
up on
Ex change
Ġal i
emo ji
P ol
get Column
C oin
S afe
ed u
log out
view er
ps i
Ġweb pack
Ġge o
Ġm ail
SQL Exception
Ġgre ater
med ium
ip pet
Inst all
Ġvar s
Ġj j
que lize
è °ĥ
C atalog
ĠS U
re pos
Drop down
with out
text Content
a ussian
ITE M
Ġnumber Of
Ġdet ect
Ġexec uted
# __
Ġc ircle
SUP PORT
Ġbox es
over flow
and o
ĠT op
ĠIter able
Min imum
ĠCON NECTION
/ (
Request Body
Ġla unch
c ube
ĠH O
> ";
Ġs vg
Ġde sign
Ġback up
Ġ{ \
connect or
pro bs
For ce
depend encies
Ð¾ ÑĢ
part y
èĬ Ĥ
C B
Ċ ĊĠĠĠĠĠĠĠĠ
Table s
(' :
A K
è ī
Base d
Ġ ir
Ġc ategories
Com pleted
(" @
Iss ue
server s
Ġcell s
Var iant
åĵ ģ
ĠDate Time
second ary
(" :
er gy
=' ',
ÐµÐ½ Ð¸
qu et
V AC
m any
is file
get Y
eb y
in crement
sc ape
b etween
ĠC alendar
l azy
prob lem
sp acing
C ast
Cont ain
St ar
Mar shall
ĠI con
Ġcy cle
é ĺ
éĥ ¨
Ġl arge
Re cipe
loc ator
- \
çĬ ¶
Graph ics
Fin ished
Prob lem
be at
ãģ ª
Ġconvert ed
F IC
om et
get H
å Ł
Ġf eat
ject ory
PREFER RED
Ġcomp iler
Ġm b
ĠC OM
Http Request
Ġdis claimer
ony ms
R Y
Type Error
Buffer Exception
ĠAd min
RE F
s al
Ġexample s
P atch
Ġ" ]
TIME OUT
next Int
le et
æ ĥ
Ġaccount s
ĠTH REE
ic i
enc rypt
P M
Ġ( ((
iz ations
ann ed
Ġlog ged
Sign al
æľį åĬ¡
Ġcomp ile
ri er
Ġro ll
Type Name
Image View
L ot
__ */
Ġv s
ì ł
Ġgo al
MET HOD
Allow ed
e es
ĠPar ser
q r
Draw er
XXXX XXXX
ĠResponse Entity
Pro ducer
ĠQue ue
Ġpro c
Change Listener
Ġsol id
IS O
Ġfl uid
Ã§ Ã£o
u ro
Ġlog ic
è® ¡
ĠC urrent
Ġis n
è´ ¥
èĩ ª
id a
l bl
Ġcom bin
ĠD ialog
CO D
-------- --
å¤ Ħ
Protocol BufferException
L R
de letion
ĊĠĠĠĠĠĠĠĠĠĠĠĠĠĠĠĠĠĠĠĠĠĠĠĠĠĠĠĠĠĠĠĠĠĠĠĠ ĠĠĠĠĠĠĠĠĠĠ
mark et
D ashboard
ue l
B OT
sc atter
T ON
n el
Ġh ook
tol ist
Start ed
man age
D r
c red
Ty pography
Ġre fer
Inner QueryParse
InnerQueryParse Support
v ia
Ġser ialized
Ñ Ĩ
code d
class ifier
x t
ac ao
var iance
Ġ â
is Not
ab a
pag ation
row se
p ip
Ġout er
Ġlocal Var
... ,
pol l
b atis
Ġe ar
ĠO ptions
concat enate
CAS CADE
ä¿ ®
le y
Tem por
ĠDis play
// /
Invalid ProtocolBufferException
Depend ency
Ġsl ug
Ġtext ure
df s
Ġco eff
Ġvert ical
Ġwh ite
åŃĹ ç¬¦
c andidate
ĠUnsupported OperationException
a ver
ĠR ole
WIT H
over lay
k y
s qu
ĠPro gress
L ONG
set Visible
M otor
vis ual
hy per
all close
ĊĠĠĠĠĠĠĠĠĠĠĠĠ ĊĠĠĠĠĠĠĠ
Ġf requency
ver ity
ĠThe se
El se
Ġp ay
Ġmaterial s
p ickle
Ġb etter
å¸ Ĥ
G S
ING E
Http Client
ĠTrans form
P ON
Ġres ize
IN FR
/ .
st ory
Ġn om
Ent ities
c ms
ed Dict
Ġpar sing
ĠCont act
Ġs imul
Ġre store
Accessor Table
ID s
An notations
Key board
$ ('.
Ġthread ing
Ġp ot
Ġl ab
Ġgener al
< =
l inalg
Result Set
Ġ] );
config s
get Object
org anization
Re LU
ar er
e i
Ġdev ices
sp i
work s
D K
Ġf act
Ðµ Ð¼
Z ip
Ġhigh light
st or
Ċĉĉ Ċ
Ġact or
u ario
[ [
INGE MENT
Un supported
IN CLUDING
Com posite
Command s
t oday
Program ming
SH A
b os
Ġse ss
Ad ded
Ġact ually
An chor
> ');
Ġmay be
P AGE
parent s
Tree Node
B usiness
head ing
LE VEL
ĠQt Gui
L ow
Dest ination
Descri be
k i
es ome
ĠO ption
ang ing
m icro
Ġm p
Ġdata Type
go ing
U tf
m ic
Ġpath lib
ãĤ Ĭ
Ġc am
lib s
v p
åĲį ç§°
C N
P urchase
çĽ ¸
cl usters
agic Mock
Ġrun s
Ġ Ċĉĉĉ
us c
Check Box
Close d
u lf
un icode
Ġrepresent s
æĪĲ åĬŁ
ĠRuntime Error
æ ²
prec ision
R etri
ĠEx pect
Ġt m
MO VE
ar ia
com pleted
ĠLogger Factory
... ")
s prite
root Scope
L ess
om ial
ĠP ort
l b
v i
ADDR ESS
l ish
send Message
View er
Ġj Label
ĠSty le
UT C
Ġc ut
Ġsh adow
Ġt odo
LOG GER
={ `
has Class
Ġrole s
Ġman ifest
Ġs quare
Ġher eby
B etween
S prite
case s
det ach
Inf os
Ġget Id
Ġar ia
top ics
è¯ ģ
Ċĉĉĉĉ Ċĉĉĉ
sh utdown
Ph ase
Link ed
f i
get F
mov ie
set Color
ivers ity
Ġj est
Ġg amma
cl aim
de tection
åħ ¬
ech o
Event Type
Ġlimit ation
Ġap propriate
Ġm akes
Data Set
Trans lation
att le
Ġqu antity
max imum
order s
H ide
Al t
N umeric
m ust
ĠC ategory
oci ation
side bar
* }
Ap ply
Ġ' (
cover age
(" ",
Ġh ours
Content Type
ic ular
ĠT arget
INFR INGEMENT
Ġ able
EX P
Ġres olution
Be en
M Q
Byte Buffer
Ġp x
Ġde legate
Ġleg end
: </
h ow
] \
Ġv ocab
Ġe valuation
trans lation
ĠU P
sc ss
ĠRe port
Ġstart Time
Ġlist eners
ser ialized
Ġt enant
close st
Ġl arg
icle s
v endor
ĠItem Stack
å¤± è´¥
N D
Ġm is
Ġp c
ch rome
du ces
M ust
m en
ap ed
posit ive
get De
ĠU SER
Gener ate
ëĭ ¤
O rient
St amp
mat ched
strict Equal
ĠM igration
s imul
> ")
J Label
Ġc rop
Ġter min
HE IGHT
SS L
m is
æ ¶Ī
Ġres olved
right ness
ķ Ĩ
Ġo ps
ĠPro file
Ġ} ))
Role s
/ #
cal ibr
p w
ĠF eature
U suario
ĠCom pute
åŃ Ĳ
In vocation
Ġocc urred
Ġh alf
Ð¾Ð ´
Ġprovide s
avor ite
As String
H ist
Ġobtain ing
Ġa ws
ĠC LA
Ġe c
ĠN umeric
Click ed
èī ²
be am
h op
inter pol
ĠH ow
Org anization
b ukkit
Ġco ord
f m
ph ab
Re als
i loc
Pag er
ion Error
ãģ §
Ġz z
PI O
Ġ energy
n at
Ċĉ ĠĠ
å· ²
st udy
Ġqu eries
ĠLink ed
s urface
Ġw arn
IL L
High light
j dbc
aug e
æ® µ
d ro
ãĥ Ī
Ġport ions
EMA IL
text ure
Ġ* **
STR U
M ay
P at
R ew
Ġuse Effect
Ġc atalog
ap on
urn ished
c aption
he at
find One
z illa
ct or
åĪ ¶
ys ics
DateTime Field
atis f
Rem ov
Ġmer ged
Loc ator
se lenium
ĠCon v
ver sed
list dir
C r
b iz
Ġp rompt
W A
ĠC allback
TR A
AR RAY
ç ³
Ġstat istics
Ġas ynchronous
comp ress
Ġgrad ient
li very
j wt
Ġget Default
sh uffle
Ġassert Null
Un der
Ver ify
Ġwh om
Sh ift
det ect
è½ ½
L aunch
Ġpar allel
CON N
P ressed
"> '
ĠSt ack
IN SERT
: /
qu ick
Ġvert ices
Ġb ug
ĠN E
}` )
è¯ ¥
OP ER
TO OL
| "
author ized
char s
Ġder ived
en ing
g uid
por ation
FF ER
ĠCLA IM
Cur ve
ĠReg Exp
R T
set Layout
ãģ ¦
a ux
uto ff
set Item
ail ing
P in
Vis it
imple ment
ĠRedistribution s
ĠCall able
h int
ĠD ynamic
C opyright
Fin der
v ault
en umer
Ġ EN
Ġst rip
Ġpro jection
C V
Ġm t
!! !!
Ġjob s
client s
Dist ribution
Ġ ].
Ġw allet
FLAG S
Ġsub stant
ĠD ist
sec ure
ĠZ fcs
Ġt d
Ġ` ``
Ġrece iver
k l
Ġchar set
Ġinit ialized
R ENT
Ġ* ,
AR GET
sub net
åĲ Į
æľ º
iz ers
angle s
Ñ ħ
)) ))
on om
Ġf un
mark down
c apture
Se g
å® ¹
al gorithm
de precated
ä¼ ł
ĠA lert
M N
ex e
ch r
anis ation
Run With
Not ifications
Ġcre ates
u ation
Number Of
é ģ
Ġr v
Ġorg anization
Ġiter ate
Ġm ix
" <
r at
Ġc riteria
Log ging
]] :
pl aces
ĠA mazon
GEN ER
Att achment
Ġsc heduler
C apture
çº ¿
F ee
ĠM an
ST A
dis cord
ĠInter ruptedException
S ources
Ġ. /
V ent
Ġs q
Ġgener ation
al ib
Fr ont
serv ations
A U
ĠS UB
sm art
datab ind
Type Id
Ġdata frame
temp or
" };
O IN
arg o
transform s
ĠImport Error
B in
Ġresponse s
Ġ" \"
ĠB ook
=" _
X R
? ",
put er
b an
f requency
Ġdepend ency
å¸ ¸
B N
de cimal
Ġstart s
hav i
In line
sp aces
/ <
; "
Ġs uc
ĠE mail
Ġmark et
L ES
on Create
Ġtable Name
') }
Comp any
control s
OUT PUT
D d
Com pound
util ities
Dispatch er
= >
Ġs ong
Be havior
SD K
ĠB atch
iz able
e very
amil ton
Sm all
ival ent
g iven
tool bar
Max imum
Ġrot ate
ĠS l
B S
ApiModel Property
IN I
Ġc f
c ule
set Id
t ake
Ġt ol
as array
ĠDE AL
ĠB SD
OR IZ
Pos itive
Ġcon verter
ĠL E
Ġhost name
Ġhand lers
net ty
T ax
m ong
æŁ¥ è¯¢
ed ores
Ġcontrib utors
Ġsepar ate
T w
co v
con sumer
P ause
place ment
Collect or
ĠPO ST
ENTI AL
le ave
AC TIVE
un pack
prediction s
ĠG it
ĠA L
do es
C lip
M utable
Ġ( %
LI MIT
Read Only
V EN
get Node
ac on
Ġde tection
Ret ention
S em
Ġsubstant ial
S ig
po ver
django project
C ACHE
per ience
crim inator
d v
Ġdoc s
uggest ion
D P
Ġ Entry
de cl
Ġparse From
Iter able
pe ech
set Title
ĠS top
sw ig
fire base
s parse
Ġp df
P ACE
code c
brid ge
poss ible
M UL
dig est
E mployee
++ ]
ä» £
ag ed
to List
my batis
enum s
ublic ense
SH ORT
so ftware
ãģ ķ
M Y
tem pts
Ġsup plied
ĠAUTH ORS
| ()
in p
lic es
Ġs ublicense
åĪ łéĻ¤
ĠTime Unit
Ġnormal ized
Media Type
ĠDEAL INGS
Ġ ĊĠĠĠĠĠĠĠĠĠĠĠĠĠĠĠĠĠĠĠ
Ġc ms
Ġar c
rece ive
ĠE ach
lat itude
Ġ ERROR
LO B
W in
Ġatt ention
CONT ROL
Com ments
s y
ends With
Con sole
D ot
Ġ( [
ME M
Ġthread s
) **
ĊĠĠĠĠĠĠĠĠĠĠĠĠĠĠĠĠĠĠĠĠĠĠĠĠĠĠĠĠĠĠĠĠĠĠĠĠ ĠĠĠĠĠĠĠĠĠĠĠĠ
Gr upo
D er
Bl ue
ĠLink edList
} ));
f ee
st ation
ĠCON TRIBUT
(/ \
ĠNON INFRINGEMENT
L ATE
U id
Est ado
? ',
Extension Registry
Hand lers
Ġre peat
entry Set
sess ment
Ġre ferences
author ization
IS H
fl ate
k ill
x i
Ġget User
Ġ", "
Ġ' ');
ad oc
Ġfl at
ĠSE LECT
B i
s park
uplic ates
pri se
sk ill
ç¬ ¬
çĬ¶ æĢģ
Ġs pect
æı Ĳ
ST EM
ĠAnd roid
b uy
TI P
Pl us
Qt Core
Ġwh ole
host s
j Button
Ġex change
N LS
n ick
Ġab ort
sub process
ram mar
Emit ter
min utes
ĠCONTRIBUT ORS
e ction
ar ity
Ġb i
Ġx hr
ic ult
Ø§ Ù
Ġst ock
te in
J av
ĠF etch
g d
}/ >
de ployment
h base
set Data
img s
CI AL
m oid
Ġm iddle
Pr incipal
Ġs uite
M ake
ç ķ
æ ¡
ĠG u
section s
compare To
h p
Token izer
Ġmod ification
Ġcallback s
C ID
ĠS ample
Ġpro duction
R M
Ġtool tip
Ġb usiness
Depend encies
% ',
ĠIn st
, (
Code d
r atch
OP EN
Poly gon
ri ends
in struction
Ġhand ling
ĠArgument s
is k
Ġa ir
Ġover write
set On
Ġst ar
ĠA T
tem perature
Reg ression
upt ools
A udit
ri ction
c as
éľĢ è¦ģ
ip edia
Ðº Ð°
Ġs s
C ENTER
mov ing
ä½ ĵ
Ġm apped
az el
AMP LE
ĠCheck s
Call able
Ġ// $
ä¿® æĶ¹
I AL
or ientation
apt or
; /
C AP
Def ined
ĠCon nect
Ġse n
Ġperform ance
Ġc apture
Ġdocument s
Ġauth ors
pared Statement
ê ¸
De leted
\": \"
Ñ İ
ð Ŀ
D en
o sen
file Path
d ensity
w arnings
u er
id ade
get Width
St eps
č Ċĉĉĉĉĉĉĉ
ĠRES ULT
A ir
A verage
Ġget Value
et ro
Form att
p ixels
Ġt ax
index es
($ (
ĠS m
track er
ENTI TY
w ater
ĠRequire d
ĠOther wise
à ¹
Tag Name
ĠC ar
½ æķ°
sc hemas
set ObjectName
ĠAt tributes
ia lect
âĢ Ļ
Log s
new Instance
C ycle
N EL
Ã ¼
Ġtr im
s at
V T
Ind ices
sc aling
Ġ{ /*
symbol s
ĠT y
inu ous
Ġ{ *}
Ġinclude s
Ġ Â
valid ators
Instance Id
Or Callback
ì ļ
Term inal
Mod ify
n th
pl ane
ĠDim ension
= ",
Ġsc heme
ĠSh ould
ad just
ĠAuth entication
get Block
ab y
Ġ/ =
âĸ ĳ
Tr aining
Ġhy per
son g
time zone
Ġs imulation
k afka
ä¸ ²
Cap acity
On ce
Ġconstraint s
, ))
ax ios
mask s
long itude
Ġc are
ff f
sh apes
S W
Al arm
Ġap pear
Ġf mt
Res ize
Ext ensions
multi ply
cid ent
res olution
Action Performed
åħ ĥ
cap acity
F ROM
ç ľ
Ġse m
ĠH E
P tr
ĠR ange
QU AL
key words
',[' ../
C tx
Ġf req
Ġurl s
tr an
Ġnot es
Ġre tain
\/ \/
Al ter
ĠM o
Model s
tr action
red ient
Ġn avigation
y ellow
Ġg reen
EN S
Ġpop up
Un its
AC CESS
Ġcheck ing
C lock
ĉĉĉĉ ĉ
Ġs urface
see k
å¾ Ĺ
l v
Ġor d
d ense
ê ²
Ġkey words
res olved
ĠP assword
Ġnested InnerQueryParseSupport
ĠH andler
vis ibility
imit ives
ĠByte Array
ind icator
Ġv ery
Y our
ĠB inary
Ġnew Value
ĠM icrosoft
B AD
pre ds
aly ze
av ar
char set
Sto ck
: ")
Ġindex es
Ð» Ð¸
æį ¢
und o
AB ASE
Ġc ertificate
ĠĠĠĠĠĠĠĠĠĠĠĠĠĠĠĠ ĠĠĠĠĠĠĠĠ
T urn
e ql
Ġg ulp
h ar
get Height
Cl azz
"> {
set P
Ġg ive
O URCE
cre ts
Ġm ar
TI V
g em
s ock
tr uth
Ċĉ Ċĉ
Ġ[ {"
co ped
çĻ »
ATE G
Mov ie
') {
key Set
ª Į
igr ate
ĠC ell
Ġfl ush
Writ able
m usic
ĠC ore
ĊĠĠĠĠĠĠĠĠĠĠĠĠĠĠĠĠĠĠĠĠĠĠĠĠĠĠĠĠĠĠĠĠĠĠĠĠ ĠĠĠĠĠĠĠĠĠĠĠĠĠ
An im
Spec ification
_ {}
or se
LO AT
, ,
Ġfl atten
mod ify
ĠS ql
Bl ack
Ġ ic
Ġtool s
z A
iv ar
ag ram
PRO JECT
SET T
Ġcon version
File System
ov a
Par cel
P G
re cv
ç³ »
ĠForm at
H ot
I OS
ĠD own
Ġ% %
ph rase
ExtensionRegistry Lite
m as
á º
Ġcall er
Edit Text
? [
y o
proto c
Ġs yntax
}, {
deg ree
Ġres pect
per f
S G
Ċ Ċĉĉĉĉĉ
ĠC alculate
Ġformat ter
æĽ ´
H H
az e
ĠCl uster
H idden
Num bers
set Font
Input s
per im
Ġauthor ization
Product s
r er
embed dings
P UB
Character istic
Ġ" \\
(" ")
ec es
Ġpost s
Wh ere
Grad ient
Ġp g
Ġf unct
get Selected
head s
Extract or
ĠN UM
": {
ç® Ĺ
R ound
ann ing
Gu ard
po ses
ES SION
utor ial
T i
ĠC SS
F oo
Ġseed u
th ers
Mark et
Bl ur
ĠC L
con cept
Del imit
depend ency
Ġde precated
d id
c amel
Ġsc alar
Ġ ĉĉ
Ġparse Float
A nt
M ARK
on line
F ollow
ĠO P
min imum
ĠSer vlet
S yn
p od
ch arge
Field Builder
Ch ooser
={ (
_ [
Ġcall able
lin space
ist ant
Ġnum eric
write Field
Implement ation
at trib
ĠC ur
Ġw ave
Re vision
g lyph
Ġs alt
ĠSte p
C AL
Rece ive
C ent
art ist
Me an
un i
L ex
Ġr c
Rout es
I ZE
P ACK
bar s
ç¼ ĸ
Ġhapp en
b ur
æ ¸
TR UE
j j
an alytics
ĠCor poration
contain ers
Ġget Data
Ġj oint
Th ere
CHAN GE
Ġd c
RE T
ĠM ET
QU E
æŃ £
æ º
Item Stack
exp anded
response s
Ġt oday
session s
? \
FIR ST
· »
start ed
Cl aim
Ġ archive
Ġh over
num eric
f w
PI PE
ech a
Ġr u
save fig
retrie ve
p rom
ĠR etri
Ġloc ations
Prev ious
Ġ ing
tern ative
Ġinvok ed
re ction
Ċĉ ĠĠĠĠĠĠĠĠĠ
ĠC A
ĠP lot
AN Y
Ġ ------------------------------------------------
ab bit
r ain
at ives
SO URCE
distrib ute
[ @
Ġro spy
å½ĵ åīį
d rive
('/ ')
æ ĵ
ĠMock ito
Ġc lock
re w
Ġb and
Ġal loc
Act or
set Background
Ġhel pers
al ty
b enchmark
å¤ ļ
ve hicle
ializ es
sql ite
Ve locity
o ct
Ġth ird
I ME
b roadcast
iter ation
éĶ Ļ
Ġp ull
get env
ãģ ĵ
ĠI E
ĠRout e
de ps
åı¯ ä»¥
ex act
F it
m ay
Ġqu ote
out ube
lap sed
off er
d h
Ġmatch er
< >
ab ly
Ġvis itor
Doc s
ãģ Ĥ
F B
S HO
Ġ% .
åħ ¨
H our
g ender
r p
ĠBit map
Ġg uild
Ġas k
ï¼ ģ
st able
h ere
Ġbit Field
D L
Ġse p
aff ic
l m
im show
Path Variable
Comp are
Ġarg v
Ġdiv ision
' ll
ç ¡
lic ations
Ã³ n
·» åĬł
is Null
un tries
ĠF low
Card s
é Ĵ
it elist
itor ies
b ing
d it
? ,
Ġh int
S olution
| }
order book
ĠOb servable
Ġt b
// #
sw ap
äº ĭ
ĠExec ution
Tick et
Arch ive
Se e
Not ify
w est
pro viders
los ses
Ġg oog
Ĥ ¨
ro c
Red is
rece ived
re cipe
th ree
Ġ/ ^
col l
Ġto gether
AC H
find By
or acle
Ġre act
(' {
Ġi i
FUN C
S yntax
ĠM ov
Ð ¶
Ġf urnished
ew idth
å± ŀ
ìĭ ľ
ild card
n f
find ById
VIC ES
ad r
-------- -
Ġtrans lation
get Date
çİ °
rag ments
find All
al g
------------ -
ĠS ingle
ĠRem ote
local Storage
element At
Get Mapping
ĠFile s
Ġcur ve
style d
=" +
op eng
Request Param
er os
D emo
Ġout side
re ports
re gistration
tr unc
ach es
ãĤ Į
Ġsql alchemy
e led
Cont ains
getS imple
asc ade
Ġtem perature
document s
callback s
S lice
ĠP op
it tle
ple table
å¤Ħ çĲĨ
L ng
t ex
Ġget ting
Place ment
cre st
* .
Ġwh o
")) )
[ ^
p v
lo pe
s ampling
spec ifier
Cond itions
Ġembed ding
ë ¡
Ġmov ie
p ur
ĠX ml
ater n
LOC ATION
ĠEnv ironment
C ert
get Resources
ĠM ongo
e per
Ġc nt
AT URE
Match es
PRO P
Ġsymbol s
in strument
Ġp ause
g old
§ è¡Į
=" '
Ġ ke
Absolute Path
IN TEGER
En umer
Del iver
å¯ Ĩ
é ķ
Ġd ifference
Ġn g
Ġlon ger
Inter faces
Ġcap acity
ig ure
ĠC opy
Ġen ough
Ġve locity
inger print
De precated
S ink
AT ER
ĠTr ack
FO UND
ul ator
ID D
ĠÐ ·
æīĢ æľī
pro jection
"] ),
soft max
ul ary
un ion
Ġ\ \
é¢ ĺ
pl ine
AX B
() )).
Ġa ux
Ð¾Ð ¼
Ġenumer able
F ast
G att
Back up
ĠCont rol
åĩ ½æķ°
Ġh orizontal
Ġab c
nowled ge
V ED
h m
toHave Been
ì §
Ġt ail
Ġconnection s
re moved
Ġr x
Min utes
Ġl st
E AR
Ġpart icular
spec ies
ĠĠĠĠĠĠĠĠĠĠĠĠĠĠĠĠ ĠĠĠĠĠĠ
R F
b m
ĠA v
Ġj SON
Config s
Ġt i
at ures
C al
level s
back ward
PO SI
++++ ++++
Ġ escape
br and
æĿ ¥
ĠT ab
Ġar row
Ġ". "
tr ade
Ġde tected
T re
à ¦
Ġind icator
k m
Ġfile Path
ĠO K
ORM AL
el ih
B o
p rior
un squeeze
an sion
ser ialization
ĠSc ript
p al
Re ached
add Group
we ets
Index Of
ak y
Ġwh ose
! "
Com bin
H it
pro val
pro vide
> ".
Pre senter
h z
Ġde limiter
Ġval or
Ab out
man ual
k v
' m
Ġw on
air line
ĊĊ ĊĊĠĠĠ
L i
æĸ Ń
cent ral
" ',
f its
ä¸ »
Ġany thing
Ġæ ĺ
pre f
b ench
ĠT eam
Rect angle
ĊĠĠĠĠ ĊĠĠĠĠĠĠĠ
Ġ ut
elih ood
Ġb o
Ð½ Ñĭ
ic ial
; }
ĠS PE
w a
Tr ade
est er
ĠM ar
ER O
M C
Ġl ive
( <
Ġfile path
åº ĵ
{ \
qu eries
Ġj wt
ãĤ ¤
={ }
Inter action
è¡¨ ç¤º
U int
Ġl azy
Ġct ypes
ĠN ow
Ø ±
Ġatt ack
os p
Ġs sl
fl ash
F ake
g ap
feed back
TIT LE
Ġtrans l
ĊĠĠĠĠĠĠĠĠĠĠĠĠĠĠĠĠĠĠĠĠĠĠĠĠĠĠĠĠĠĠĠĠĠĠĠĠĠĠĠĠĠĠĠĠĠĠĠĠĠĠĠĠ ĠĠĠĠĠĠĠ
ĠT ry
en a
ad in
CS V
on Change
Ġin herit
lock ed
c alcul
Ġb elong
qu is
fin ity
r ices
s ive
Service Impl
Ed ges
es lint
SE QU
Ġl l
d ns
E LEMENT
Default s
bl ur
xx xx
USE D
ĠChar acter
Ġsp aces
Ġ' \\
Ðµ Ð»
C ES
Ġæ ł
Ġn x
function al
Ġadd resses
L azy
spe ction
n u
Ġse en
k b
IC E
E poch
Ġh ard
Map s
Ġseg ments
Con version
Ġsin on
B ank
sh ips
æ Ļ
Pro pagation
ig gers
pro duce
Ġ! (
Ġprocess or
click ed
apt cha
ub ble
ĠDef ine
seg ments
Ġre cent
Tem plates
VAC ANT
Ġsh own
rece iver
âĢ Ŀ
ĠDec imal
ĠF r
atter y
s ib
Error Message
stat istics
im ap
Ġs izes
curr Pos
cogn ition
Orient ation
deep Equal
c us
vent ion
et o
Ġp ub
Ġs ound
Control s
q t
Ġclass ifier
Lay ers
Ġoc curs
to Fixed
Out Of
Ġiter tools
ĠCon d
Project s
y arn
é »ĺè®¤
' d
al ways
ĠLe vel
Ġdisplay ed
y ou
Ġp w
Spring Boot
Ġd d
Ġext ended
Ġterm inal
v ation
De code
Ġlink ed
slot s
g ot
ĠA tt
Com parison
ãģ ¤
text area
AL SE
Ġtem plates
sol id
Ġt p
Ty ped
+ \
BUT TON
sol ver
i ated
") {
s age
ass ignment
com bo
(? :
M ag
Ġp layers
Start Time
Ġ/ \.
n h
= ',
ud ents
se udo
p ix
f ort
o logy
ĠP ackage
Att ach
dig it
éĻ Ĳ
f iler
Ñ Ī
Option Pane
app le
DO C
Ġ ÑĤ
Ġf amily
Do es
() +
Ġget C
m eth
ĊĊ ĊĠĠĠĠĠĠĠĠĠĠĠ
ĠG o
Ġpredict ed
W ill
> ')
t one
Ex act
F ACT
and ra
Run nable
ĠJava Script
Ġget S
į ä½ľ
Hel pers
add le
Exp and
R obot
dim ensions
Ġsign ed
MB OL
([ ])
T ASK
Ġfont size
' });
/ \
ĠS V
ĠT EXT
Ġdefault dict
format s
Work space
ializ ing
R PC
k in
Ġ ant
scale d
Auto Field
m ongo
Count s
Ġepoch s
toHaveBeen Called
l iterals
Sp inner
} (
)) ]
ĠEx tract
Runtime Exception
cre ator
åĮ ħ
ãĤ ī
ik i
sk top
z m
Ġt ear
ĠH amilton
clean up
: ],
CL A
im s
ĠIN TO
SUPPORT ED
b ac
Auth enticated
Feed back
g ames
Re view
key Code
qual ity
n os
Ġ ĊĠĠĠĠĠĠĠĠ
and atory
et ype
Ġp m
ĠCom ment
a id
Ġre view
éĽ Ĩ
L ab
n itude
Account s
ul er
len ame
res ume
Ġsh ip
grid BagConstraints
eder ation
f usc
Th rows
ain ed
æ Ħ
Str ict
! \
stit ute
Con struct
è® °
bul k
vision ing
w av
as pect
Ġen c
ãĤ ¯
ot ing
(' ')
Ġproject s
éħį ç½®
f ish
ĠP si
ĠF ragment
Ġclean up
Http Status
ĠFl ask
ĠAttribute Error
ul ated
Å Ł
Ġhe alth
}) ();
Ġtemp file
Ġh ot
AT TR
Ġd uplicate
Util ity
c er
Cor rect
M vc
d store
Pro ve
D rive
local s
'] }
col lapse
ĠCh at
Ġpre tty
Xml Element
ut s
ĠD on
em ployee
web kit
Ġ il
Http Response
ordin ator
Av atar
ĠByte Buffer
perim ents
QU ERY
L in
P PO
Ġval s
sub set
ĠIN TER
Decor ator
Ġmulti plier
Ġf il
Ġs prite
token izer
Ġs y
ĠC LI
Sub scriber
"] ').
Ġcl aim
Wh ite
dig its
Ġ" :"
Ġbound ary
Ġpre view
Ġso ft
Ġre cipe
Ġc pu
æľ Ī
ag g
Hash Code
term inal
normal ized
spec s
j Panel
a udit
x hr
() ];
è§ £
E s
f rozen
-- )
An imator
Cl one
Ġxml ns
C ross
Ġent ire
s z
Ġc oin
Ġis Valid
Ġp ref
BU FFER
Sk ill
èĢ ħ
SV G
saved InstanceState
åĽ¾ çīĩ
Ġeps ilon
Ġon es
Det ector
S ur
n py
class ification
Error Code
Ġmap s
S ome
l c
set Timeout
Se ed
Element Type
Ġass ume
set Block
ĠT AG
gu ide
. %
ĠW ord
sh ard
We ather
Ġtrace back
è¯ ķ
Ġchar s
U AL
Ġ/* #__
ç»ĵ æŀľ
ĠFI X
C redential
m isc
ĠQ uest
Ġp ress
ĠV ert
getSimple Name
s lip
Ġb ins
G T
èĬĤ çĤ¹
Boolean Field
Ġn a
Sh op
Spec ial
][ <
čĊĠĠĠĠ ĠĠ
Ġass ignment
mun ication
Ġout file
T abs
Ġin tegr
Bound ing
d anger
Transaction al
T ARGET
O ps
ĠT Type
čĊč ĊĠĠĠĠĠĠĠĠĠĠĠĠĠĠĠ
dis connect
post gres
Ġchunk s
decor ate
ĠC SV
Ġget Class
Ġmemo ized
=' /
- {
AM L
CO M
PON SE
res olver
de legate
Ċĉĉ Ġ
` \
Ġa i
W alk
alo ader
S py
pt ime
Ġmet avar
Ġass um
Ġf h
Un expected
=[ ],
å ķĨ
p ch
at able
get item
ĠOrder edDict
() ])
Ġde serialize
Ġpop ulate
uggest ions
Ġi de
cont rollers
ç® ¡
d on
st amp
is p
ĠJ Panel
Ġtime delta
æĿ ĥ
Place holder
v ote
ham crest
ì Ĭ
Co ords
Callback s
Ġre gistration
ĠS ize
ĠT R
ĠJ Label
( .
æĪ ĸ
ĠN on
Request ed
ar ios
stream s
st aff
Cache d
å ¢
Ġ ĊĠĠĠĠĠĠĠĠĠĠĠĠĠĠĠĠĠĠĠĠĠĠĠ
get Source
Ġm aint
u an
R B
Ġre pr
Null PointerException
Ġprob ability
In strument
ĠAn notation
j p
ob servation
ĠOr g
UNK NOWN
g oto
re ached
RE AM
o a
ĠD eb
Pro pTypes
sen ger
t age
ĠB ox
y ield
fl uid
AD MIN
Ġqu ick
Ġdig its
Ġin ventory
d og
é ªĮ
ĠC lose
Res olution
Log o
ĠSt atic
ä» »
OP TIONS
r r
Ġfield Name
e asy
riv acy
Ġsh a
Comp iler
Ġep isode
STRU CT
ff t
C ALL
pred icate
Re cyclerView
plan es
ĠN AME
ag ents
Ġf allback
in ing
Check box
M em
ĠS um
Add itional
un nel
ĠB ot
if rame
Ġth ings
ĠG iven
Ġse parator
ug e
Pos itions
w as
Ġm ass
Access Token
ĠIn stant
is dir
get Child
Ġd ropout
U nt
Ġcalcul ated
ĠĠĠĠĠ ĊĠĠĠĠ
Ġdata Source
Com pute
ĠV irtual
ib er
m or
un to
Ġph i
Ġw ire
let ing
H over
Ġrelation ship
Pro tection
Ġpro d
Connection s
G P
w i
ê ³
id ing
ĠN ormal
ex ion
Ġm c
č ĊĠĠĠĠĠĠĠĠĠĠĠĠĠĠĠĠĠ
ub y
Ġproper ly
number Of
ax e
Ġover flow
Part y
arg max
Ġequal To
ad j
Ġw alk
åŃĺ åľ¨
Ġr hs
OT E
ãģĻ ãĤĭ
CH O
Ġlong itude
ĠEd ge
Ġpattern s
ins pect
atom ic
Ġaff ili
g al
ĠM ove
Ġreject ed
Add Version
ĠData Frame
Ġrender ed
ĠB r
Ġt ech
Ġsub set
sens itive
ĠR aises
Ġim p
Ġtoken izer
Ġd i
ta u
Å £
Ġj o
ĠO p
iv ative
Ġc d
')) )
P ublisher
Ġs it
LOC AL
ĠA C
Pro vincia
En ergy
â Ī
Pro d
Prototype Of
sp awn
Ġcontrol s
m oney
mong odb
` `,
View Group
Ġin correct
ĠAuth ors
Ġtempor ary
Ġan im
Ġsend ing
Ġident ify
Query Parser
is ation
Ġ --------------------------------
Ġav atar
ĠM IN
get Last
In tegration
æŃ ¤
: \/\/
r ink
urren ce
R ating
PE CT
(" \\
E F
plor er
B rand
ĠAl low
COMM AND
SCH EMA
M gr
m emo
ĠD el
Pro jection
Ġtest Get
ey e
u z
FIL TER
k top
æĿ ¡
assert Not
iol ation
assert Null
Ġsub net
run s
ĠIm plement
Fl ux
Ġf c
N G
h xr
ĠAdd s
Ġget ter
Ġco lour
ass andra
phab et
æº Ĳ
L ANG
ul let
re maining
tr ip
ĠP air
Lock ed
igu ous
ick ness
Def initions
ä¹ ī
ĠBuffered Reader
l wjgl
Ġor ientation
Ġbuild ing
æķ Ī
i ot
s yntax
azel cast
nav bar
ĠID s
f link
ot ed
ÑĢ Ðµ
al bum
ĠF ore
batch es
âĢ Ķ
Ġorder ed
Ġp aint
lin ux
deep copy
Ġle af
" /
get Color
åı ĺ
Ġimport s
OL D
[ ...,
ur b
np c
ĠTh en
Des ign
S uffix
Ġs i
Ġd ates
A UTO
c are
Ġv ectors
ãĥ «
uetooth Gatt
distrib uted
] |
ê µ
log ies
DO MAIN
Ġ' ;
t weet
Ġinit ialization
Ġiter ations
Ġwait ing
Ġunder lying
cook ies
Ġm obile
end a
å¹ ¶
æĥ ħ
Ġde claration
her its
Ġt ar
Ġ< >
MIS SION
Ġlat itude
Ġtrans formation
Ġ ES
DE VICE
Ġ` <
ĠĠĠĠĠĠĠĠĠĠĠĠĠĠĠĠ ĠĠĠĠĠĠĠĠĠĠĠ
Ġk w
tern ate
j it
read cr
ĠO ff
Ġscript s
Ex ports
ç» Ł
Ġre main
ug ment
E v
Ġ iv
ir ing
t an
res id
entic ator
tensor flow
B M
ĠÐ½ Ð°
M eter
pag ination
æĶ ¯
get Config
... ");
querySelector All
up grade
Options Define
Ġg ene
Ġget P
% ",
c ript
t imest
å ģ
Ġe ff
ET CH
ĠEd itor
ĊĠĠĠĠ ĊĠĠĠĠĊĠĠĠ
Ċĉĉĉĉĉĉĉĉĉĉ ĉ
B ridge
Ġevery thing
; //
et ched
find all
Style d
I X
Ġg ap
cs rf
T ES
Res p
in ate
Sc alar
connection s
Ġp ip
Cap ability
at ile
Ġc ube
G ate
get T
py i
y l
F X
length s
wik ipedia
¾ ç¤º
DE P
il ine
J o
ag gregate
Ġb b
Fix ture
M appings
LI GHT
f abric
Ġ à¤
parser s
eps ilon
co lour
ĠEm pty
ore d
AddVersion Parent
r anges
¹ æį®
ĠC ase
Illegal ArgumentException
an ty
get File
ent ropy
Match ing
Ġle ave
/ ')
ĠTree Node
Ġc red
ed is
nost ic
Ġan not
is Present
Ð½ Ð°
w ire
check er
AB C
ar ter
Ġ{ //
Le af
ĠVer ify
en ance
ĠT erm
add ActionListener
li ver
Ġim mediate
org an
iter ations
ĠTest Case
reg ions
e valuation
fo od
Class Loader
Start ing
(" {}
abstract method
up dates
M ut
ĠEn gine
//////////////////////////////// ////////////////////////////////
ĠPos ition
uc ers
('/ ',
gorith ms
Ġg ithub
rib uted
b ut
Ġs olver
IG H
........ ........
getDefault Instance
}) (
Loc ations
################################################################ ############
ĠE lastic
WR ITE
Ġ ul
atern ion
s alt
is ions
get Activity
Ġcomb ined
é ļ
global s
ĠSimple DateFormat
pat ient
M EN
ĠBlock s
set Up
ĠPro gram
TIC AL
ĠMet adata
Json Object
ĊĊĉ ĠĠĠ
Ġsecond ary
F requency
ibr aries
T AB
ĠRE QU
np m
Job s
ĠFI LE
com pose
Ġ'../../ ../
form ance
Dig est
bul let
Ġph oto
A ff
AT TRIBUT
Sub type
pl ash
================================ ================
qu it
Ġman ually
ĠM ult
Handler Context
Ġlicense d
Ġclick ed
Ġtear Down
j peg
Ċ ĊĠĠĠĠĠĠĠĠĠĠĠĠĠĠĠĠĠĠĠĠĠĠĠĠĠĠĠĠĠĠĠ
H AND
Ñ ī
č ĊĠĠĠĠĠĠĠĠĠĠĠĠĠĠĠĠ
or Else
chunk s
uc le
New s
inter action
Ġaffili ates
f our
Ġve hicle
Parse Exception
Ġin p
] '
() -
ĠW ith
B inder
D amage
HO ME
tr ust
Ġcorrespon ds
) </
... ')
SI B
( %
ĠG O
ĠSw itch
com puted
ĠV ER
! ',
è¾ĵ åħ¥
te gers
ĠB ad
čĊč Ċĉĉĉ
comm ended
dis pose
Ġpe ak
é «
Ġre levant
t el
(" ""
Ġfl ash
} ))
um id
msg s
~~~~~~~~ ~~~~~~~~
P ick
UR ATION
R IC
get Children
ĠC art
sp in
arr anty
al formed
Le ave
S hell
Ġg round
s pon
s ocial
it a
ft p
For Type
n lp
Ġin tern
set Style
Fact uras
a ud
View Model
AT T
Ġgo ing
Executor Service
è¯ ¯
ic ing
OP TION
å° Ĩ
ĠA DD
t body
get Boolean
s uc
th umb
Ġd ocker
Ve hicle
ct ype
get Full
De c
N ER
def initions
G I
Ġ*/ }
ĠV ideo
æĵ įä½ľ
get Max
WE B
graph ql
Be arer
SY MBOL
TEMP LATE
b asis
ĠC RE
" '
Ġup grade
set Type
At tempt
rivile ge
in ja
im o
lo od
ip v
w c
ĠH ost
Ġover lap
ĠExpect ed
C at
S UM
\" \
pletable Future
h ive
get Request
Deser ializer
Ġe valu
Ġob server
L INK
ĠI M
percent age
get Connection
Ġg ov
=' +
Ġadd s
wait For
st o
min us
Ġcode s
irc ular
Re ferences
}> {
iz z
ãģ ¿
################################ ################
[: ]
pear ance
Ġ è®¾ç½®
Ġcom m
ĠB ar
ĠAl so
wh at
Cell s
Com plex
ĠM ust
Not es
H S
par able
åŃĹç¬¦ ä¸²
af ari
) },
it i
key board
Ã ¶
st reet
Ġas sets
Ġta ken
alib aba
Ġover lay
Document s
cip es
Qu ant
Gener ation
insert ion
iz ar
over lap
art beat
Ad just
ur ther
Activ o
al one
ST OP
t cp
Ġf lip
Ġst uff
Co ordinates
get First
Ġconnect or
h ance
pa lette
æī §è¡Į
om b
": {"
Symbol s
hib ernate
ch h
ĠS ome
Ġsc enario
att achment
SY STEM
Ġnd array
M id
S dk
P W
int Value
Ġcontain ed
Atom ic
Ġtr an
åĪ Ľå»º
URI Component
O Auth
vers al
' <
em a
ĠM ay
'] ).
ĠS im
sph inx
BL ACK
subplot s
Content View
Ð¾Ð ±
N IL
Ġs al
Ġmin ute
Mapping URL
Ġct rl
as se
Ġre load
Ġg ateway
S vg
m v
Ġtime zone
Ġget Type
Ġac ross
Ġdecode d
ĠBig Integer
ĠNumeric NodeId
y r
Ġreg ions
Get s
not ifications
Ġreplace ment
ĠA x
greg ator
Index QueryParser
Group Id
ĠSup port
ĠWindow s
Ù ħ
Sh ip
cd n
PRO CESS
O XY
h its
idx s
C LE
h h
EST AMP
slip page
IndexQueryParser Tests
Ġ' );
Ġsl ider
A TIONS
med ian
Ġt imest
Ġre v
Ġiter able
P ad
Ġgu ess
M otion
Ġres olver
Event Handler
Track ing
Ġf e
node Type
Un defined
Fin ish
Ġp od
Im p
x html
ĠString Buffer
User Name
Ġdat as
Ġquery set
NotFound Error
read lines
FIL ES
Ġsim ilar
is er
parse From
S ri
Rest Controller
UST OM
**************** ********
Ġ ĊĠĠĠĠĠĠĠĠĠ
ĠR ad
Ġpermit ted
Log ged
ro ken
Ser ial
Ġsource MappingURL
CK ET
Dim ensions
RE L
get In
ĠT w
Ġob servation
icult y
Facturas Prove
replace All
Ġfr action
ext ended
field Name
Ġth ing
C am
Ġs olve
ph otos
Pl ain
d up
Ġb uy
Ð¾ ÑĤ
çŃ ī
set String
ĠHel per
Ġp print
Ġin coming
Ð¸ Ñģ
Sort ed
Ġatt ached
R EST
OXY GEN
} },
AC COUNT
work ing
play list
Ġlevel s
Ġstride s
ĠString Utils
ach er
RO P
ĠT itle
è¿Ľ è¡Į
ĠĠĠĠ ĊĠĠĠ
Ext ended
ro ck
Con s
Version s
Th en
ĠCont roller
l u
oc c
sub mission
ĠKey word
ĠÐ ¼
row n
el ines
Ġinter action
ĠSet up
/ ,
Ġsw ap
Ġfunct ools
L atch
velo pers
ë Ĭ
SP ACE
ç´ ł
Ġcert ain
Ġcomb ine
Ġb id
ab ort
ense mb
Trans l
Order s
n m
String Builder
Ġlist a
M ongo
uc ation
+" /
get AbsolutePath
ĠInter face
Ġin place
Author ity
) ";
pre trained
transform er
ist ency
res net
=" ${
M oney
get Local
s ites
) ==
f riend
st e
ch es
Ġf our
ĠL o
Attr s
Gre ater
ĠS IG
Qu eries
Off er
ĠVAL UES
M ARY
Ġ{ :
N ORMAL
ch ag
Ġen crypted
vis or
he o
De cl
) `
b ow
Init ialization
un ary
ç®¡ çĲĨ
* ",
aj e
q q
Ġt t
B I
Dis able
Ġc wd
Ġre vision
pk l
tempor al
ĠP OS
Ġmargin Top
| =
make Text
Ġcontent Type
****** *
YY YY
tr ast
decor ators
á Ħ
Ġt gt
op ens
dat ap
M anaged
Ġre distribute
Ġse l
ĠExample s
Ġtuple s
Batch Norm
á ħ
data frame
her o
Inter pol
Ð½ Ð¾
termin ate
Relation ship
Ġo thers
F LOAT
Ġ" ${
Remov ed
In s
out line
Ġle x
Ġm uch
pre ads
dk v
j q
Ġ$ ("
be havior
get G
Ġset attr
ken aa
State ToProps
g ain
ch ai
Ġpop ulation
ĠS M
y a
Ġc x
ĠM er
L etter
init ialized
Ġpl ane
ok u
He ading
Ġre start
mod ifiable
cor r
Init ialize
B IN
th umbnail
Ex periment
Ġg ui
ĠT otal
tag Name
Fore ground
å· ¥
CONN ECT
ob js
TR AIN
F D
Ġc aption
ke leton
Ġdef initions
pop ulation
Ġp b
ĠF ace
Ġjson ify
Ag gregation
W IND
SC RI
P si
Ġre ally
ĠJ Button
ait s
Ġstart Activity
As sets
point ment
Ġget Current
aaaa aaaa
n ight
w l
Ġ esc
read line
BO X
Ġbot o
Ġ ####
to JSON
Sp acing
Big Integer
ç½ ĳ
Deliver y
Ġreturn ing
In crement
getElementsBy TagName
Ġreplace d
w ill
æĮĩ å®ļ
Require ment
:` ~
Ġtr ade
Percent age
S lf
App end
ĠSh ared
Ġs parse
ĠR EST
+' /
I RED
C URE
Ġd ark
O pts
Ŀ å§ĭ
Ġp ersist
_ '+
cl azz
tick et
N om
pl aint
EN AME
Ex cel
pers ist
ob e
ĠSc hedule
Ġpe ople
Ġde grees
__ ))
ĠN ames
read only
Ġ? ,
Ġfloat ing
O c
C lo
Ġser ializers
Not Exist
ĠU ri
åŃĹ æ®µ
Ġindic ates
Ġuser Name
Ġh ope
=" ",
ED IT
Ġpro duced
DE CL
Ġspec ifies
Ġs low
B AR
neighb ors
In Progress
Ġq s
é¡ ¹
ĠM emory
ĠH as
CLA IM
OD S
m eter
in flate
ro i
Ġbound ing
p icture
Index es
transl ated
Ġin tegration
me ans
An alyzer
Ġn or
comp ressed
get R
ag em
Ġdef ines
Ġresult ing
c jh
¤ æĸŃ
d ap
e or
Ġs r
atom s
FAIL URE
Ġde mo
å ¦Ĥæŀľ
ĠC UP
'] ):
cor pus
F XML
C MD
Ġ' }
li x
Tr a
() >
Ġp p
Ġc ircuit
Ġe u
Ġcol l
Ġem ployee
ãĥ ĥ
Ð¾Ð º
Ġ čĊĉĉĉ
- '
j as
he ap
FacturasProve edores
Ġc redential
ĠA udio
P AY
(' ',
ĠMO DE
Ġ$ ('<
F OLDER
t ap
pre t
raw l
éĢ ģ
B and
p ublished
RES OURCE
æµ ĭ
^^ ^^
Ġ âĶ
ĠP RI
Up dates
commun ity
is Set
bot h
ĠValid ate
Ne ighb
Expect ing
el m
ĠF ast
Wh at
F ALSE
In to
fr action
? "
def s
Ġm v
Test Utils
Init ializer
list eners
read FileSync
Ġclass ification
END ING
ĠO B
rap pe
nom bre
: {}
is NaN
scroll Top
TERN AL
tr ins
Ġso up
Ġtr unc
pre tty
trib ution
CUR RENT
P ull
ign ite
stit ution
so up
re present
ĠA PP
fr ac
ĠPl atform
Ġconfig s
ar a
Ġ( );
pe ople
Ġkey board
move To
æĶ ¾
éĩ Į
c ion
m ongoose
Res er
Ġc ipher
Tr ust
U Int
Ġ{ :.
pc ion
ic ally
Ġpage Size
Ġindic ating
cl ause
Ġx range
group by
ular ity
Ġl iteral
ĠT ypes
en es
Ġm k
Ġr pc
p ressed
t ipo
ãģ Ĭ
Ġs mooth
ĠO pt
Ġhandle s
- "
ĠSc anner
Ter min
ament o
æľ ª
ç« ¯
' %
b anner
se en
ĠB ASE
STA TIC
S B
as er
ch an
po ser
s mooth
ĠM aterial
ĠH H
create Text
"] );
Char s
Ġ"- "
T e
ĠRe al
Ġpre pend
åĨ Ļ
acion es
Ġg c
Inter ruptedException
Ġatt achment
throw If
Ġsec ure
se qu
Ġp aper
mp p
B IT
ĊĠĠĠĠĠĠĠĠĠĠĠĠĠĠĠĠĠĠĠĠĠĠĠĠĠĠĠĠĠĠĠĠĠĠĠĠ ĠĠĠĠĠĠĠĠĠĠĠĠĠĠ
marshall er
H ours
pr ime
Ġp oll
AL LOW
each er
Time Unit
åĨħ å®¹
s ch
en k
Ġset uptools
Cap abilities
Up grade
Val or
ol lo
Ġ@ @
uf act
ENABLE D
Ġch osen
book s
g as
ê° Ģ
Ġæĺ ¯
m otion
un ing
nd im
ä¿Ŀ åŃĺ
get Method
Ġm ajor
In spect
Ġg d
b roker
å±ŀ æĢ§
v ectors
st em
Ġin s
Ġmethod Name
ĠCustom er
b pm
Ġas pect
Url s
G C
S ibling
ĠCo unter
Iter ation
Ġretrie ved
w f
ĠRef lect
ê¸ °
) =>{
empty List
cut s
aur ant
m apped
start Time
prec ation
éķ ¿
ĠP RE
ĠWAR NING
Ġfull y
Ġ Ã©
i Ã³n
if ul
PAT TERN
H uman
time delta
Ġg old
Layout Inflater
Plugin s
Ġiss ues
sp inner
ograph y
Ġp ast
s low
v h
li er
V m
PARAM ET
f re
č Ċĉĉĉĉĉĉĉĉ
ĠA RE
qual ified
æĮ ģ
er ical
Ġw arranty
w m
se quences
Action Bar
ç¡ ®
ĠIn fo
Ġerror Message
Ġh p
require ments
preads heet
D N
{ {
h ard
Ġre cursive
Ã º
ĠNo Such
Block ing
C ategories
j c
at al
[] >
F P
Qu ality
x ls
put Extra
Trans actions
); //
r strip
z i
Ter ms
æŀ Ħ
feat s
wr apped
A m
am s
Ġb roadcast
Ġpercent age
Sh ard
cc ion
Ġin c
ĠUn iversity
Ġ[( .
Ġgr pc
Ġtri al
S ingleton
å ¥
ë ¥
'] ]],
Analysis Test
s ampler
match ing
Ġdirect ories
Marshall er
å¾ Ħ
çº §
ë¡ ľ
int o
Ser ialize
RO LE
ĠInit ial
chart s
compat ible
Fr ames
Ġqual ity
get Session
Ġ[ ...
ĠSet ting
Z Z
De ploy
jb oss
ĠIn tern
clus ion
íķ ĺ
e ig
r nn
or ient
Pr inter
NO TI
onyms AnalysisTest
Grupo Activo
M utation
google apis
iter items
Ġpart y
ä» İ
B g
L atest
wr ong
nost ics
N eed
set Message
ĠC lear
Ġå ®
Pa lette
Neg ative
Ġlog its
ĠJ OIN
check s
U DE
c mp
ĠReg ion
VAR I
D ummy
ĠAssert ionError
ĠT im
path name
Ġp ipe
Ġfirst Name
Ġlast Name
ret ch
tile s
âĸĳ âĸĳ
é« ĺ
s ip
an ity
Ġspec ies
copy right
éĶĻ è¯¯
æĦ ı
ĠDeb ug
Unt il
ĠUser s
M X
St d
Ġun less
Part icle
P ref
Ġd ensity
r st
ĠU int
apt ive
$ \
J ar
LET ED
ĠH y
plic as
Ġconsider ed
aut iful
CP U
Sri FacturasProveedores
ar b
Z a
ĠGrid BagConstraints
ĠBy tes
um bs
Ġfix ture
ke eper
un ge
Ġcreated At
Ġali ases
get attr
è ģ
add Listener
Co ordinate
get Code
icip ants
get Entity
el t
Ġcon sum
table Name
Ġ_ ('
BU ILD
er ator
Ġgraph ql
k h
ar ante
C andidate
Ġde gree
format ted
Direct ive
Ġsub mission
A utor
Y es
Ġclient s
Ġ'- '
Ġsw iper
Ġdep ends
Ġ ist
Ġ eth
ĠN av
Ġal ignment
bos ity
čĊĉ ĠĠĠ
c ertificate
f av
g wt
lo re
ĠDE BUG
æĶ ¶
ĠST ART
MAT CH
op enc
Des ktop
g allery
T V
ĠO Auth
ĠHttpServlet Response
FI ER
umul ator
let es
square up
de m
ĠA LL
ĠOr acle
Primary Key
add resses
( []
d ag
é¡µ éĿ¢
æ² ¡
x p
first Name
ic ients
Ġin crease
Ġh ooks
ãĤ ¿
min or
*/ ,
og o
Ch arge
RES PONSE
as a
WH ITE
i ar
th resh
content Type
cy c
Vis ual
ĊĠĠĠĠĠĠĠĠĠĠĠĠĠĠĠĠĠĠĠĠĠĠĠĠĠĠĠĠĠĠĠĠĠĠĠĠĠĠĠĠĠĠĠĠĠĠĠĠĠĠĠĠ Ġ
Ġpoly gon
Ġfunction ality
ST M
h uman
ic ion
Client e
Co lour
ivers al
k k
P ic
in verse
St ation
å¹ ´
Ġcon cept
ĠDescri be
Ġh uman
åĲ ĳ
Pro vide
ex cel
Ġmod ifier
tmp dir
Ġunknown Fields
re action
Ar n
e o
To pology
ĠC alled
P ersistence
S quare
To F
a is
al ive
gener ation
çĶŁ æĪĲ
-+-+ -+-+
Ġmov es
c riteria
j Label
v r
ST REAM
array s
c ities
S ESSION
Call s
Fi jo
} ");
ut ures
Ġap prox
throwIf Reached
ĠProto col
hist ogram
Ġg ender
EX CE
G UI
ĠL imit
Object Type
Ġ'. '
ĠSk ip
Ġin verse
get cwd
ad v
ac o
Ġsp awn
de veloper
ri o
pro g
Ġcomponent Did
Ali ve
T odo
V ATE
Ġt c
âĶĢâĶĢâĶĢâĶĢ âĶĢâĶĢâĶĢâĶĢ
R o
è ¨
æ ´
Ġpl ain
åĿ Ģ
O VER
T W
") ]
Tr y
font s
cap s
æ¯ ı
p ublisher
ĠF ull
RO LL
Jav adoc
M AC
ãĥ ©
åħ ¶
Ġse quences
Ġcom pletion
å® Į
area No
am odel
ĠRe pository
plit ude
Ġ' ,'
P i
Ġst udy
C y
g ather
è ¶
base line
Stream s
Ġresult Set
/ ?
Ġc rypto
Ġs ock
Validation Error
Ġt weet
yn omial
ĠST ATE
inf os
Ī ĺ
Ġr ay
ĠP oly
ĠR outer
ick et
äºĭ ä»¶
Ġin vocation
UB LE
Ġframe work
Sm art
re cogn
Ġn l
ine craft
Att ack
ĠS ocket
ST OR
CHAN NEL
M irror
S el
port al
PL ACE
y lim
Ġin strument
poly gon
So ft
æĺ ¾ç¤º
Ġc apt
F Y
ĠPro vider
R oll
IT ER
jet ty
Ġequ ivalent
) ];
om a
Object Mapper
Read able
B roadcast
F e
Ġl bl
ĠT imer
Request Id
ĠCon f
Part icipant
Ġcard s
Ġ questions
ide s
ĠJSON Array
I ES
ĠBe an
")) {
Ġjustify Content
T A
Ġl s
Ġr m
Ġpat ient
([ ^
b idden
Ġa jax
Ġbyte Array
DAT ABASE
ase d
Ã ª
Ġ* ************************************************************************
Ġserver s
) +'
set default
test ng
ĠP rivate
Res ume
Ġvisit ed
istr ator
Icon s
Ġ ur
add Child
b irth
Ġb enchmark
Ġst ation
ĠGe o
Col s
Ġdo ing
ev en
ĠM at
DB C
ĠEn ter
get Service
add Item
åı ª
Ġcl usters
Ġapp s
Create Model
ĊĠĠĠĠ ĉĉ
ime Type
Ġset Id
cl js
get Response
all s
sk in
éĶ ®
Wr ong
> @
w er
Ġb asis
ĠT ri
éĢļ è¿ĩ
SE ARCH
<? >>
P ublish
ĠP ass
OD Y
çĻ» å½ķ
) +"
trans actions
As pect
Un iform
Ġplay list
celer ation
is instance
Ġof fer
pre load
LOB AL
register ed
æĺ İ
C ATEG
] "
Ġp ose
ub ic
track s
: ");
Ġ' '.
Frame work
ĠRed is
æ »
set Level
cord ion
Ġre name
ance ll
user Name
Ġ' ':
util ity
Add resses
ĠP ipeline
ĠRem ov
ĠApi Exception
Ġl and
read Line
Formatt ed
node Name
g un
se ason
de clared
S ens
Ġp iece
fig size
Ġel apsed
Ġwindow s
Ġf ar
ser ializers
ent e
Ġl g
ro uting
ĠT ools
C ASE
D M
s olve
add on
Ġcop ied
Activ ation
Ġtick et
GrupoActivo Fijo
Ġnew s
] )))
ĠA zure
d raft
et c
Ġf riend
min ute
INTER VAL
K eep
Ã ¢
Ġm illiseconds
Ġcomp ression
Edit able
ĠDI RECT
M ass
Ġdisplay Name
Format Exception
Ġcor ner
J B
ic io
est ure
ĠPro xy
Ġm anaged
Ġlog out
res a
Ġu a
Ġget Item
n v
Ġtr ainer
Res pon
ĠSh ape
Channel s
' ve
Ġh aving
start ing
Ġhandle d
} ],
rott le
ĠA ut
Ġraise d
ëı Ħ
Ġc andidates
Ġf g
sc enario
[' _
Render ing
bac net
pect ive
Det ection
ëı Ļ
ë ¦
Ġw d
ĠB ind
Ġd u
Conf lict
Access Exception
m aven
Ġc map
Cl s
"" );
Status Code
ĠResult Set
Man age
s nap
H ard
ĠB rowser
Ġconfig urable
ĠImmutable List
Ø ª
Qu ote
Ġbit map
Ġe le
ĠCh rome
C AN
D ense
ĠS pring
Ġs ampling
t id
lect ric
it ed
Con sum
ĠRe set
Ġperform ed
! ');
W ER
SI G
: ':
w ell
Ġsc rap
Error Response
USER NAME
com bin
P rom
PRO DU
HttpServlet Response
M icrosoft
get Result
éĹ ®
ĠRect angle
relation ship
P DF
b am
d an
Ġn ome
Ġ} .
ag en
E B
}/ ${
get Next
pro files
No Such
d aily
ab il
Many To
Ġre strict
om id
Ġ[] );
For Value
Table Cell
Ġch rom
ĠE l
mer ged
ep age
last IndexOf
Av g
Ġ Ñĥ
oh n
æĹ ł
Ġæ ī
fusc ated
Ġalign Items
Rot ate
PECT ED
Com b
RES ET
Ġdig it
Ġ onto
Ġm utation
Calcul ator
l ined
Fl uid
ĠM ode
Field Name
S aved
` :
est ing
Ġon line
Ġsh utdown
Report e
Ġpr imitive
ĠM apping
cl uding
å¼ Ĥ
DESCRI PTION
com es
FR AME
C isco
Ġ_ ("
St mt
Ġglobal s
j d
-------- ---
ĠHe aders
V K
åĳ ĺ
p andas
al ignment
( ('
Public Key
DE T
ibr ation
IN ESS
R anges
Trans late
MED IA
or i
Ġf ew
Ġtrans actions
ëĬ Ķ
add To
ãĥ¼ ãĥ
Ġc overage
d uplicate
et ition
bound ary
Ġclose st
ENT AL
offset s
sub tract
FIC ATION
âĪ ŀ
ok http
Ġrgb a
Outer Class
ĠSPE CIAL
V R
æ ·»åĬł
P t
ĠNO I
D uplicate
Ġspec ification
ĠLay er
q c
Ġde ps
EN ER
An not
Ġs u
Ġs py
MED I
lo red
END ER
ìĿ Ħ
k ar
Ġp en
l am
Ġtry ing
Ġbe am
se par
Field AccessorTable
Ġlog o
enc ia
Ġexp ires
Ġhig her
Ġsh op
čĊčĊ ĠĠ
Ġf id
ag a
ff ee
in voice
ali ases
OFF SET
omid ou
ĠE D
Ġtransform ed
em s
to k
Ġorder s
Ġconf lict
ba omidou
ĠÐ· Ð°
p aint
scri bed
Ġc ov
S TIT
Spec ific
Ġh om
ä¹ ĭ
mybatis plus
] ')
£ Ģ
Ġf ooter
In voke
Ġweb site
G iven
Ġb c
Ð» Ñı
äº Į
w ide
ĠF oo
Report er
Scroll Pane
cus sion
ĠW idget
E val
add Attribute
Ġsql ite
j pa
č ĊĠĠĠĠĠĠĠĠĠĠĠĠĠĠĠĠĠĠĠĠĠĠĠĠĠĠĠĠĠĠĠĠĠĠĠ
om an
I o
Re fer
m igration
Ġm aking
Real m
ĊĊĉ Ġ
Re quires
ĠX XX
ĠF in
mt p
ĠSe ction
ARCH AR
! '
ĠLoc ale
Ġd ao
ĠÐ¿ ÑĢ
gram mar
Ġr anges
r an
Sub scribe
, _
hedul ing
Ġle arn
Ġc ookies
ĠC amera
con version
ĠF unc
eter min
æķ° ç»Ħ
= ('
Ġpro cesses
Ġxy z
A ware
b io
ĠF ake
ud ience
ĠFLAG S
Ġpag ination
n ome
Ġexplicit ly
AC TIV
dis miss
f ly
Ġvol atile
Ġp or
Ġind icate
k ubernetes
exec utable
Sign ed
Main Window
ot on
æİ¥ åı£
C alc
Ù Ī
Ġ ._
append To
ĠIn sert
ĠN EW
get Root
Ġa udit
Ġvar ious
Exist ing
çŃ ¾
Ġboot strap
N L
P aper
x n
web socket
Link edList
Web pack
R UP
s ink
N I
g ms
th rough
Ġp ts
Ġlo st
ĠGraph QL
Ġj Panel
ĠM ember
ãĤ Ĥ
Ġnew Builder
m irror
s us
OR TH
ĠOR DER
f type
Ġutil ity
ĠC alcul
L ed
Ġle s
inv ok
Ġwe ather
Ġinter faces
I ron
ĠL ook
rand n
ĠPl ace
Tx t
re start
Ġcomp iled
va adin
En cryption
M usic
Ġs sh
par ing
Ġsub class
dom ains
E p
n ic
Ġro ut
pop ulate
è¿ ŀ
Ġ' ').
anag ers
è® ¢
C ED
G l
Object Id
ĠDE LETE
er ior
ĠT imestamp
Ġinterpol ation
de e
sc rap
F ULL
Ġf ee
Parallel Group
ip ay
Mark down
Ġc riterion
TOOL TIP
H z
Ġ ################
ic ates
ings Enum
Ġhist ogram
a que
HO LD
inner Text
is a
semb le
r ig
Ġb ank
Ġm l
ĠP AT
print f
Com puted
D ark
po i
Ġget String
Ġì Ŀ
q i
Ġw p
LOG IN
Ø ¯
==== ===
Ġun used
ĠFIX ME
C ER
es ser
Ġj et
Ġ*/ ,
system s
Ġis Selected
ĠG en
ly hxr
create ParallelGroup
Ġcl ause
Ġhost s
e ast
or row
mer ce
ëĭ Ī
member Of
D a
f id
sp atial
p itch
Ġs qu
comp an
Ġenv iron
arm up
t bl
Ġn args
ĠP lay
Ġ čĊĠĠĠĠ
ĠN IL
AD ING
A ux
F lex
æĮ ī
get Long
Ġd ash
ĠA ST
ill age
Char sets
h w
Ġm n
Ċĉĉĉ ĠĠĠ
Ġy y
dis p
v in
ick s
gu ard
g mt
t ls
et y
âķĲâķĲ âķĲâķĲ
rit ical
' /
t ur
)) ),
ĠF rom
Ġpr incipal
Sk u
Ġbegin ning
Ġcalcul ation
Alter Field
sh ake
gr p
Ġstate ments
writ ten
al most
get Index
Process Instance
Ð½ Ð¸
ÑĨ Ð¸
M is
Ġre produce
ĠBlock ly
plan ation
Ġmark ers
Ġp referred
ĠQuest ion
om eter
que da
è½ ¦
è·¯ å¾Ħ
Ġpro duce
ok emon
Ġc he
US INESS
=' ')
ĠW ait
P icture
Re peat
lo om
AM PL
Ġoc cur
r ho
Ġr ating
âĪŀ âĪŀ
Ex pose
Ġde serialized
Ġg lyph
Inter preter
ĠEn sure
å° ±
L arge
umul ative
Ġun expected
ĠH tml
H IL
Ġtr ust
Con current
Ġset Name
IC ON
S al
¢ «
ĠM anager
Ġag gregate
CLO SE
g f
out file
J oint
Ġmov ing
m agic
M R
Ġr ather
Ġport s
de ck
is Debug
erm ine
require NonNull
Window Listener
ĠS plit
mat ter
(/ ^
ä¸Ń çļĦ
Fl ight
get Month
Ġch r
B roker
Ġ' ?
âĸĪâĸĪ âĸĪâĸĪ
con sume
% =
get Size
Re peated
Ġh i
Ġun iform
Ġpa lette
b x
ch apter
So up
n ut
x F
ar ound
Post s
Go al
s ms
Ġinter section
M LE
() +"
ä¸ ļ
Ġ================================================================= ============
Array Equals
Mouse Event
A w
U V
ic er
Sub GrupoActivoFijo
ul ner
Ġas c
Ġup dating
N AL
(" ../../
est imator
Ġassert ion
on Click
Ġcom parison
Ġprevious ly
Ġf urther
Up dater
Rep lication
ĠE C
Ġdecor ator
Add Field
] ].
Ġm icro
Ġd ashboard
S ong
Ġt abs
Ġm anagement
Ġan n
Ġsh ard
ĠPro vide
s ass
åľ° åĿĢ
Test er
iter able
assign ed
Pag os
u j
blue print
c redential
to o
con c
ax y
Ġ</ >
Ġd ic
Layout Manager
gl ish
is True
Ġd rive
Tim eline
] ][
ome ga
H I
h n
t gt
AR M
A LE
ĠAp ply
in place
SEQU ENTIAL
est s
Par sed
contact s
Res olve
Re ject
ĠÐ ±
PRO TO
gre y
Key Event
Ġrect angle
Ġoff sets
x z
Ġint ro
Ġaccept ed
Ġsection s
set Image
" });
Ġin tegers
ch i
ĠP IL
pr ites
Ð´ Ð°
H ouse
r ich
ĠCON T
ĠRe cyclerView
ox el
sign up
A O
m ps
rect angle
D ump
L ifecycle
Ġh ad
Ġinsert ed
clean ed
ĠAg ent
li ps
ĠR GB
Al ready
Ass ociation
al arm
et Address
Ġget Descriptor
Ġå ¦Ĥæŀľ
+ )
Ġj sp
å¤ į
havi our
Ġm r
m ixin
er p
: ')
fh ir
v u
ro ut
ag o
>> >>
Ġaction Performed
Ġa k
ĠV ec
L ambda
v iz
Ġ ĊĊĠĠĠ
ĠT ile
Ġsuper Class
Sample s
è®° å½ķ
Ġr t
CE PT
ç« Ļ
Ġde velopment
Ġpot ential
Ġ" }
w name
ann o
âĢĶ âĢĶ
e u
\\ .
={ },
Ġrad io
å®ļ ä¹ī
ul s
Re presentation
Dis covery
Ġ ãĥ
Ġw ater
Second ary
c ors
Cre ating
Unknown Fields
S us
p db
Bound ary
View port
BY TES
default Value
ĠNE G
un lock
sw iper
Ġ lot
id le
; &
Ġs aving
__ ['
check out
Thread s
Ġsp ot
DEF INE
de sktop
anit ize
mer c
L and
Ġsc anner
mode s
ìĹ Ĳ
B est
Ġa zure
R AD
std in
Ġhead ing
Unknown Field
J O
invoke virtual
int ro
Ġrequire ments
W ING
echno logy
( --
q ty
Ġa z
Ab ility
æĭ ©
F req
te acher
Register ed
P ID
Ŀå§ĭ åĮĸ
F il
| '
ĠL LC
Ġman age
ensemb le
- ${
ã ħ
ĠĠĠĠĠĠĠĠĠĠĠĠĠĠĠĠ ĠĠĠĠĠĠĠĠĠ
(' {}
Ġon Error
ob servable
Ġtrack er
ĠIN T
EX TRA
ven ue
Un ary
child Nodes
: **
Target s
D ensity
Ġ[ {'
Ġformat s
CONT EXT
ĠN um
in el
Ġc e
Ġn ick
ĠIn formation
read String
aut om
background Color
Watch er
ĠP DF
C ube
b ill
å ¦Ĥ
ag ue
EN SION
c u
ch oose
present s
optim ize
ĠF uture
Pattern s
READ ME
> ?[
B uilt
o e
Pro vince
CON ST
Document ation
experiment al
eng lish
Pred ict
Sec ure
>@ [
>?[ <
ide d
x lim
Ob fuscated
on us
ct s
gn ite
m nt
Ġ'_ '
User Info
mask ed
_ :
AD ER
æ¶Ī æģ¯
remove EventListener
Ġ'\ ''
neighb or
) ((
V ote
Rest riction
éĢī æĭ©
Ġå °
Ġm iddleware
ĊĊĊĊ ĊĊĊĊ
N eeded
c g
ĠLO SS
import ant
Ġå ¤
ì§ Ģ
Ġu int
auth enticate
anc ial
el apsed
inf ra
Ġpol ling
B uy
"] ]
Ġty ped
F ITS
ĠM agicMock
From String
ãģ ¡
+ /
request ed
ĠU sage
Ġhe at
ĠDIS CLAIM
Ġg as
Bal ancer
é ĥ½
De vices
Order By
c andidates
get Token
ĠS uccess
PAR SER
] ];
h ood
data Type
W ay
get A
Level s
ĠD ummy
LE CTION
Ġvalid ators
COMM ENT
ĠS C
Dir ty
ç§ »
Ġf ilenames
ri ef
bit rary
Good s
ance led
Server s
ĠState ment
end points
Web Socket
ut ron
com position
ymb olic
car ousel
Ġmeasure ment
in herits
Ġre cipient
INI TIAL
`` `
co ordinate
H A
as p
Ġst ores
ĠW rit
cor ner
Ġpl us
write String
Ġe as
ĠSpec ifies
p iece
ĠIn d
us uario
Request Builder
Ġm age
par agraph
ST Y
Sc enario
auth enticated
ĠLocal Date
ĠCO MP
co sm
Ġimport ant
red dit
Ð¾Ð ³
æĽ´ æĸ°
E vt
US H
ud ge
char Code
Ġfire base
ĠUP DATE
lect or
part icipant
ĠE st
Ġup on
M ASK
Y EAR
pr imitives
Ġexact ly
Ġ" ),
ĠM anagement
ĠCON FIG
f ar
form ula
An alytics
Ġ'@ /
raw ler
åĲ ¯
B LE
Û Į
ĠE mployee
Ġneighb or
osp ital
ack bar
Tool Tip
S ampler
è £
ĠS SL
to ast
put ation
Ch rome
er g
plot s
TH RES
(" //
th etic
Ġpart icle
v est
get D
ĠCh art
rt wname
çĽ ´
s ynchron
E K
H alf
merge From
Ġ[ ('
log ged
C s
Ġm en
Pat ient
ATTRIBUT E
leg acy
Ġsp acing
ai HIL
Schedule d
ĠAuthor ization
Ġexecutor Service
motor aiHIL
ĠĠ ĊĠĠĠĠĠĠĠ
Ġi x
local ctx
ĠIN DIRECT
ä½į ç½®
s ilent
select All
al go
am i
ĠR ot
Ġser vlet
ĠJson Object
curs ively
( ({
Ġgr unt
GEN CE
O cc
c ircuit
Ġsk ill
it an
Ġs d
set Default
and a
'] =
ç´ ¢
On line
IC K
è°ĥ çĶ¨
get Component
ed String
ĠM ac
vert ed
Ġdrop down
get Model
() ==
val or
Th ree
yml ink
Ġch ai
Ap pearance
H IGH
d w
Ġexec utable
SIB ILITY
set Status
oc s
Ġch rome
Ġt ell
Ġre ached
ass oci
ard own
END POINT
Ġt ipo
ital ize
first Child
=-=- =-=-
[ ],
Ġpro vince
regular izer
g row
n ex
sig moid
WN ER
Ġis c
data Source
Filter ed
Ġstart Date
bind ings
prob ability
æ²¡ æľī
Ġ) );
Ġrender ing
last Name
æł¼ å¼ı
% "),
or ange
Ġh a
A jax
Ġ answers
Request Metrics
sub scriptions
document ation
h al
é ĵ
IT AL
fl u
Boot strap
i Con
over n
Ġend Time
dat aclass
ĊĠĠĠĠĠĠĠĠĠĠĠĠĠĠĠĠĠĠĠĠĠĠĠĠĠĠĠĠĠĠĠĠĠĠĠĠĠĠĠĠĠĠĠĠĠĠĠĠĠĠĠĠ ĠĠĠĠĠĠĠĠĠĠĠ
S izes
Ġ= ================
respon d
] },
Ġsh allow
Ġe e
ĠV M
Ġform Data
member of
xx x
b h
r g
ä¸ İ
Ġstatus Code
ĠN aN
par a
Ġsp atial
Ġ -----
ĠCON SEQUENTIAL
SETT INGS
') ],
read able
Reg Exp
C AT
str y
onom y
mat mul
lang uages
B D
K ernel
å ł
mac ro
trans parent
() ['
Ġtr uth
Z ERO
Ġb all
à¤ ¾
t pl
([ ],
} ${
up chh
web site
FI ED
ĠCon current
remove All
Ġs ing
met ic
Ġparent s
ĠMet ric
b ol
Ġd ie
ĠB order
ĠAssert ions
b ird
d ifference
ab b
ĠL ast
Ġinit ializer
åİ ¿
to c
M V
m ot
Ġ{ ?
query set
build ing
Ġfl ux
LI GENCE
In voice
He ap
Ġover rid
de livery
G ONE
ext ern
ĠL ock
ĠD omain
Ġpre c
RAN GE
room s
> ;
l ane
čĊč ĊĠĠĠĠĠ
sk u
è¯ »
comb ined
æ °
Ġin flater
ĠD b
Ġlist en
Ġoptim ization
M IL
S ym
get OwnProperty
Ġst ory
St udy
ĠD ESC
PUB LIC
Ġg ray
ĠD irect
exp ires
Ġpass ing
POSI TION
add Gap
ĠB usiness
Ġimport ed
ä» ĺ
s andbox
enc ent
Ġsimple IndexQueryParserTests
Ġ# :
Ġf illed
Ġget State
bo b
å¢ ŀ
ac quire
Ġsim ply
Ġen crypt
ole cule
Ġvis ibility
E PS
P iece
al ic
de velopment
mo le
Ġdepend ing
èµ Ħ
MON TH
od a
con versation
und a
ber os
tr ap
ĠKey board
ĠPRO FITS
T LS
ment ion
nd o
ĠSt udent
sem antic
J dbc
to Match
j InternalFrame
t ight
ĠĠ ĊĠĠĠ
avel ength
Ġlos ses
; '
E O
ut a
get Action
con struction
Ġal bum
Ġun pack
inter sect
aug ht
F riend
Ġdim s
d amage
Pro viders
ib m
L F
R ing
ord inal
direct ive
S ale
ĠList s
Rel ated
mark up
Ġstream s
pr incipal
SING LE
in ference
tim eline
autiful Soup
Ġjsp b
Comp ile
Touch able
jac ent
Ġ[ _
ĠN ative
tr on
Sw ap
\", \"
P ersistent
ĊĊ ĊĊĊ
Ġj Button
Ġpred s
ĠBlock Pos
E q
Ġpro ducer
ĠPro b
ĠR obot
q tt
re wards
Ġtransform er
Ġloc ated
E valuation
ĠS Y
ver al
sub class
view port
s ay
ĠRe ce
TIM ESTAMP
PAR ENT
lat ent
effect s
Rout ing
REG EX
, %
Shared Preferences
(", ");
T D
ãģ £
screen shot
< '
ap se
Ġl n
]) ]
Ġrepresent ed
J Unit
h ardware
Ġd amage
ĠD uration
g ym
Ġre cogn
Ġro uting
Ġ\ '
mark ers
XY Z
ĠNEG LIGENCE
F ACE
G ot
ĠView Group
Fr action
get Target
é Ĥ
Dat as
h an
get Image
im in
Ġu v
get Row
Class ification
ĠP ool
io u
ĠIN CID
) })
P ub
se x
mo ji
ĠData Type
s he
]) [
Un icode
free ze
STIT UTE
Ġ ends
Ġm ongo
ç» ı
perform ance
ar th
IN F
Ġsq rt
y an
Ġprob lems
T enant
get ApplicationContext
ef pyi
B log
SHO W
l ings
ĊĠĠĠĠ ĊĠĠĠĠ
Ġr sp
En coded
rol led
PER MISSION
IZ ED
J InternalFrame
q p
sh ader
par s
ĠEx ternal
Ġtrack ing
marshall ing
Ġhig hest
ä»» åĬ¡
Ġd m
LE AN
čĊĉĉĉĉ čĊĉĉĉ
; ",
ĠT IME
Ġ" ":
import s
sh al
Ġ}) }
null able
: \\
t u
Ġf old
Ġpro j
Ġle ading
( .*
F ault
čĊ čĊčĊĠĠĠ
Ġon Press
={ [
Thread Pool
STOR AGE
C nt
c redit
tr ainer
ĠR oot
T s
Can onical
g id
up s
Ġyear s
Ġcompat ible
W ave
ol id
OR D
Ph ysical
inal ity
Th rough
h ass
in ity
Ġ" ".
ph inx
Ġfont Weight
datas ource
Ġf ood
on ym
ĠC lick
mt ree
C ANCE
get List
ag ma
Ġ+ "
Ġty p
Ġsmall er
Ġimmediate ly
der s
Ġsh apes
ST ANCE
fin ally
L ER
p olicies
ĊĠĠĠĠĠĠĠĠ ĉ
Ġexp anded
w so
ide os
Dig it
ĠDet ails
IC U
Un signed
S ales
ĠST AT
y chag
Ġsc aling
Al bum
ch dir
Key Value
ĠCon sumer
sent ences
Ġcompat ibility
c um
tab lename
ìĦ ľ
T M
ast ore
Ġan imate
ĠW AY
limit s
çī Ī
l it
ap prox
ĠSTR ICT
get N
Ġlet ters
port ion
em ale
Ġe cho
types cript
Ġre pl
Ġth umbnail
Al loc
nn heo
Ġì ŀ
minecraft forge
pl ural
Ġn c
pr imitive
ĠINCID ENTAL
Ġt z
un a
spec ified
aa a
Ġprob ably
ance stor
Char set
å¿ ħ
Ġb roker
ru its
re cent
ri a
Ġactiv ate
C USTOM
co ef
Ġ"_ "
ĠD river
sh aring
edit able
P layers
Ġt ip
Ġmark ed
irm ware
/ ************************************************************************
ĠT ele
b w
z M
get Start
B atis
co p
pro cesses
Ĥ ¬
Ġs ay
} &
fl ight
de ad
Ad am
Pro cedure
code gen
Text Utils
Ġdir s
Ġexpression s
Ġclo sing
C rypto
ant om
Ġæĺ¯ åĲ¦
å ¡
get Host
Seg ments
G reen
ĠP H
ĠD irection
/** /*.
Ġpl aces
ĠApp Compat
Ġorder ing
éĩ ĳ
res idual
Ċĉĉĉ Ċĉ
Ġwh y
Ġom it
D on
get Client
DE C
Ġnot ifications
ĠSU CH
f an
fr m
Ù Ĩ
())) );
comb ine
åħĥ ç´ł
Ġun ion
Ġ` /
Ġcre ator
VI SED
on load
Ġch aining
(" $
G REEN
set Current
Progress Bar
Pag ination
hz dkv
dat aloader
Api Client
Ġd iffer
]] ):
collect or
m Context
Ġ( `
qu es
ĠC ap
in stant
ĠP M
c df
n oop
Ġb al
__( /*!
Ġtrack s
unknown Fields
åİ Ł
set Selected
Ġe asy
"] ))
b es
b boxes
handle Change
St ory
Ġal arm
ä¸º ç©º
s chool
Ġo auth
{} '.
co g
inter p
ĠD ictionary
======== =
tr pc
ol ation
Ġtool bar
EX EC
H AS
P referred
an pch
UN I
ĠE VEN
min i
calibr ator
ë¥ ¼
r aster
ĠS ince
vert x
R ATE
Ġ ht
plan et
Constantes Funciones
L AN
Ġres ume
ĠB USINESS
ĠDAM AGE
() (
St em
ĊĠĠĠĠĠĠĠĠĠĠĠĠĠĠĠĠĠĠĠĠ ĊĠĠĠĠĠĠĠĠĠĠĠĠĠĠĠĠĠĠĠ
ĠP ayment
new Value
ĠV oid
Ġå ¯
ĠImage View
NAMES PACE
ĠCond ition
w alle
enk ins
Ð Ł
ist a
Ġhel lo
Ġbr ush
port folio
set Results
)) ).
Ġap plies
INTER NAL
Ġpur pose
C sv
J C
O UR
ON ENT
Ġx x
ENT RY
Block State
TEXT URE
ĠP acket
Se ek
ĠAct ive
n es
í Ĭ
Ġg s
ĉĉĉĉ ĉĉ
_ ()
j k
it ution
(' ''
ack son
ow l
pos able
P rompt
ĠĠĠĠĠĠĠĠĠĠĠĠĠĠĠĠ ĠĠĠĠĠĠĠĠĠĠĠĠ
Ġjson Object
Ġman ual
uzz y
ĠL esser
Ġen counter
ĠSER VICES
å¤ ©
G U
b et
re play
it ivity
ĠG PIO
Play list
Ġs at
ĠP ower
track ing
Q R
get Location
lab or
clo sing
Ġt ot
Post Mapping
U X
ì ķ
Entity Type
Ġwrit able
Q Name
j ump
s imulation
{} ".
Ġopen ed
ĠDown load
C AR
Ġp db
ch alk
ST ORE
remove Child
Tem perature
C ircuit
w v
{ @
get E
get System
Ġh ass
Ġgr ant
Ġsyn onymsAnalysisTest
ab it
Ġlocal s
at ched
Ġc od
Ġb old
set Description
Ġaut om
ĠP ER
UN IT
Guard ar
ces o
Bus queda
Ġl b
Ġhe ap
Combin ator
S imul
to pology
Index ed
_ \
() )))
Ġst and
Ġtext Align
Ġexp iration
Leg acy
Ġres idual
ĠG UI
pro v
inter section
ĠObject Mapper
Ġ čĊĠĠĠĠĠĠĠ
ĠDep end
[] }
Ðµ Ðº
att n
Pack ages
ĠĠĠĠĠĠĠĠĠĠĠĠĠĠĠĠ ĠĠĠĠĠĠĠĠĠĠĠĠĠĠĠ
sh int
re cipient
ĠF ix
ah oo
ĠP olicy
M ech
y outube
æµ ģ
L on
N T
Ġin ference
Ġbase line
ĠEn able
article s
ue vo
Rem aining
ĠAD VISED
æ Ł
å¼ ķ
Detalle Autor
DetalleAutor iCon
m appings
ĠĠĠĠĠĠĠĠ ĊĠĠĠĠĠĠĠ
Not Supported
Ġread s
# ----------------------------------------------------------------
is In
Ġs v
("/ ")
jb pm
ĠJ AXB
Sc aling
ie v
c ategorical
Ġ] ),
Fac ade
walle trpc
get Version
Ġs uit
ub it
Inspect or
Ġg pu
ãģ Ī
pen ded
Side bar
BE GIN
>: <
Ġinter sect
sl ash
ĠMon o
ĠcomponentDid Mount
$ (".
Ġend Date
B id
ĠC lean
æĪ ĳ
Ġmock ed
aug ment
Tempor ary
get Tag
Ġref s
Ġc i
line To
alle e
Ġreference d
P an
Ċĉ ĊĉĊ
Ġplot s
Ġcomp ress
Ġm i
res c
read Int
cip ients
WE VER
ìĿ ĺ
at ural
ct ime
Ġset ContentView
Text Area
ĠGO ODS
C are
env kt
JSON Array
Qt Gui
Check s
Delimit ed
it ers
Ġag gregation
sens us
emon ic
ffff ff
isNot Empty
d ar
pl at
Sp ot
roll ment
quid ity
t icker
or ical
Ġw heel
dis covery
ìĬ ¤
C rop
ï ¸
ĠU sing
ograph ic
er ing
ĠEx it
real m
ĠS ync
De ferred
network s
ðŁ Ĵ
æ¯ Ķ
S pect
Json Ignore
j est
ĠExt ension
ĠHO WEVER
Does NotExist
createText Node
)) [
Cancel led
MUL TI
str a
ĠSe quelize
Throw n
ICAgICAg ICAgICAg
s am
z k
ri al
IS WING
Ġcheck box
Ðº Ð¸
ëĭĪ ëĭ¤
B ODY
om inator
ĠY our
Ġup loaded
Ġhash lib
I V
P od
c lf
è ¢«
Ċ ĊĠĠĠĠĠĠ
Ġ Identifier
Ġg ate
Re v
EMP L
ĠCon trib
off line
å± Ĥ
n z
Pair s
Ġcombin ation
A ES
Exception s
C a
Ġv node
sw t
RUP TION
dy cjh
ĠPOS SIBILITY
ĠS cre
dis count
Ġcheck sum
PD X
C ause
Ġraise s
ĠTHE ORY
Ġart ist
Ġe ase
Ġs f
p assed
Ġend points
cip her
'] },
se cs
Ġcheck Not
ãģ ĳ
Access ible
Ġlin ewidth
Ġre ach
ĠEx port
Ġview er
CURE MENT
De cision
ĠQt Core
A Z
ĠA ff
ĠB i
Ġadd ition
set Header
ĠA fter
([ -
w k
Br ush
ver ified
Ġr ng
Ġen cryption
HO UR
åħ Ī
Ġlarg er
ol ling
t if
AD ATA
ë ©
Ġs park
Id le
py torch
fore cast
TO M
ĠAn imation
resource GroupName
+ '.
iv ation
C argo
g uest
r n
({ })
Ġget Instance
ĠR aw
Of Type
C fg
at ings
pre p
Ġwh itespace
r ack
is ing
Ġm otion
Ar c
NOT E
Ġcom ma
Ġ\ ""
singleton List
Ġinstruction s
sequ ent
ro fit
Ġæ Ł¥
ĠPRO CUREMENT
-------- -------
åĪ «
Ġmulti processing
EMPL ARY
b j
ith metic
art ment
cur sion
decor ator
ĠSV G
Ġextract ed
s il
al ipay
ph an
Reg ular
t ensors
Ã ®
J OB
ĠTr ace
US D
+ (
B Rep
eb ra
ĊĠĠĠĠĠĠĠĠĠĠĠĠĠĠĠĠĠĠĠĠĠĠĠĠĠĠĠĠĠĠĠĠĠĠĠĠĠĠĠĠĠĠĠĠĠĠĠĠĠĠĠĠ ĠĠ
Bl uetooth
ĠJ OptionPane
Ġbind ings
Ġspecify ing
Ġs impl
Ġon Submit
ĠEX EMPLARY
Ġper f
document Element
PAR ATOR
COD ES
Ġl p
text s
ĠCom pletableFuture
O G
d as
Ġlimit s
O pe
W ater
ip p
font Size
w g
ĠB ound
Ġvalid ated
Estado DetalleAutoriCon
C he
get Title
od ata
part icle
measure ment
Ġk m
HE LP
URL Connection
D i
as ures
rel ations
Cond itional
C ut
ĠS EC
En code
gu ess
mod ifier
ä¸į èĥ½
AP E
Ġaccept s
REG ION
ĠSUB STITUTE
ĉ Ċ
re strict
ĠRE AD
Build ing
out s
Local Date
get Body
not Null
sg i
Track s
S uc
ĠL in
gn u
re ach
ab i
str ptime
ĠP in
**** *
ĠIn dic
ĠDISCLAIM ED
Fl at
Ġmov ed
X HR
n avigate
or ian
pr im
IST S
Q Q
b oost
x u
Ġg oto
Ġal g
Ġt au
Ġw all
P B
script ors
fetch all
Ġd raft
ĠF UN
gistr ar
m aker
(( -
Ġplace ment
MEN U
Ġac company
Ġdec ay
å¼Ĥ å¸¸
A ck
det ector
y ang
__ :
Ġcom pose
ĠM A
ĠF ailed
aw ei
ĠCON F
Opt imizer
tre es
; ',
ĠW ill
CRE ATED
/ @
ir q
Tempor al
ask et
Ġview port
æī ĭ
ĠINTER RUPTION
P refs
in et
en et
Ġget Text
Ġì ł
ol ves
ĠL oop
com pletion
L EN
Ġto pology
arg ins
ob server
roll back
Ġdist inct
ĠE mbed
c map
er ver
Ġb t
ĠSe cond
ĠCA USED
l ad
and Expect
red ients
å®ŀ ä¾ĭ
W W
y our
Al most
(_ .
ĠĠĠĠĠĠĠĠĠĠĠĠĠĠĠĠ ĠĠĠĠĠĠĠĠĠĠ
ale d
Ġdebug ging
Ġset Value
XML Schema
Ġmock er
team s
Push Button
Ġf loor
Web View
Pro posal
CATEG ORY
ç Ł
qu ad
reg ression
Ġg w
pro f
base Url
ï¸ ı
r h
ĠN amed
Ġim pl
ë ³
get Header
set Max
dat atype
ĠSer vices
ser if
ĠĠĠĠĠĠĠĠĠ Ċĉ
Ġr ho
OPER ATION
S F
prop ag
ĠSub scription
b illing
aw esome
async io
V ENTI
Ġf rozen
Down Latch
echno logies
G auge
p as
s ale
Ġad j
event Name
vis itor
Ġt ensors
Ġis o
Par sing
ĠIN PUT
ĠBe autifulSoup
Ġb log
Query Params
ãĢ Ģ
predict ed
Ġ Î
Ġm igration
Ġem o
ĠData Types
ĠS em
Log ical
N BT
b ag
Ġp ing
get View
off ice
ĠUp load
re at
ck o
m el
W heel
n avigator
Ġauth enticate
vl an
g w
func s
set Request
find Element
Sub mission
Ġå Ń
alle st
W F
ĠC PU
CON NECTION
interpol ate
Ġs g
Ġj av
FUN CTION
o ught
Ġbr and
ĠS PDX
è§ Ĵ
ORIZ ONT
] ==
re striction
def er
Inject or
g ence
Ġmod ifiers
ĠEm ber
Ġs x
(' "
Data Map
De aths
H ooks
_ ',
c riterion
get Count
All ArgsConstructor
Ġwork ers
stop Propagation
tt l
on click
Ġc as
ut ral
start Date
Dat os
ç» Ļ
Port al
c utoff
File NotFoundException
isDebug Enabled
get Total
DE V
H i
M ix
\ ""
Message Type
Ġmargin Left
ist ed
Ġwidget s
Ġsepar ated
êµ ¬
BRep Tool
Ope BRepTool
Ġob servable
ĠSub L
K B
riv al
P ixels
pl ib
ouch er
Tr uth
next Token
chrom ium
E QUAL
ĠMe asure
E valuator
K S
e lectron
Ġp v
ĠP ut
An onymous
Vent as
ateg ies
ĠRetri eve
Sub LObject
ĠAc cept
BL UE
ĠMod al
charCode At
m anaged
tra j
Local DateTime
ĠTime out
re ed
un modifiable
Ġj p
Ġret val
create Class
Coded InputStream
bo unce
oriz on
Ġpur poses
ertific ates
b as
String Value
ĠD irectory
ĠE MP
Ġscale d
è®¢ åįķ
b uff
Ġm a
(" (
Ġr l
ĠU TF
Ġdist rict
Ġedit able
B old
B anner
Ġm ol
P olicies
Ġst ri
ĠM ed
set Size
Measure ment
need s
Ġc id
get Description
ĠG PU
Parameter ized
Ð¾Ð ¹
load ers
Ġmerge From
not ice
WA IT
Ġconf idence
P F
g ep
Ġ ack
Ġs ink
ĊĠĠĠĠĠĠĠĠĠĠĠĠĠĠĠĠĠĠĠĠĠĠĠĠĠĠĠĠĠĠĠĠĠĠĠĠĠĠĠĠĠĠĠĠĠĠĠĠĠĠĠĠ ĠĠĠĠĠ
C G
ĠCon s
End Time
Weight s
RET URN
Ġs ampler
Ġ/> }
Ġinitial State
Ġback ward
ĠAr ch
ext ent
Ġset ter
Ġtile s
Regression Test
Ġfeed back
F ONT
H ASH
S park
ĠL eg
le ccion
ate x
ck pt
ĠL ight
s ales
ĠH ere
assertIs Instance
pro be
utc now
SECON D
D ropout
In g
f all
Ġre action
Ġm es
ins ide
ĠG rad
Ġk ill
([ (
Ġpart icipant
Gr avity
################################################################ ################
C over
d z
Ġre duction
ĠU rl
Ġre pos
ens aje
Ġsession s
pic ally
get Url
Ġon click
De ck
Ext ent
Ġmonth s
ĠåĪ Ľå»º
in fer
get V
gr ant
div ide
cast le
å¹ ³
Ġneighb ors
il ing
ch allenge
(', ')
uro pe
Ġa ugment
ty ping
sl ack
Av ailability
ĠMET HOD
r ng
Log out
__( *
success ful
ĠSm art
Field Value
F ood
R en
S olver
W all
g ro
ĠF actory
f und
l ify
pro ducer
Ġest imate
C b
p wd
GR AM
ĠCRE ATE
A sc
ë ĵ
ĠF eed
acket s
r us
et te
ĠR oom
RES SION
J Button
ĠI ss
Ġat ol
cent roid
greg ated
Ġc k
ĠE T
Ġapp ended
visit ed
Ġ( .
Ġb ulk
Ġst icky
Ġr ing
Buffered Reader
r ace
error Message
ponent ial
dat at
K afka
Ġpro files
ĠZ ip
T ED
ct est
od d
ĠA re
"> \
order ing
ĠHow ever
l vl
Mod ification
G UID
get Player
(" *
Ġad v
I VE
ĠV e
token ize
CONT AIN
Config urations
Inter rupt
Ġembed dings
J WT
x aa
Ġun translated
Ġpre trained
å½ ¢
ë ¶
dir ty
And View
ĠTem plates
m utation
mod ifiers
ĠB U
Dig its
le ader
ri z
cl amp
Ġref Combinator
ĠrefCombinator Type
- _
cor ded
WAR D
Ġf i
dict s
desc r
ee per
Ġtrigger ed
C ipher
bit map
f ab
Ġp ow
__ ),
Ġlook ing
ategor ia
get As
os ome
Ġpre serve
foo bar
N V
Ġ Identity
Ġs us
ess ions
Ġsent ences
Ser ialization
Ġcomput ation
EstadoDetalleAutoriCon sep
p ie
v otes
å¤ ĩ
ĠOperation Class
get Input
bo unc
ĠAs set
ĠPAR AM
â £
Ġne ar
jsp b
ĠLocal DateTime
ĠD AT
Ġz eros
Ġmode s
H ierarchy
Ã ł
å ĥ
... "
Bind ings
h ole
i prot
ik a
Ġl ng
Con versation
inu ation
? )
arn ess
is Open
ct l
RE M
Ð» Ð°
non ce
B ATCH
J Panel
View Set
ĠG son
æķ ´
Ġaccompany ing
E mp
Ġp references
is Function
Ġre peated
enter prise
ToF ruits
setResults ToFruits
ik es
Ax es
Ð°Ð½ Ð¸
T HE
set attr
PRI VATE
d ynam
Ġ' ..
ĠS ys
wh o
set Icon
åı¯ èĥ½
Ġdig est
t ips
Ġ' :'
ĠFile InputStream
Gu ide
ulf ill
R D
f ps
getDe clared
Read ing
D ates
Ġse ason
Ġvar iance
over view
Ġf aces
patch es
dev tools
Ver ifier
E V
pe aker
Ġde ad
Ġde leg
Ġget M
ENS OR
# \
ufact urer
x ab
Ġa a
ĠM ore
Ġtick s
im read
co up
ĠD ATE
Over flow
Ġnon ce
ĠcheckNot Subtype
m ixed
Ġ Ċĉĉĉĉ
ĊĠĠĠĠ Ċ
Ġm appings
Ġph ysical
Vert ices
. ".
); \
Le ader
ank s
ĠOutput Stream
ĠS N
sup ports
Ġfollow s
Ġsee k
SK IN
NET WORK
ĠScre en
A mazon
ĠV AR
fin der
multi plier
ĠPl an
Ġenter ed
Ġsub scribe
Ġmark down
W AY
Ġs nap
Com ision
Bind View
Ġb py
ty p
not ebook
names paces
ĠParse Exception
U C
ãģ Ľ
ĠAp ple
Ġæ Ĺ
Ġembed ded
ORIZONT AL
Ġverify Exception
OutOf Bounds
Ġmask s
h azelcast
ar ily
Ġro unded
Pre cision
Red uce
Ġpar agraph
å¼Ģ å§ĭ
ĠFace book
B F
st uff
(` /
Ġtim eline
built in
Lex er
graph s
S AMPLE
set Bounds
Ġl y
tri ple
f ilenames
Â °
il ib
br a
inst alled
g ogo
call er
Ġview Box
Ġear ly
Ġ ig
Ġre moving
est yle
title s
trins ic
, :]
E Q
r avel
Ġp icture
Ġext ent
ĠRequest Method
Pred iction
O ct
SE VER
Not ice
net beans
('. ')
non zero
Ġal ter
Com m
Background Color
F LOW
i y
ĠDes ign
è¿ŀ æİ¥
un s
åĿ Ĺ
c apt
am en
ph en
Trans formation
ĠL ibrary
ient o
Ġver ification
Ġstatic Class
ĊĠĠ ĊĠĠĠ
ĠDis cord
Ġm agic
Pro files
VAL UES
Ðµ Ð´
` ${
MA IL
c annot
ch anism
ĠL et
weight ed
P ersist
W izard
(" ${
çī ©
Ġf o
SC REEN
Slot s
part ner
Ġshow s
Return Type
ĠBl ue
e h
Ġa way
Ġex cluded
ĠS n
UR ES
Account Id
DET AIL
k p
ĠVER SION
Ex ercise
Ap ps
dist inct
Ab s
ĠNot es
åıĳ éĢģ
Hy per
T CP
Ġr d
ãĤ ģ
Contact s
at an
set Content
ĠB oot
ĠSe lection
ug g
åĩ »
Rest ore
year s
Ġprom ote
il t
Private Key
data store
AG IC
Ġdispatch er
Ġnom bre
, {
T ONE
Ġ( :
ĠEx pr
track ed
avor ites
Ġb et
Ġh ouse
ĠSc ene
k u
t sv
ĠL at
Ġtr ailing
ific ant
Ġreal m
Ġre named
Ġwait For
ÐµÐ½Ð¸ Ðµ
current Thread
Ġcheck er
inter net
tim ing
E scape
Ġlength s
Mark up
good s
} _{
l ig
Ġ ----
Ġo ct
we ak
Tile Entity
Ġl ibraries
split s
Ġbase Url
MA TION
ÑĢ Ñĥ
Ġsk u
readcr umb
F s
Val s
Conf irmed
/ __
lin eno
Ð² Ð°
f allback
ĠĠĠĠ ĉ
æī ¾
encrypt ed
è®¡ ç®Ĺ
Ġb irth
ĠValidation Error
Ġm oney
bl it
lev ation
Almost Equal
C li
Ġ Ø
ĠA P
), (
xc b
is Enabled
Ġ" ?
get Server
Stream ing
seq s
commend ation
ç³» ç»Ł
Greater Than
Ġ (),
b rowse
STY LE
Ġref lect
Ġaccess or
aff e
DIS PLAY
UnknownField Set
( ("
C aptor
ob ian
RS A
Response s
vision book
Ġs atisf
d de
Ġcode c
Ġem p
cosm os
get Address
Ġs andbox
check sum
Ġus uario
ĠIndex Error
ĠCOL UMN
Ġm usic
se crets
ĠS DK
ĠI gnore
Ġ( <
Field Descriptor
len e
[: :-
ĠSer ies
Ġd to
Ġan no
user id
ok er
C red
", ""
ĠR ET
ĠUn icode
limit ed
Qual ified
get Package
al ready
str ar
des ired
ĠByteArray OutputStream
Ġt ex
Re cent
auth ors
Ċĉĉĉĉĉ Ċĉĉĉĉ
Offset s
ower ed
] ")
Ġdist ances
auto configure
ĠRE G
íķ ľ
ĠMethod s
<? ,
in er
Ġn avigator
ãĥ ª
w izard
x ac
Ġtemplate Url
Ġschedule d
Ġtol erance
åĥ ı
R AM
List ing
Item Selected
Ġsub scriber
ĠQ U
G DS
m essaging
gr unt
write Int
Ġpre process
b udget
ĠS ite
Ġindex ed
vis ions
Ġnetwork s
dot env
Ġconv olution
ĠWork flow
* ',
ul i
Ġj ar
Ch oose
f as
Ġ ĊĊĠĠĠĠĠĠĠ
get Or
ÐµÐ½ ÑĤ
SPE ED
In tegr
Ð¾ Ð½
å¤ ´
Lat itude
Ġartifact s
DOC UMENT
in ches
Ġlist ing
RE COR
Ġre versed
Work ing
F N
ĠNames pace
Ġb uff
Ġto ast
Ġdat um
Ġfilter ing
Ġm ysql
Ġv o
Indent edString
D c
cre asing
," \
get Length
Ġout line
Sp ell
Sol id
E A
par ation
ĠRe gistry
EXT ENSION
MET A
Ġlang uages
lst m
e z
Ù Ħ
sim ilarity
l abs
Ġdeep copy
IDD EN
gogo proto
IT H
uc hed
Ġmin or
Ag gregate
Tick s
O CC
Type Enum
Ġ{} ).
IG IN
EXCE PTION
D em
it ulo
un ity
Ġb a
Ġset Is
Present ation
Contain ers
re cursive
Api Operation
EL DS
Ġtop ics
Top OpeBRepTool
B IND
Ġn oop
put String
Un marshaller
Ġtorch vision
< \
x C
=" '+
({ });
> '+
un link
ĠUn declared
; )
O C
a str
l ife
IN IT
at erm
ĠS afari
çĶ ±
ĠCan vas
Ġmac ro
get Position
P en
q b
/ ")
M agicMock
In tern
Qu ick
j un
s omething
Ñ Ħ
Ġm andatory
Ġ čĊĠĠĠ
on o
co co
iol ations
Ġ ri
ĠSe gment
Ġse veral
SC ALE
LANG U
V OL
Ġ} \
Ġ} //
Ġpro t
ĠEvent s
Ġh ierarchy
Rem ark
Ġskip ped
Ġhold s
ĠOS Error
z ed
url encoded
ph ysical
å¯¹ åºĶ
Ø§Ù Ħ
C redit
an other
Ġ" ))
ĠN ext
Ġap pe
has er
No ArgsConstructor
re tries
Ġv ote
CE LL
pag er
Test Data
~ \
Ġt or
() `
Ġdid n
ov y
Dom ains
object ive
æĹ¥ æľŁ
Ġ'{} '
R U
S qu
h df
is Directory
new ArrayList
e ase
Ġ[ %
conf idence
Mo zilla
m gr
Ð ¡
Ġb n
A zure
pre process
pass port
] ').
SY S
f ork
x mp
Ġe g
ĠH igh
xa e
alloc ate
ĠM ouse
user Agent
PRODU CT
T ech
sc r
wait ing
split ext
Rule Context
FOR E
Ġy o
Ġcol lision
Exp iration
d ue
ass istant
to Json
") }
Graph QL
ex am
list a
comp iled
LIC Y
Ġå ½
ĠIN VALID
MO DI
execute Query
Est imated
Ġv endor
LE ADING
ä¸ ¤
ĠSup er
: <
lo pen
Ġm Context
key down
ry st
Ð¾ Ñģ
ĠExec ute
, [
A st
ag gregation
uff icient
om aly
Ġsh ader
um ps
Ċĉĉ ĠĠĠĠĠĠĠ
ĠN A
Object Format
æł ·
mb ic
ĠD ense
ĠRel ation
h ape
Ġf type
Ġv el
Ġr a
Ġlist ed
Sub Cluster
RS Group
ĠDep loy
LAY ER
Ġob served
Sh arp
Ġfind ing
Ð¾Ð ·
Ġtx n
getElementsBy ClassName
Ġg p
Ch oices
exp licit
stack overflow
}` }
C amel
Div ider
ç ¾
Ġy s
ĠArt icle
ĠThe me
car bon
Execution Exception
E lastic
O s
let s
Ġhttp Request
Ġaccess Token
S omething
float ing
G LOBAL
project Id
char acters
Fac et
B ulk
t ier
Ġ čĊĉĉ
get Selection
======== ===
ãģ ĺ
r mtree
Ċĉ ĠĠĠĠĠĠĠĠ
v rf
ĠB O
Ġn an
>/ <
M aker
do or
TH READ
æķ°æį® åºĵ
ĠP R
Ġcom munity
iter ate
ĠHttp Status
çĽ ĳ
ĠMy Batis
ĠConstruct s
MIL LI
% "
as sembly
Ġg a
ĠH istory
Ġfind By
XX X
in coming
Ġh ack
Ġproject Id
sr v
Ð¾Ð» ÑĮ
W elcome
is y
get Num
ak a
: (
py game
env s
Global s
'> ;
ĠFl ag
ec ause
ĠJ oin
Ġloc ator
) }.
Ġ und
Ġre play
Ġmoment um
Bad ge
De partment
pre pend
sp ell
Ver ification
) ":
p urchase
en queue
Res olved
ĠRe place
resid ue
umid ity
od ies
With in
ĠExec utor
h ig
om s
Fl ush
Ġclear Timeout
UST ER
Ġj ump
EN CY
Ġread able
Ġmargin Bottom
Ġgo es
åĬł è½½
r ates
on Error
Ġdef ining
LO T
M icro
Im mediate
R x
T ap
h q
Ġapplic ations
ach ines
t iny
TR Y
crit ical
date picker
Box Layout
ĠSc roll
P df
oin spection
Al location
ĠDe v
requ encies
Java Script
r abbit
åķĨ åĵģ
P ix
S ex
Ġto k
ĠTr aining
ĠCon sole
AG ER
bre v
Ġlik ely
h id
æ Ĵ
Play ing
T oo
ĠO perator
Ġinter est
>: ][<
L a
Ġsynchron ous
squ ared
get Base
split lines
è¿ Ĳ
vers ations
Ġre ports
Ġh its
item Id
files ystem
S IDE
Ġuser ID
net ic
show Message
operator s
Ġcmd s
Ġf ade
if etime
set Time
Ġinter vals
grad le
Ġupdated At
)/ (
ĠT er
Out line
Rece ipt
Ġoper and
r ation
mb g
tx n
ĠLoad ing
ĠIN TEGER
con sum
AN GE
CL UDE
font size
instruction s
% \
Ġ è¿ĶåĽŀ
ĠP arent
lo ut
il io
ĠL T
Ġform ula
ĠStyle Sheet
B G
or ry
get By
ad vanced
æķ° éĩı
Ġcontain ers
æ £Ģ
); }
lo p
assert j
folder s
ĠLinked HashMap
ì ²
"" ")
Min i
Ġn r
Ġweight ed
ĠG MT
pos als
CANCE L
ĠWeb Socket
Logged In
, .
ì ĥ
back bone
Exp ired
Success ful
AV AIL
ĠDet ermine
) ].
ç Ł¥
al ter
() ',
Ġde clared
Ġdis p
éªĮ è¯ģ
. {
/ '+
Ġth ough
Ġobject ive
ï¼ Ľ
imple ments
ĠREQU EST
L IN
Ġp ivot
ĠB ody
ĠDe veloper
month s
Wait ing
H ow
h ort
Ġf m
ĠData Loader
ä» ·
plor ation
P open
a q
h c
col lision
ere um
spon gep
spongep owered
"" ",
ĠN eed
ĠR o
v nd
Ġp ressed
Ġde cision
Pro c
ĠE c
do jo
x ce
re call
ĠC annot
G round
K n
Ġp ublisher
ig en
Ġr p
With IOException
Retri eve
ĠEMP TY
p ulse
x eb
Ġs om
Ġl ife
Th ing
dat al
attach ments
ll ll
Call Check
spe ech
ĠElastic search
state ments
Funciones Swing
WIND OW
T mp
int err
*/ ;
FER ENCE
Leg end
D ed
f k
p ast
Ġ" >
mo val
$ _
ht able
Col lision
clar ations
ĠC ertificate
att ice
Main Activity
æŃ ¥
ĠIO Error
th r
ĠP ag
slide s
pre processing
ali y
AMPL ES
ar ded
Ġæł ¹æį®
Def s
æİ §
Ġoverride s
ad as
Ġg ain
( ${
re presentation
Ġp ic
get Page
pe m
=' \
Ab ort
à¤ °
Ġatom s
M ER
de limiter
IM G
diag ram
B ill
a uc
ë ł
. ],
ĠCO DE
Ġgu arante
ĠStruct ure
W ind
d types
ĠE qu
ĠE ither
ĠT F
ĠL td
Ġcom e
ĠJ an
ĠSl ider
g ons
v tk
Text Input
ĠOver ride
Tr ait
ise ase
Ġ? >
Ġcons istent
OutOfBounds Exception
dat um
Sub net
Record ing
trial s
D ROP
Over view
ä¸ ī
ê² ½
MEDI UM
Y arn
Ġn u
In herit
Ġcor pus
N s
ro k
is Object
Ġm otor
P ipe
ĠĠ Ċ
ĠCom posite
F ETCH
gen ome
c ub
c nn
mo z
over write
comp ression
ĠPred icate
p ane
re plica
Ġin form
orm ap
ĠV olume
ãģ ł
F igure
G AME
O ID
S ocial
è¯ Ń
T ier
Ġp an
(" '
oc al
Tool Bar
ENG INE
x db
ĠM OD
Fl ash
Ġtest ed
implement ation
am an
ac s
ers pective
SE PARATOR
part icles
Ġmsg s
Ċ Ċĉĉĉĉĉĉ
pl ant
Ġoptim ize
Q Size
Ġd ns
lt k
Radio Button
urn ament
DATA SET
Nav bar
s av
Ġ ĊĠĠĠĠĠĠĠĠĠĠĠĠĠ
Ġl hs
ãĤ ·
uetoothGatt Characteristic
Ġp et
ĠC ity
G LE
t utorial
Ġg row
"] },
Ġexec uting
DIS ABLE
Pe ak
Ġre ducer
(" </
iz za
To File
pre ferences
Table Model
Sp awn
åŃ ¦
hem es
equ ipment
x m
Ġd ense
ĠS core
ĠS pace
inter cept
await er
Ġg ives
ib ernate
Ġproperty Name
æİ Ĵ
er ce
an ent
Ġth umb
ĠString IO
Ġuser Info
Qu ota
ĠAdd itional
ret ail
c ampaign
ind iv
GDS Impl
D ES
um in
Ġi ps
ĠCom plex
Ġcon versation
fil led
F allback
q n
Ġ Ä
(" ^
enc ryption
ĊĠĠĠĠĠĠĠĠĠĠĠĠĠĠĠĠĠĠĠĠĠĠĠĠĠĠĠĠĠĠĠĠĠĠĠĠĠĠĠĠĠĠĠĠĠĠĠĠĠĠĠĠ ĠĠĠĠ
Ġdescri bed
PACK AGE
Ġpro x
Ġle d
Ġnew State
Ġinput Stream
æŀ Ĳ
S phere
b oss
ad b
Ext end
çİ ¯
ĠMov ie
Animation Frame
vol umes
Ġlog ical
UD A
PARAMET ER
Ñ ĸ
Ġm ot
Service Exception
Ġtrans ient
å¤ ĸ
Ġ" ").
Ġlo dash
Ġservice Name
de grees
is Blank
Ġin voice
è¯ ¦
draw er
Ġinstant iate
MLE lement
F W
_ |
Ċĉ ĠĠĠĠĠĠĠĠĠĠĠĠĠĠĠ
:" +
DO UBLE
simul ate
a head
x cc
Ġs ns
De p
assert AlmostEqual
Sh utdown
Den ied
Be ans
$ ('
= ?
our ses
Form ula
dispatch er
L ife
P ur
se y
Ġp si
Ġdraw ing
front end
N M
er a
ch k
De velopment
re ens
Ġ' ${
get Active
En velope
Ġ{} \
Par agraph
Ġmap Dispatch
Ġtrain ed
/ "+
S RC
x A
Ġy es
Request Listener
conf irmed
Ġsk y
Ġdown loaded
à¥ į
Ġlarg est
ĠFile OutputStream
y in
dist ances
ĠD est
AT OM
ĠData Source
arg ar
And Get
iction aries
L M
Pool ing
<< <<
GO Protos
an ode
Ġc amel
call able
+" \
R AC
v d
rivile ges
f set
int s
ĠDo es
adapter s
Ġtre at
- ',
H ORIZONTAL
Ġf f
Ġs dk
Edit ing
PROTO COL
z oo
activ ities
ĠIndic ates
b ond
Ġre use
ĠD iv
Ġlock ed
ĠLE FT
as i
ram id
xb b
subscription Id
$ ,
W ar
g an
ĠP erm
sn ippet
Ġcollect or
ĠÐ½ Ðµ
Ġbatch es
ĠP o
Ġexp ired
Char Sequence
Ġcent roid
åŁ º
getFull Year
; ">
x ed
Ġ// /
var iants
Rule Call
Ġlower case
clo ak
á Ĩ
ĠInter val
SK IP
) }>
Ġd ag
Re verse
ĠD om
l ag
em f
ĠS WT
ver b
Ġpr agma
struct ures
ĠUp dates
Data Table
With Default
Sequential Group
get Table
ĠT wo
ĠTh rift
pro posal
sub title
sign als
u ced
Ġst reet
ĠTr ain
open qa
handle d
Ġconstruct ed
ĠConvert s
ĠCur sor
Ġget Content
Ġreg ression
to s
ID S
pos ure
stri pe
ä½ ł
pro ach
Mod ifiers
è¿Ļ ä¸ª
m al
ne ver
Ġhapp ens
ĠInputStream Reader
Z ONE
ĠG aussian
response Text
prob lems
m orph
Ã ¨
ĠP ORT
Ġch apter
cod igo
Ref lect
Ð¸ Ð¼
ĠED IT
Ġin fer
co ol
Ġr tol
ĠM utable
create SequentialGroup
; ");
M i
t ro
Ġv an
** \
Ġpro viders
Ġstart up
CH ANG
åı °
Normal ization
Ġ' ))
ĠO k
H old
Ġch anging
access Token
may be
ĠRemov es
s ures
y ing
ot lin
One To
å¯Ĩ çłģ
P al
æĢ »
F ocused
Ġif rame
ĠæŁ¥ è¯¢
acc um
trace back
âķ ĳ
Assign able
ì ĸ
Ġ ign
Ġcom posite
Ġus ually
ĠTop ic
K nown
V iolation
LE X
fore ign
ĠLe ft
Test Base
Is Mutable
Ġborder Radius
ment ions
ĠIS O
PT OR
Ġpro duces
ET H
äº §
Cre ates
G ray
f if
s now
Ġcharacter istic
Ġleg acy
ĠÂ ©
S ince
Embed ded
Mult ipart
G PIO
Ġå ¼
fil ing
ç¼ ĵ
moment um
i load
Ġex tras
PL Y
Ġ çļĦ
at las
de crypt
AV A
G son
Ġset Interval
ĠH ead
PRO VIDED
ĊĠĠĠĠĠĠĠĠĠĠĠĠĠĠĠĠĠĠĠĠĠĠĠĠĠĠĠĠĠĠĠĠĠĠĠĠĠĠĠĠĠĠĠĠĠĠĠĠĠĠĠĠ ĠĠĠĠĠĠĠĠĠĠĠĠĠĠĠ
sph ere
C os
De posit
parse Float
Ġgover ned
ĠNot Found
get Document
Ġthrow able
Al g
ĠVal ues
P V
Ġg uid
block ing
ig est
ob serve
dat os
è¿ °
VID ER
Ġse lenium
Ġnum ero
v ac
le mbic
Rec order
U A
exp iration
open ed
de mand
Ġconfig urations
serv ing
Transl ator
ic ast
Ġde livery
Ġk o
mult ipart
basic Config
I STR
m se
Ġg son
field AccessorTable
Ġbuffer ed
D raft
ĠD oc
ĠF A
FE ATURE
i lo
if s
St and
Ġmap StateToProps
Order ed
j g
ur s
PO LICY
Ġs copes
Ġgroup Id
Ġmean ing
expression s
Ġclass ifiers
ia o
extract or
Confirm ation
Ġasynchronous ly
L et
r hs
get Properties
Config urer
ph on
K ER
m time
Ġp as
Ġw ish
([] );
` ).
th an
ĊĊ ĊĠĠĠĠĠ
url patterns
F loor
Ġp itch
act ice
ĠRe presents
Ġcor relation
= __
E sc
a el
re cover
read s
ne arest
tool kit
De leg
AP H
Ġopen ing
Ġmask ed
E le
ĠLog ging
Ġfolder s
ĠgetDefault Instance
č ĊĠĠĠĠĠĠĠĠĠĠĠĠĠĠ
Ġre duced
ma int
No ise
GR AY
Ġencode URIComponent
Ġt l
is Active
Ġs pring
Ġdis count
çĶ¨ äºİ
ìŀ Ĳ
is String
ĠDe velopment
r w
qu ota
Test Util
TER MIN
Ġ` _.
ĠTr igger
Ġsort ing
Rest art
aut og
$ ",
prepare Statement
lik elihood
= }
Ġtest Case
page Size
BO OK
Hand ling
Ð Ĵ
Ġnormal ization
èģ Ķ
C ampaign
Ġde ck
RE PORT
Ġne arest
xe f
com pound
Dir s
Ċĉĉĉĉĉĉĉĉĉĉ ĉĉ
fast a
Ġmed ian
+ ',
B IG
ic ators
parse Double
Top ics
g lo
Ġend orse
ĠQu ant
BIN ARY
C op
Ġd aily
]) /
Reg ions
Ġs ingleton
ff ic
ĠB ut
Ġro i
ĠSTAT US
Ã ±
Ġauth enticated
Gr ant
IST ER
p riv
sc aler
interr upt
e in
Error Exception
gr upo
ĠUn known
PRO FILE
Qual ifier
Ġ+ '
ĠB lob
ĠR ight
handle s
Ġsystem s
Ġge om
Ġtw itter
AL IGN
+ ".
] ");
_ =
č ĊĠĠĠĠĠĠĠĠĠĠĠĠĠĠĠĠĠĠĠĠĠ
anc ing
ent r
En crypt
Ġac l
Less Than
Stem mer
L oo
IN ED
Ġcheck out
D ash
H eat
Ġ ĊĠĠĠĠĠĠĠĠĠĠĠĠĠĠĠĠĠĠĠĠĠĠĠĠĠĠĠ
in am
WAR N
Opt im
mn ist
] })
AB LES
Ġfore cast
Ġbelong s
mat plotlib
C n
] )),
Access Type
represent ations
ĠR ED
ren ch
Ass oci
ĠMax imum
Ù ĩ
Ġim gs
pen ame
Json Include
[:, :,
Script s
è¾ ¹
Tw itter
x er
ç Ī
Ġget Key
Ġqu ota
Ġdet ector
Ġsplit s
: ${
Ġb ridge
Ġis Empty
Per formance
Oper and
t al
ĊĠĠĠĠĠĠĠĠĠĠĠĠ ĊĠĠĠ
get field
Ġcan onical
Ġgener ating
JSON Exception
real path
ĠAd apter
ì ľ
Ġp ersistent
ane ous
AppCompat Activity
ç§ Ĵ
We i
Ġcom bo
iv el
class CallCheck
Ġsimul ate
) ['
C ENT
h or
get Group
ĠU SA
Det ect
ä¸Ĭ ä¼ł
Ġc lf
co upon
ĠN avigation
l ens
dis c
mod s
ĠAn alysis
W ire
Ġt id
Ġf t
Ġa o
Ġun a
OR G
Ġtrans parent
omet ric
G PU
é ĸ
for Name
ĠDocument ation
TI D
list ing
% ,
F un
RE CE
xb f
________________ ________________
m ont
Ġ[ `
Type Info
Ġint ended
Ġ'/ ',
Ġobtain ed
scale s
ĠFire base
çĽ¸ åħ³
arb age
x ad
Ġ( __
Ġ( $(
Ġa ffect
str ain
Ġf x
get s
åĪ ¤æĸŃ
xls x
V S
Ġs peech
Ġd l
ĠP ush
getUser name
ĠOUT PUT
Ġw ent
Ġnew line
Ġab ility
DIR S
pa id
MET ADATA
Ġf aster
Ġh ardware
random UUID
year ly
n aming
or ic
Ġt bl
Ġs id
put es
exp ire
Ġload s
pc a
press ure
Ġdraw er
mq tt
D ARK
st y
ĠList Node
ie f
Mac ro
Ġs un
ĠM otion
exists Sync
inv ite
if ar
get Project
Col l
Ġcomp ressed
Ph rase
mac ros
Ġsw agger
Ġmat rices
ĠâĢ ľ
end o
Ġi e
ĠIn v
ud dy
Sh own
fac et
ë© ´
P AN
S OL
ol s
Ġ` {
DE LAY
Pre paredStatement
AA A
V oice
b uffers
ub its
ĠText Field
SCRI PT
r ss
Ġc ool
çī ¹
=' #
User Data
default Props
Column Name
Exp anded
Ġstop ped
pre set
read File
Ġdirect ive
[ {
ķ ãĤ
ĠG RO
can onical
Ġslot s
ceed s
ALLOW ED
Ġ" ðŁ
Ġr df
Ġ' '}
Ġan aly
Ġ ðŁ
Ġnew ly
Ġget B
\\ \\
Ġar m
I OD
h ang
ĠA SC
CLASS ES
Rew ard
Ġcr ash
GRO UND
open stack
ĠURL s
Author ized
bad ge
ĠPer iod
i ates
z ones
Ġc redit
om es
av id
ĠN S
ĠUn ique
decode d
Ġth ink
ĠO ffset
OT HER
Ġeffect ive
L wjgl
R ename
ch ors
Ġinter mediate
AL PH
current Target
åı ³
om g
ĠS ide
x cf
ur y
Ġget Max
Application Configuration
Port s
x ec
ĠC ourse
User Service
bounc y
opens ource
Ġser v
clo sure
Ġcom parator
mp i
uplic ated
Ġ Ñĩ
ĠM obile
Ġle ader
in ated
Ġa io
Ġconv en
BO ARD
h dr
inter est
Client Rect
ĠC r
ens ive
Ġå Ľ
åį Ĺ
toggle Class
Ġident ifiers
ĠGit Hub
quis ition
b u
Ġformat ting
PI ED
BO O
Ġlook s
fade Out
b z
File Type
writer ow
S Z
mat ic
Str ip
xd c
= .
f rag
get value
Ġcom plet
sc ala
ty ped
so ap
Item Id
sv c
ĠVert ex
C AM
m pl
ul us
Format s
conn exion
M K
ad am
Ġl ittle
Ġel astic
ĠW rapper
lev ance
ab lish
Th umb
the ad
ĠCh unk
Wh itespace
Success fully
x dd
an alyzer
est imate
Ġget Parent
Ġallow Null
ev es
AN K
equal To
Method Name
nick name
T ex
Ġc le
Ġre ported
Start Date
b el
s it
set Window
ĠC R
anch ors
Assert ion
c ash
set C
âĢ ¢
dat ad
TH ON
t g
get Configuration
In correct
ÐµÐ½Ð¸ Ñı
THRES HOLD
O U
get End
ĠCom parator
D jango
po jo
Command Line
Ġsp inner
è¯ Ĩ
éĹ Ń
Oc curs
Ġl as
Ġget Last
ACTIV ITY
ĠHttpServlet Request
sc anner
Test Helper
Check sum
Render ed
xc a
mar ies
Socket Address
s ix
__ );
Ex am
Ġlist ening
Check ing
gress or
][ -
Ġqu it
dispatch Event
Ġcomput er
bouncy castle
T v
t ender
Ġw ind
Ġtr affic
auto complete
Ġman ip
+ ")
k r
eb e
Web Kit
Ġfollow ed
j ira
Ġs ilent
Ġinter cept
ĠmapDispatch ToProps
p ivot
s pread
ID ENTI
we apon
NotSupported Exception
W L
e Contents
Ġb p
St aff
To Be
ĠThe y
Ġresource GroupName
SY NC
C atch
up y
ĠPy Qt
an j
ut ive
Connection Factory
Ñģ Ñı
y i
Ġf all
æī ĵ
m int
loc ate
Ġdis covery
ulf illed
Ġr id
"] }]
é¢ Ŀ
ris k
ìł ķ
F und
Ġde partment
Ġg ather
ĠP oss
tra ffic
SEVER E
P ed
Pro ceso
DI O
styles heet
Mov ement
Ġgu ard
con tr
ĠM issing
replace ment
Ġassum ed
æĶ¯ æĮģ
mole cule
ip lic
Quest ions
ĠOrg anization
R DF
e up
tr avel
Ġshould n
Ġold Value
Ġauthor ized
ate ver
int erm
ĠB oard
CO UN
ig e
Ġaut os
ĠDes er
de partment
get Query
Ġun set
group Id
Ġexp ire
Ġperson al
lene ck
S HE
l ite
s List
ĠC HE
ĠAss ign
get Min
ĠĠĠĠĠĠĠĠĠĠĠĠĠĠĠĠ ĠĠĠĠĠĠĠĠĠĠĠĠĠ
activ iti
B enchmark
Ġp addle
ph ysics
re use
Client Exception
Ġè §
CR Y
Vent a
F lip
ĠC UR
ak age
I LE
oo q
Ġhas n
Unique Id
crit ic
] ._
St eam
add Field
da emon
Aw esome
Ã µ
Ĳ ľ
Ġf rappe
trans formation
Ġgroup ed
uzz le
de claration
ol a
AC L
context s
ĠCom pletion
ater al
PARAM S
ĠTy ped
å¡ «
" %
V endor
Ġ/ \
Ġ)) }
è£ ħ
S imulation
t leneck
æ¡ Ĩ
Par a
Ġclient Id
cor ners
åĲ «
############################################################################ ###
Ġ lic
Ġser ve
Ġbuilder ForValue
ĠP ol
éĿ ŀ
Ġp tr
Ġobject Mapper
af ety
i ang
AS ES
)* (
M ob
Ġpost ingsEnum
ĠPred ict
J pa
Ġ ĉĉĉ
() *
Key Down
session Id
IM AL
vid ing
d yn
Ġp ys
Com position
pre ference
scri bers
Ġest imator
Ġsubmit ted
o sc
Com munity
ĠUtil ity
ĠSpec ify
Ġtk inter
?, ?,
an aly
Ġqu otes
Ġb anner
ĠL ab
ST EP
At trib
ld ap
pop per
ĠPAT H
Ġhtml For
Ġtri p
'] ]]
xf e
mail to
ĠHel lo
_ "+
ĠL ambda
pr ices
Ġflex Direction
CF G
inter active
nan o
re form
Off ice
z ier
` ")
ized Name
Arch itecture
Fetch er
ĠPart ition
RUN NING
Members hip
G H
o ft
urn ame
store d
Ġ çĶ¨æĪ·
'] ],
getStatus Code
ici ency
q k
ay er
end Time
ĠP aint
Ġcl oned
Ġsm art
ĠÑ į
Ġre tries
AG ENT
Ġag g
ĠSTR ING
ä»£ çłģ
h b
ro ps
Ġde crypt
iv a
d ice
x af
get Label
ĠJ ust
dis criminator
fact ors
. '''
con om
google ads
d ll
Ø ³
co ffee
Un less
L STM
x bin
Ġvar iants
Ġser ialization
Page Context
åħ ·
CONT ACT
Car ousel
cho sen
x low
de pt
con j
ĠM ail
Pos sible
æĸ¹ å¼ı
Fire base
ĠD d
EN UM
Ġim plicit
Ġem itter
author ize
ĠFunction s
BY TE
repos itories
D ic
en emy
Ġget Node
os a
bound ing
get Log
are as
ense s
ancell ation
P et
Ġset State
Ġmulti ply
Retention Policy
ak ed
gen es
":" ","
Ġpackage Name
å¸ ĥ
ĠTransform er
Walk er
T orch
={ <
Ġre call
ĠK afka
ga ussian
H ar
Ġy ang
ise s
method Name
Ġinter act
Ġemo ji
e low
ı ľ
get Un
Form s
Char acters
Ġtri angle
ĠVariable s
P ing
ad vance
ĠRO OT
v cf
å¿ Ĺ
** /
ĠWh at
REQU IRED
! ./
Ġ/> ,
P or
in vert
user Info
LANGU AGE
M AND
ot er
ĠTest ing
çĶ »
ĠGe cko
g j
v pc
Ġ eta
Ġm orph
ĠA nt
çĤ¹ åĩ»
Ġre lay
ĠR ate
trans itions
Ob servation
grad s
Touchable Opacity
H D
y c
art ype
use State
åŁ Ł
i ations
Ġf etched
lo ver
Ġh ub
=" %
ber g
Ġutil ities
S essions
ĠD r
=' %
Effect s
çº¿ ç¨ĭ
â£ ¿
Webpack Plugin
Ġre wards
il iation
ĠC enter
Ac curacy
SI MP
un ix
Ġdis connect
Require ments
æľī æķĪ
ĠTem por
cour ses
st s
de termin
an imal
Ġc mp
ve al
Ġcom ple
Ġpro bs
export Property
the mes
LI B
is nan
fade In
ĠServlet Exception
un o
ĠM essages
Ġmax Width
æĿ ¿
: #
k mi
get Bean
ĠOpen API
G as
i en
x high
ĠL ength
Ġbrowser s
Ġtele metry
T el
x cd
ile stone
Ġspect rum
ç Ħ
ĠS K
ĠCon tract
æı ı
ĠComp any
ĠÑ Ħ
n am
Ġel m
Ġag ents
calc ite
Ġpro posal
+ ",
jo urnal
æľĢ å¤§
S coped
v y
Ġp refer
Ġg rammar
v w
ĠW R
current Page
ĠResult s
aterm ark
Y S
conf lict
Ġnamed tuple
DESCRI PTOR
U PIED
m h
x df
[] {"
property Name
sample d
Ġweb socket
è´ ¦
d j
set Position
Request Handler
Ġ[' $
KEY S
æĬ ¥
ĠVis ual
l ifecycle
ĠMatch er
c af
ok ed
ĠPer form
indiv idual
Ċ ĊĠĠĠĠĊĠĠĠ
st an
Ġ- (
As sessment
ĊĠĠĠĠĠĠĠĠĠĠĠĠĠĠĠĠ ĊĠĠĠĠĠĠĠĠĠĠĠ
Ġoperator s
P oll
Ġv a
PAT CH
Dist ributed
SpringBoot Test
ë¦ ¬
B RE
Ġp ix
Ġn avigate
get Sub
ĠL ex
ĠP a
ĠD ashboard
ĠR PC
LE ASE
="" ;
Ġgd al
x da
y bin
Ġuser Service
Ġtri ple
ĠVAL ID
çĽ® å½ķ
DIRECT ORY
f z
} |
sup plier
lab eled
end Date
ĠL iteral
ĠWork er
v an
Re ports
Ch allenge
Ar m
ĠRe lease
LO Y
","" ]],
I i
` }
est im
av y
Ġside bar
Nav Link
ĠAv ailable
G ithub
R ULE
y low
de posit
(' $
Co eff
. #
Ġ Endpoint
transform ed
Book mark
Ġv oice
set Horizontal
Exec utable
Immutable List
Ð¸ÑĤ ÑĮ
OCC UPIED
S aving
v irt
oo oo
åħ¬ äº¤
d ry
un bind
y high
sh i
test er
array copy
å¿ ĥ
sell er
) |
cont our
å® ¢
Wr apped
ĠLo ader
S parse
d g
æĿ Ł
Ġc z
ĠRe ader
ĠZ one
accept ed
at tempt
Ġpro g
sk i
' ")
ë §
ĠM AC
sw ift
Ref s
FIL ENAME
******************************** ****************
Ġrecord ing
Ali ases
G D
U TION
ĠC urrency
Ġal ternative
Client s
vide os
led ger
Ġlat ent
Play back
lik es
co untries
By Key
Ġtext s
gen re
WIT CH
launch er
Ĺ ı
VER TICAL
ÑĢ Ð¾Ð²
su it
mov ies
f u
le ad
Instance Of
Ġedit ed
L B
oc cup
ĠAtomic Integer
Ġsen se
Ġå½ ĵ
: ].
re mark
Le ast
čĊčĊ čĊčĊ
b k
OR IGIN
Ġle ad
x be
G uid
i log
out ine
íĬ ¸
app lications
To Array
en arios
Ġon Success
FI ELDS
Return Value
æŃ ¢
Oper ating
c assandra
x E
ĠG ENER
sign in
Generated Value
Sl ug
ĠSign al
F M
r as
Ġse ems
result Set
peak s
Ġasc ending
p ac
â ł
get Cell
Com pose
ĠH and
ãĤ Ħ
Q C
T Z
m ill
to ByteArray
Ġun i
Ch apter
CT RL
lip ay
f y
]) ):
Ad vanced
Exp ress
c ant
m ime
or um
ĠL azy
ĠTrans fer
é¡ »
m all
en n
ĠSc heduler
Cor ner
g is
ro gate
tt f
å®ŀ çİ°
C alculate
get J
èµ ·
N B
ĠĠĠĠĠĠĠĠĠĠĠĠĠĠĠĠ ĠĠĠĠĠĠĠĠĠĠĠĠĠĠ
Ġt ur
po pover
assert ArrayEquals
Schema Org
ru it
j ComboBox
Ġt ries
ent ions
ex tras
tr ait
Message Box
âĸ Ħ
get Canonical
col group
ne ar
ĠChar Sequence
ì Īĺ
data flow
cord ova
Ġver b
S i
er d
ĠAp pend
ugg ested
S u
set Cell
Ġsub tract
ĠPr ice
glyph icons
k an
x de
ĠSc ale
Normal ize
get Window
čĊĠĠĠĠ ĉ
e ber
s lices
Ġ' '),
Ġs chool
é¢ Ħ
d ifferent
RE Q
cent ers
Nom bre
Ġ: =
Ġch allenge
Ġcode cs
Ġpart itions
Ġ{ (
Ġcom pound
ber ry
ĠRad io
Ġcontact s
di am
Lin ux
æĿĥ éĻĲ
+ ')
Ġde letion
Ġat tempts
Api Response
war ded
D ICT
} :{
FFFF FF
b uck
ne eded
start up
Replace ment
TOP IC
artifact s
enumer able
SpringBoot Application
P ose
im uth
com merce
AR ED
ph ony
Ġ... ,
Ġplace d
Ġclean ed
Ġcap abilities
ĠC atch
Ġdraw able
Man ual
cred s
M aint
m om
is Equal
Ġend ing
report er
Decor ation
assertIs Not
D aily
w id
Ġg ym
Ġ" ^
get Style
Ġl c
ht m
Pro be
ãģ °
Ð°ÑĤ ÑĮ
ro b
Ġp asses
to IndentedString
embed ded
ĠBr anch
or er
en ix
Ġitem View
ĠPre conditions
ĠPh one
c isco
p aste
Ġre commended
key patch
Exact ly
Ġres id
Query Builder
Check point
ploy ees
å® ī
AUTH ORIZ
ĠContrib utors
> [
m igrate
Ġ" "),
semb ler
F acing
e co
Ġc ampaign
Ġf b
Ġk v
B irth
ĠA UTO
pay ments
S un
a Ã§Ã£o
to Object
List Of
ĠText ure
Wh ile
ĠMet eor
@@ @@
T a
h ierarchy
in ic
late x
Ġl w
no va
na ire
R aster
Ù Ĭ
Ġpos sib
Ġdat atype
Ġsession Id
Sw ipe
Ġip v
Qt Widgets
b ib
for um
Ġnames paces
åİ Ĩ
Med ium
ĠNe ither
is Selected
ug ar
new axis
Le arning
ĠK eep
E ther
P ot
Ġ[ {}
ĠP anel
C itation
Ġ( ;
Ġpro pag
Exception Handler
for ced
UM E
ur on
Ġcon current
cur se
Ref lection
get Event
ĠC ancel
Ġis su
tw img
RECOR D
col lapsed
let ters
hu awei
ĠjSON Object
j ail
s copes
un shift
stream ing
ÑĤ Ð¸
Media Player
m w
get L
Ġst aff
end ance
current User
Ġar bitrary
get Map
ĠJ oi
Form Item
Change Event
Part ner
ynam o
COMP LETED
sur vey
Ġappe ars
G rammar
W O
x ee
st orm
AVAIL ABLE
Ġb ooks
Access ors
Aut om
l apping
s x
v node
play ing
Ġover all
($ ('#
Ġgr ab
cap abilities
' ></
Ð ŀ
Ex clude
AC ING
ĠSt age
xb d
omet imes
, :,
s os
ĠL oss
Ġmin i
tra jectory
material s
Ġå° Ĩ
Data Loader
ãģ Ŀ
Ġph rase
çľ ĭ
set Int
Ġfunction al
ĠImplement ation
Ġjet brains
B ond
S Q
ac iÃ³n
'' ')
grad ients
åħ³ éĹŃ
f ed
ĠM sg
EL LOW
Ð» ÑĮ
Tx n
Lat Lng
G ene
ĊĠĠĠĠĠĠĠĠĠĠĠĠĠĠĠĠĠĠĠĠĠĠĠĠĠĠĠĠĠĠĠĠĠĠĠĠĠĠĠĠĠĠĠĠĠĠĠĠĠĠĠĠ ĠĠĠĠĠĠ
ĠSum mary
Ġp urchase
ĠA udit
ĠCart esian
H term
Ġ" "));
add Property
BU CKET
Ġaff ine
ob tain
uc lide
d ub
Ġreturn Type
service Name
I de
() ],
Ġb io
ĠB L
PPO Hterm
ç¼ĵ åŃĺ
PPOHterm K
Ġpro be
og gle
======== ==
dd l
pause d
unct uation
ĠSign ature
Enumer ation
M d
m ium
ãĤ į
Ġpop ulated
SA VE
W HERE
get Test
######## ##
ãĤ Ī
Ġshow ing
è¾ ĳ
ĠAppCompat Activity
get InputStream
hash es
person al
BACK END
ĠMulti ple
A VE
M emo
Ġå ľ
gre ater
Ã ¸
Re present
app lic
Ġbe comes
Ġ}) (
Phone Number
=" ")
Form Data
Ġtext View
TR ACK
P IN
S sl
Ġx p
/ ";
D Y
£ ¼
er beros
ĠD ay
os h
ffff ffff
. '.
B V
st ores
ed y
éĵ ¾
= ("
ab l
set Border
Pre conditions
Ġq r
Ġbl ur
Encoding Exception
d ut
ri ed
ĠJ o
COMP ONENT
pre fs
ãĤ ı
Pre pare
xf c
H P
get PrototypeOf
Ġd og
ĠM D
gr ass
xb a
pin yin
jac ency
f ault
p ure
ĠD er
ĠÐ Ł
sur f
celer ator
Ġdetermin ed
> ${
b rightness
f inite
x axis
ol ate
Ġget F
ĠM MM
OR ITY
AL OG
çİ ĩ
D ocker
c ing
r ans
re lay
PRE C
f ld
Ġs ites
ref lection
ĠJ av
reg orian
Ġinter p
Auth enticator
UP D
p oth
RE MOVE
reg exp
c amp
d sl
ĊĊ Ċĉ
IC ES
Base Model
Output s
Ġshort cut
writ able
Detalle Form
MEM BER
M es
st icky
Ġt ier
Ġs z
ĠJson Response
M APP
U ndo
Ġ} ]);
Ġm irror
Request Exception
ä» ĸ
inam ico
C pu
g am
æ ¹
Ġ amb
un register
set Is
Ġsl ash
++ ,
spect rum
ĠåĪ łéĻ¤
Coded OutputStream
r ist
Ġon Close
íķ ´
ĠSec ret
Ġslide s
E th
cont iguous
par sing
Ġmed ium
heat map
J an
f lix
CONTAIN ER
def erred
Ġimport lib
graph ic
Ġlow est
A cl
J ust
Ġm im
ĠU TC
Ġnode Name
ĠWe ak
Ġtw ice
ĉ Ċĉ
() ",
id f
ĠP I
LE G
is NotNull
Ġo dd
') ):
Ġbase name
Ġreport er
IDD LE
Add ing
==== =
Ġcollect ed
j ooq
Ġ& =
Th umbnail
comp act
Ġsign als
+' </
ĠFOR MAT
cons istent
ĠAx is
Ġb ullet
end ant
train able
exp ansion
Sto red
Ġchain ed
Standard Charsets
W arn
Ġ' ^
String IO
ãģ ©
Sh ot
cor relation
A IR
V s
h ikari
è¯ Ŀ
wo od
Host s
ĠA verage
Ġë °
è¶ ħ
ĠS yntax
ìĿ ¸
de part
ex periments
Ġm ention
pl ist
ĠM aster
dec ision
il s
De ad
ĠMedia Type
Ð° Ð²
h ind
Ġp refs
get Error
ĠO per
Ġpath name
ĠImmutable Map
Ġr aster
sub scriber
åĬ Ľ
is Initialized
... ",
annot ate
From File
SIGN ED
ManyTo Many
in active
[" _
ĠList ener
Ð¾Ð ¶
F our
T ail
ĠGRO UP
M alformed
ur istic
B an
R R
T ol
ĠA B
An g
sl ave
Ġproto buf
RA W
S pread
m art
n k
Ġsup plier
Full screen
f ocused
Ġt om
is or
Ġen emy
Ġinternal Get
B AS
em itter
Ġdecimal s
writeField End
writeField Begin
mo zilla
Char Array
ĠArt ifact
S ms
y ahoo
Ġem b
ĠEX ISTS
Ġgen ome
Ġv illage
Re covery
fill Style
Example s
ĠCHE CK
Ġp ri
Ġp olicies
ĠF igure
web hook
S CO
an alyze
av is
contract s
Q A
h ou
ĠS ame
ĠB log
ĠW eight
we ep
record ing
g ar
Ġj np
mouse down
Diag ram
Der ived
s mo
set Minimum
fl ake
Ġmark s
Gr pc
V C
p rivacy
t ie
um l
PE G
Api Exception
Ġì ķ
synchron ized
> #
Ġp reference
Ġn ic
ol t
set Adapter
uc ion
DI TION
ular io
($ .
Ġdescri bing
F G
get Bounding
Ġw b
RUN TIME
Ġ Er
Ġv im
ass oc
ĠC al
ĠIN DEX
ĠItem s
ç§ į
Interpol ator
ipp ets
Ð Ŀ
Re pos
å¯ ¼
Linear Layout
Ġfore ign
Y ES
Ġf abric
ap ted
Ġw f
set Foreground
Tr an
Ġadd To
Float Tensor
Ġbound aries
> &
L int
R ay
id ers
import ance
Ġ# '
xf d
^ {
ĠF ooter
select ors
Ġmin imal
Open ed
direct ories
f ederation
s With
er ry
Ġn y
Config ure
S leep
Ĩ Ĵ
re served
ar o
Ġde leting
key vault
Ġevalu ated
/ $',
int ensity
sup ply
exist ent
ĠÐ¾ ÑĤ
b is
re views
Ġget Token
ĠIN STANCE
w ares
ì Ľ
ex clusive
art s
Ġget Context
EX IT
ĠKey Event
REM OTE
__( **
Ġdat os
Ġsp in
Ġ" !
ol or
Off line
Ġ" //
from String
()) [
ĠPoss ible
ıľ åįķ
p ct
Ġpro pTypes
ĠAlert Dialog
h params
x min
Ġ' ~
]; </
PO OL
We ak
Ġ ################################################################
re pl
key up
Ġk s
long Value
bucket s
orn ado
l hs
n ical
Res erved
ĠU S
read ing
F K
F old
Ġin dependent
Ġst oring
th ink
Ġob servations
Call Back
Ġdiv ide
ĠAss ignment
Ġex ported
ĠRes ources
ĠFile System
ĠCL ASS
I ENT
Ġc utoff
(( [
Per Page
Product os
DEF INED
pot ential
> '.
è ª
[' @
Ġorg an
Ġ" ="
Ġout come
ĠMap s
Ġcond itional
xs d
ãĥ³ ãĥ
Ġiterate e
Ġs he
Ġdata store
Ġconvert View
D NS
s ax
T rip
Ġj q
pack ets
RE CTION
Ġå Ĭ
lng lat
c rawl
Ġs ap
PO P
Ġicon s
as ctime
Ġre li
app y
Ġid le
HO SP
Rel aciones
lin der
abc def
/ )
is Visible
Text Color
index ed
Out come
draw ing
READ Y
align ed
ĠCl one
Ġpress ure
Ġat tn
}. {
sen try
short cuts
D ifference
ĠP e
čĊĉ čĊĉ
Ġum a
ĠIss ue
F FIX
Ġevent Name
ĠTerm inal
@ \
G esture
c ad
AC TER
æĸĩ åŃĹ
sens ors
ĠPre pare
Ġpad ded
============ ==
Ġa u
ĠC C
AL T
s lope
ar ner
Ġj e
cap italize
tre nd
Ġ ×
lib r
å· ¦
Clean up
Launch er
C aption
(" "))
ĠM AGIC
Ġpro cedure
ĠPro vince
rt l
w sgi
Ġd os
ĠF ixed
čĊč ĊĠĠĠĠĠĠĠĠĠĠĠĠĠĠĠĠĠĠĠ
SER IAL
ĠâĶ Ĥ
G allery
f riends
h ack
web app
u u
ĠS park
Ġx r
An imated
Ġcomponent Will
Ġtra jectory
Ġre gisters
set Power
Ġcon sume
': {
par ql
me ga
Inv ite
å®Į æĪĲ
ulner ability
D URATION
at on
ĠS can
AR N
App lications
åĲ ¬
ARG S
re ement
Ġp ulse
po k
Part itions
MENT S
NON OXYGEN
QUE UE
Ġencounter ed
s an
pen alty
Or d
y x
ol ated
ĠF IL
Property Name
PER IOD
S peech
Ġmark up
xb c
Ġplay ing
Ġrespon d
N uevo
n ux
ĠBorder Layout
L ater
M en
Ġf ired
Ġget File
######## ###
Hist ogram
jas per
= /
Ġtrans itions
MET RIC
tan h
in ations
st ories
ur ons
Ġget Description
VER T
Run s
Full Name
et ag
Ġgener ates
è§ Ħ
ë °
le e
Ġj dbc
ĠLe akage
Ġatom ic
Ġå¯ ¹
Ġd uplicates
St reet
pad ded
Ġeffect s
P RES
c w
from Json
Ġgraph ics
PL AIN
DF S
linked in
toHaveBeenCalled With
!!!! !!!!
H ero
W EST
h ue
get Items
ĠS un
are house
IC AL
Ab sent
B ug
xf b
xe a
Ġtim ing
Ġcoeff icient
as n
ĠI R
âĶ ģ
Ġgrad ients
Âł Âł
Ķ ¯
ver ification
pare n
simul ator
f ragments
In dividual
Ġdir name
M apped
S at
Ġan alyze
web driver
Ġest imated
Value Type
Ġsub title
ãĤ ¢
dd d
copy From
åĨ Į
S US
č ĊĠĠĠĠĠĠĠĠĠĠ
PO WER
ĠVAL UE
Ġget Message
user Data
Cl usters
Comp ilation
ĠConfig ure
Fragment Manager
ĠAb out
Ġacc um
postgres ql
iline ar
an onymous
ur ator
un wrap
Ġg zip
Ap proval
Ġbase s
Sp in
V A
Ġn t
set Field
ĠD etermin
Ċĉĉĉĉĉĉĉĉĉĉ ĉĉĉĉĉĉĉĉ
T k
f echa
im mutable
Ġl im
)) (
ĠM ESSAGE
level name
ĠReact DOM
ĠDef ines
Before Class
Q N
x iv
Ġ lf
is Assignable
ab e
ĠMer ge
Ġm ime
il le
ĠF ail
Ġoptions OrCallback
Ġmov ement
Ġcorrespon d
G aussian
T weet
w y
Float ing
is pan
ER T
Col lapse
Screen shot
ĠField s
order By
":[ [
/{} /
M oment
__ ',
local ize
perm ute
. +
I AS
Ø ´
Ġ" ("
Ġs ocial
(" \"
com parison
EX TERNAL
mer ica
is i
ĠT urn
ĠD NS
Ġpl ural
çļĦ æķ°æį®
Sp atial
Est imator
ç»ĵ æĿŁ
F ederation
T K
c z
Ø ¨
ing State
ing Service
of s
xml ns
ĉĉĉĉ ĉĉĉ
get Task
Ġare n
render ed
Target Exception
interval s
éķ¿ åº¦
Ġre actor
Se verity
Ġk afka
ĠM achine
list ed
write FileSync
Ġcurrent Time
LIC K
Proto buf
tuple s
s ns
ĠCh ild
æł ĳ
d uplicates
t alk
u o
è Ĥ
Ġf its
.. ...
class path
Ġdf s
ĠDist ributed
HOSP ITAL
Ġ{ $
get Job
Ġb d
ĠS yn
Ġsub sequent
T Exception
Ġ} -
Ġd h
ĠS ensor
é ¦
Ġf ine
Ġ[ <
Pro duction
ĠU i
bo unded
org anisation
ov irt
CL USTER
Spec s
D H
c allee
et ros
Ġs il
pro tein
Ð¿ Ð¸Ñģ
bal ancer
ate ll
Ġst em
ĠB o
ip h
æĻ Ĥ
T or
l ime
=" -
EX IST
ready State
PN G
test data
AS C
erm al
PAR T
Ġsn ake
Ident ification
è Ī
set PrototypeOf
ĠI o
Cre ar
COMP LETE
MIS SING
++++++++ ++++++++
compan ies
N a
b ash
ct ypes
set ToolTip
De gree
DI ST
created At
Multi plier
unce ment
! </
I FT
g host
assert All
Ġ__ _
ĠLI ST
flat Map
react iv
Ag gregator
oned DateTime
jInternalFrame DetalleForm
B uffers
Ġr f
ced ures
hance d
A FF
B ooks
H ive
se verity
PRO VIDER
respon sive
Print Writer
ĠAT TR
N avigator
com posite
sub s
tri angle
r ub
Ġre cover
Ġread only
ĠEN UM
L ost
P ENDING
ĠB ucket
Base line
à¸ ²
ä¾ Ľ
ail er
[" <
ĠE ffect
åİ »
æµĭ è¯ķ
Ġ ê°
Ġd ry
Ġ$ $
Ġ/* -{
ĠJson Node
Simple DateFormat
OO GLE
u str
Ġ ang
em ails
ĠT ags
pro visioning
ER A
Ġpr ices
% '
D inamico
as hed
Ġcl js
reject ed
vertical Layout
in cident
ĠS ound
In sn
Ġg al
List Adapter
ĠTrans port
Ġedit ing
assertIsNot None
J P
v ir
() ["
type def
Element Exception
ĠSub ject
FFFF FFFF
ĠMenu Item
ĠBoot strap
Ġde que
th es
activ ated
ivar iate
Ċ ĊĠĠĠĠĠĠĠĠĠĠĠĠĠĠĠĠĠĠĠĠĠĠĠĠĠĠĠĠĠĠĠĠĠĠĠ
ĠCH AR
L AR
Export er
rep lication
B udget
W ildcard
ĊĠ ĊĠĠĠ
Ġset Data
è½¬ æį¢
M ost
f ers
get Port
Ġs uggest
Ġuser Data
Button Text
Ðµ ÑģÑĤ
Ġæ İ
database s
Br acket
ĠEc lipse
+ ][<
W D
put All
Ġj ax
ant ics
è´ ¹
schedule d
>@[ +][<
li ers
fl avor
quet as
) %
G ain
ode t
Ġun signed
Form Group
Hard Iron
E ti
W M
Ġis Array
ĠD istribution
>> ()
Ġì Ĺ
F avorite
() /
Ġan onymous
ĠE asy
y aw
get Email
ĠS P
til izer
ĠA ir
Co ordinator
Spec ies
ced ence
SQL ite
Dev iation
interm ed
Ġre plica
DI V
Ġav ailability
åĽ ł
ä¹ Ł
Ġfac et
Ġalloc ate
UPD ATED
d ur
Ġis Initialized
ir er
" @
R P
Icon Button
Ġim mutable
([ \
V V
ĠX Y
ignore d
upload s
Ġmeasure ments
åĳ ¨
ãģ¾ ãģĻ
éģ ĵ
b or
Field Type
Ġsc atter
CO VER
Ġ/> ;
recogn ized
P itch
Key words
Sent ence
J U
un set
light house
Ġarticle s
provide d
F ns
set Maximum
IS yntax
sup press
Dialog Interface
ĠBuffered Image
å¤§ å°ı
ĠDepend ency
) ');
Ġc aching
ud p
Create Time
ship ping
get Line
Ġdepend ent
ock s
Item ClickListener
Mark ers
c ros
') ])
Ġpass port
Ġtask Id
o lf
am d
Ġe f
cont aining
TRANS ACTION
Ġsing ular
J ohn
Ġ his
ic ao
Ġf oot
Ġtr iggers
Or Update
referred Size
Ġ}- */;
& \
pe ction
ĠD iff
UL ES
copy Of
) $
M a
Ġex ercise
Manager Factory
br ush
ĠAl gorithm
ĠHe alth
Ġplan es
= ").
z ax
Ġt el
Ġdat ap
Ġsn ippet
ĠÃ ł
N orth
av ailability
Ġh ero
ĊĠĠ ĉ
Ġx l
($ ("#
Ġangle s
fil t
Ġrespon sible
- ]+
K nowledge
Ġm olecule
config urations
ãĤ ¸
Ġtitle s
G F
L ND
Ġ= ================================================
Ġbe come
yst ick
Of Week
vert s
zz le
ven ance
ìĦ ±
print er
"> ${
Ġorder By
ident ifiers
c make
Ġ' |
Ġ( _.
Ġident ical
N P
Ġ( /
Ġm utable
čĊĉĉĉ čĊĉ
rad ians
ĠRed irect
join ed
ĠIN D
:: ::
pol ling
prob a
åĨ į
Chunk s
Mech anism
C raft
ĠL a
ĠP K
Cont inue
ĠSt ats
Ġtag Name
ĊĠĠĠĠĠĠĠĠĠĠĠĠĠĠĠĠĠĠĠĠĠĠĠĠĠĠĠĠĠĠĠĠĠĠĠĠĠĠĠĠĠĠĠĠĠĠĠĠĠĠĠĠ ĠĠĠĠĠĠĠĠ
'} }
platform s
getColumn Index
B US
N ome
y axis
re search
Xml Type
åį Ī
BOO LEAN
A f
Ġb w
ĠìĿ ´
c irc
ç ¦
Ġrece iving
ãģ® ãĥ
Ġcoeff icients
ĠD S
ãģĹ ãģŁ
roll ing
Dis count
Q Label
an es
Ġf ps
As sembly
flow s
Ġlimit ed
Ġjoin ed
åĪĨ ç±»
B oost
an i
Ġpro viding
Ġal go
AM ES
Sh apes
Ġret rofit
RGB A
in come
at ively
)) ));
inner Width
flu ence
n est
get Estimated
Re gisters
ob by
source forge
part itions
ï¿½ï¿½ ï¿½ï¿½
Da emon
G RE
v stack
Ġx i
met al
End Date
]] ]
Art ist
ĠQu ick
leet code
" %(
Pro duces
Ġat trib
Ġ[] ),
ce an
In form
Ġ[ ["
pr a
Config ured
Ġurl parse
has ht
Dat etime
hand ling
get W
ĠG auge
Ġsup ply
ĠEx periment
âĸ Ĵ
iso format
D RI
Ġde cl
Context Menu
base s
čĊč Ċĉĉĉĉ
} ());
Ġ ------
cy an
uy in
/************************************************************************ *******
MILLI SECONDS
str ained
Im plicit
Ġsample d
Ġassoci ation
Ġstd in
FIX ED
ĠSup plier
P x
err ain
client Id
br ain
ĠCont ains
Ġtra verse
Ġre moves
ĠP at
IN S
read Only
FIL L
ĠTw itter
b ay
Į Ģ
ĠDef inition
ĠBack ground
ryst al
K eeper
Q PushButton
ar ched
Ġre cv
Inter section
ins Stemmer
Ġsl ack
vg g
ĠPrint Writer
çĽĳ åĲ¬
S cores
p bs
Ġ ach
ĉĉ Ċĉ
ĠI BM
Ġse x
Ġblock ing
tol erance
/ (?
ol ar
ãģķ ãĤĮ
poth esis
ent ially
Mat ched
ĠCount DownLatch
Obfuscated Name
P ED
App lic
PL AT
Ġborder Color
OB J
çĽ´ æİ¥
G ames
nd x
Mock Mvc
urren ces
et ric
ĠD rag
ÑĢ Ð¸
El m
fav icon
m ute
id os
url y
//////// ////
ĠIP v
ĠLayout Inflater
è¿Ļ éĩĮ
ISH ED
ISyntax Exception
zax xer
H op
ĠS AX
Ġtr ait
ĠF inal
Se leccion
Draw ing
om p
#### #
Ġint ensity
Ġinter pre
Double Value
Artifact s
R X
(" &
Ġh r
**** */
Cont aining
çīĪ æľ¬
Ġ ä¸ĭ
Ġw ww
cc cc
TER M
æ³¨ æĦı
XXXXXXXX XXXXXXXX
b les
ĠP ay
aw ay
inter preter
Ġsp ell
Ġmag nitude
c ron
ĠP eer
cond itional
Dr ug
c it
pt ide
ĠEn umer
é¢ ĳ
H ref
get Z
Ġpr im
ĠFile Reader
normal ization
zy me
el d
ĠN ov
Data Provider
Ġver ified
Cre ative
ĠSpec ial
Truth y
L iving
f v
ex ercise
Session Id
Ag g
Ġident ified
ĠCurrent ly
To Add
Ġm ob
) <
Ġapi Client
greg ations
cv t
Ġp seudo
Ġl m
For Testing
Answ ers
PLAY ER
N aming
Ġb roken
t ell
Ġj unit
PROPER TIES
ĠNUM BER
G uild
M agic
R atings
T ur
f leet
h et
ĠT EMP
ir is
Ġex perience
Inter actions
grid Layout
x ticks
Ġb m
class names
Ġ` ;
Ġno va
Int ro
vid ence
B onus
n w
ĠN ested
wh itespace
ĠTrans ition
P g
S END
j vm
', {
Ġcom munication
und ant
ĠTh at
ĠFor ce
è§ Ĩ
writ ing
assertIs None
æ¨¡ å¼ı
ĠInst all
c hem
it ative
he xd
Ġad vanced
Ġax s
Ġsym py
Ġrep lication
J TextField
qu iz
ĠA M
Ġ[ ['
isAssignable From
F aces
s impl
Ġm ixed
ĠG ui
IL Y
convert To
è¾ĵ åĩº
Ġtimest amps
? '
E VT
Ġf w
() !=
Ġis Open
hedul ers
Ġdev iation
Hex String
] >
b ir
ap l
Ġdraw n
First Name
M u
f path
k d
ow m
ĠD ocker
Out side
Ġd pi
fl ask
ĠEx change
Monitor ing
> `;
m vc
r ait
} %
re levant
Ġd ictionaries
ĠS ent
Ġas sembly
gr a
sk ills
irection al
yy y
CA ST
Ġcar ry
ĠG l
item Name
enc ing
xf a
æĴ Ń
J wt
v j
č ĊĠĠĠĠĠĠĠĠĠĠĠĠĠĠĠĠĠĠĠĠ
==== ==
Node Type
check NotNull
br ick
ĠÐ² Ñĭ
è Į
get New
Ġs rv
#### ##
âĢ ľ
Effect ive
Ġv n
fit ness
Ġclick s
Ġpi eces
ap proved
ĠS cope
>> ();
ĠOF F
Is Initialized
Ġf av
ĠA BC
exp ired
âĢ ¦
Ġteam s
ĠBl ack
_ ='
Ġ` ,
æľįåĬ¡ åĻ¨
Cent ral
= $
ĠT RAN
ĠAp proved
Case s
Ġgr ade
ĠHttp Request
Handle s
Ġrelease d
Time Zone
cod ers
Ġview Holder
æķ° åŃĹ
ĠGe ometry
[ $
er al
Ġ= "
TI TION
post al
è¯ ´
ĠBl uetooth
vert ise
no v
Ð¾ ÑģÑĤ
Ġpart icles
ten ded
mag nitude
Pe ople
Ġ eng
ĠL aunch
ĠH D
: ]:
G row
get Initial
// @
pen der
mit ted
ĠÐ °
ĠCol lect
isNot Blank
get Password
aw k
inv est
å± Ģ
Ġomit ted
F eat
Ġs phere
Ġex am
Ġnot ebook
mock ed
Load Balancer
Search Result
SH OT
transl ator
V ault
í Ļ
Ġdoc string
+' _
acl asses
ple ments
Sk in
ä¼ ĺ
Ep isode
- (
Ġf und
ch ip
em pt
Re covered
Qu ad
("/ ",
zh uyin
Mult imap
ĠEdit Text
S PL
in validate
ine se
pec ial
Ġcreate Z
Trans ient
ĠBind ing
n orth
ĠS HO
ĠW in
Ġch i
ĠGet ter
ĠKey s
åį ³
en ed
de lt
Ġy max
ĠSh op
ĠShared Preferences
N EXT
a utor
Re load
ĠM S
Pro cessed
Ġdis criminator
ĠProvide s
Ġsuit able
valid ated
dig ital
Ġpatch es
ARG UMENT
IDENTI FIER
ne o
yst rix
getClass Loader
Ġdom ains
F ails
P k
y d
on nx
ĊĠĠĠ ĊĠĠ
ĠC lo
ĠI gnite
fer tilizer
not her
Ġfind All
Rest rict
G ender
T om
ad obe
Ġcon ver
ĠW r
OL LOW
optim ization
F ar
in str
Ġc u
Re gist
new line
Ġsub Builder
write Message
Ġfig size
=\ ""
W est
ĊĠĠĠĠ ĊĠ
an bul
TI L
Request Context
Sk y
z o
ul d
Ġty pically
} $
im i
ĠF ac
E very
P ure
Ġ ÑģÑĤ
ĠA cc
Ġis Loading
Ġsup press
APP S
g ps
ĠV ol
Comp ression
ĠLe arning
Po pover
E c
f ml
de cess
get Left
ĠD ig
Not Implemented
Mov ing
Ġpacket s
R ich
a if
Ġf re
get Is
Ġset Text
page Y
Ġ") ");
Alert Dialog
ĠId ent
w elcome
č ĊĠĠĠĠĠĠĠĠĠĠĠĠĠĠĠĠĠĠĠĠĠĠĠĠĠĠĠĠĠĠĠĠĠĠĠĠĠĠĠ
Re play
Ġj ac
ST AR
File Writer
Ġoff line
\"> \
Ġsem antic
Ġo id
Ġsk in
REG ISTR
H W
he mer
ĠS pan
qu iet
Ġsc hemas
fin ispan
Rest Client
Ġtermin ate
en velope
Ġp al
Ġcol lapse
br ace
Ġf rag
COL LECTION
Activ ate
Ġwatch er
V node
ĠA li
ĠF older
Byte Buf
å¥ ½
Ġl v
ĠT oggle
Ġwe ak
={` ${
Serialize ToString
ì ĺ
if ace
ĠM ask
Ġen force
Ġac quire
As Stream
NOTI FICATION
R ob
ion e
Ġcurrent User
Ġoverrid den
H its
Ġl ifecycle
Ġbuild s
trunc ate
J AXB
Ġ undo
get Raw
ĠT odo
Ġx max
wh itelist
åĪĨ é¡µ
Measure Spec
Ġhold ing
set User
ĠO SI
En g
Ġopt imal
lex er
Long itude
Tile s
Ġvol umes
t ion
Ġr isk
sh iro
Se ason
G Y
Ġcom es
row Index
ob servations
ĠIn line
ĠIn struction
Path Param
Ġcor rection
execute Update
jail break
Ġl am
to Throw
arg est
Ġpro ceed
pre sence
An ce
Inter cept
Http Headers
Mov es
ĠÐ´ Ð»Ñı
I am
m uted
s lic
Ġd up
Ġd ilation
', )
Ġob js
Ġpromise s
Ġda emon
V ARCHAR
Ġn m
get Drawable
Ġg ames
Ġad vance
author ity
ĠMain Activity
Tri ple
Ġdecor ators
, \"
ĠS ci
Ġk lass
Ġsend s
GR ESS
effect ive
e lect
Ġj shint
sc ratch
ĠB LOCK
return ed
Ġprint er
Ġrout ine
Ġget Property
Ċĉĉĉ Ġ
ore m
Ġdb Name
book mark
\", \
col lide
Ġinterpol ate
i om
re aded
String To
Ġ=> {
Ġnum erical
M IDDLE
V L
Ġp f
Ġde posit
ĠC y
CO OK
pol ar
Before Each
Accept ed
Ġ ĊĠĠĠĠĠĠĠĠĠĠĠĠ
]) {
ĠSer ializer
B rightness
g te
Ġb an
od igo
ĠUser name
CRE D
Equ ipment
çľ ģ
In side
Re cursive
ĠP ack
=' '):
Ġcomp ilation
ãģĹ ãģ¦
K ill
mo j
ĠGraph ics
ect o
Ġal phabet
"] }
Att ached
B rowse
us hed
ĠP Y
Ġclass Names
ĠValid ator
get text
Ġs lices
Ġo u
Ġcom mun
Data Object
CT OR
åĪ Ŀå§ĭåĮĸ
ĠAn sw
Ent ropy
ALPH A
g zip
ĠM ini
ĠJ et
Ġ/> </
Json Node
found ation
hm cts
ĠcreateZ fcs
ur st
next Line
è¯ Ħ
ha us
H IR
Q Unit
to Builder
Ġth us
ĠR IGHT
Ġpl ug
ĠLin ux
Ġæ Į
Stop ped
COMM IT
ç ħ
Ġt ap
es ium
Ġd types
AC CEPT
by dan
Ġpre p
ä» ½
tran script
ĠProb lem
M iddle
sc ode
> %
B eta
s oc
Ġt tl
ab ling
Co upon
Ġgraph s
Ġoption ally
sec utive
dep ends
libr aries
B GR
M ajor
è ĭ
Ġv tk
By Type
Ġerror Code
]] ),
Ġaff ected
Ing redient
M F
RAN DOM
Ġbyte array
spe aker
File InputStream
èĩª åĬ¨
C ARD
d ialect
get Output
ĠE L
US AGE
ESS AGES
Ġ---------------------------------------------------------------- ----------------
} [
View Pager
çķ ¥
toMatch Snapshot
b ro
et SocketAddress
and er
ang ent
bl ah
Ġm ul
Ġb udget
app a
Dis connect
cp us
Ġafter Each
/ ';
te e
V ectors
Y ELLOW
h ol
n ms
Å ¡
et ary
Con trib
Pl ate
tag ext
IZ ATION
Ġcancel led
ç¼ ©
Ġqual ified
it ors
Ġc uda
Notification Service
big query
band width
re gisters
Ġs df
Ġro l
air s
alert s
K W
R n
S izer
Ġim ag
Ġac cessed
Control Plane
Ġmemoized IsInitialized
å¿ħ é¡»
Ġ ub
An no
Ġdir ty
nat ural
Info List
Un authorized
num ero
Lo an
Bean Swing
zh ou
VID EO
Eti quetas
BeanSwing JInternalFrame
Q ty
Ġp ane
Ġf ault
Ġh h
Ġdata Index
Ġprob abilities
T oday
get Transaction
ab ove
De grees
ĠU ses
RE C
book ing
ĠÐ¾ Ð±
r af
v x
get App
mar shal
Ġvocab ulary
package Name
CHANG ED
in crease
Ġb ill
// ----------------------------------------------------------------
ĠS IZE
stat uses
Ġcontext s
built ins
Ġresponse Body
Ġpre set
Ġfail ures
COD ING
H ere
N ick
Ġ quest
le ast
Ġex clusive
Ġon Mouse
Key Pair
Tab la
Ġsim ilarity
Ġf ocused
par quet
Table Row
z s
Ġn Ã£o
ex cluded
get Display
cor p
dist rict
Assert ionError
Ġè ¾
Inst alled
ĠMODE L
showMessage Dialog
` ):
ib atch
En glish
Ġassert Throws
raw types
Ġapi Key
protocol s
ìĿ ¼
æłĩ çŃ¾
im iento
Inter est
Short cut
episode s
I l
_ ):
n ock
qu otes
ĠL ib
ãĤ ³
Pre tty
Ġcomp act
Ġdef er
Ġe lect
out come
å¾ ħ
branch es
H IST
que ues
reate d
Per form
. ${
P s
ide a
Ġnp m
Ap ple
Ġ"" ",
Ġthere fore
Ġtmp dir
Game Notifications
Ġadjust ed
unge on
Repeated Field
**\ :
Ġd ice
Ġde liver
Ġcreate Time
Ġrandom ly
SS H
ĠAction Listener
SM ALL
éĽĨ åĲĪ
N r
f ord
add Handler
ĠD emo
Valid ity
******************************** ************************
ĠSto ck
imin ar
. '],
H AL
Ġapp Id
Ġgroup ing
Ġtrain able
H ikariConfig
ë ²
Ġt tk
with draw
Ġplot ly
IZ ER
Ġtransl ated
S ending
g x
pe ats
Ġb ag
ph er
comp ilation
Prefix es
Ġfact ors
F ade
G PL
re versed
Com munication
Context s
edit ing
Meta Info
toBe Truthy
åĳ ½
f ns
r ases
s co
re main
Ġt eacher
Ġa f
Ġh s
ĠG ood
File Descriptor
div ider
Ġattribute Name
Ġ"# "
}- {
E ff
in ception
st ick
Ġde part
State Manager
Ġspec s
ĠSystem s
fast json
CONST ANT
' >"
ĠJ WT
uc ing
Neighb ors
æ¹ ĸ
ĠM AP
Ġpart ner
tra verse
Ġfont Family
Min ute
Ġplot ting
t odos
Ġm ess
ĊĊ ĊĠĠĠĠĠĠĠĠĠĠĠĠĠĠĠ
PRO XY
activ of
Ġfetch ing
ĠPar cel
i jo
ĠC atalog
Un i
ene fit
tick labels
Fore st
getC ause
calibr ation
k ie
s mtp
č Ċĉĉĉĉĉĉĉĉĉĉ
st ars
ĠF AIL
ient e
ji ang
Ġlin estyle
L java
å ĭ
ar se
Limit s
Ġmis match
REL ATED
= <
F a
ph as
Ġinter active
Ġactiv ities
YY Y
ĠFI ELD
cam unda
CLE AR
Ġb boxes
up stream
ĠJ TextField
User Profile
write File
('. ')[
scroll To
Ġsm allest
Release d
J K
y u
Ġv ideos
ver bosity
red uction
(" +
fl uent
front matter
Ġjo urnal
b en
p ense
É µ
ct r
get Annotation
Ġr r
Ġex ponent
String Util
class ify
ĠG ateway
SE G
å± ķ
Embed ding
l ar
s udo
y v
oc ode
return code
err no
ĠAPI s
ĠPath s
Assign ed
Y aml
it ness
to CharArray
ĠH at
err Handler
H Y
sh arp
Tr affic
Ġindex Reader
cat s
Close able
ĠBack bone
Ġak ka
c ab
Ġ ancestor
ro gram
un signed
Ġdate Time
Mock s
+' "
Ġok http
Ġleg al
vv vv
Ġp ure
Ġb crypt
pro filer
Ġrequest Id
havi ors
f message
Ġv c
Ġreg exp
ĠPr imitive
watch er
i u
Ġq t
Ġhash es
implement ed
d ct
x D
ĠIn ventory
Ġselect ors
Sign ing
Ġinf inite
EDIT OR
ro unded
(" "
read Message
min imal
UP LOAD
># <
) """
h f
he us
(' +
sc i
config urable
Med iator
M isc
pro vince
ud f
STR A
Ġimplement ations
Gr ade
horizontal Layout
Computed Style
in file
pro vision
Ġget Next
Ġch alk
ref err
be low
Ġ"" },
ĠUN PROVIDED
oper and
Reser vation
Crear Etiquetas
P kg
Ġd iam
ĠS UP
ĠR et
cmd s
sn ake
Ġhome Environment
ĠSelect or
čĊĠĠĠĠĠĠĠĠĠĠĠĠ čĊĠĠĠĠĠĠĠĠĠĠĠ
ĠFire fox
ĠCOM MAND
BOT TOM
P rivilege
å Ĥ¨
Ġd n
"> '+
CO PY
URL Exception
æł ¹æį®
rece ipt
ĊĠĠĠĠĠĠĠĠĠĠĠĠĠĠĠĠĠĠĠĠĠĠĠĠĠĠĠĠĠĠĠĠĠĠĠĠĠĠĠĠĠĠĠĠĠĠĠĠĠĠĠĠĠĠĠĠĠĠĠĠĠĠĠĠĠĠĠĠ ĠĠĠ
CrearEtiquetas Productos
ig ible
Ġfor k
com puter
error Code
Char Code
Ġæ ı
tr acer
fo reg
ĠCom pare
ä» ¬
ĠNO DE
ç»Ħ ä»¶
b rief
h g
s uggest
ç ¥
enc il
Ġprefix es
Org anisation
Be am
{} .
enumer ation
a ight
Ġpro tein
â£¿ â£¿
set Parameter
Ġset User
date Time
Error Handler
api Key
ĠNew s
transl ations
Ġdiag ram
" _
id u
Ċĉĉ ĠĠ
State Changed
Ġcolumn Index
! *\
s ight
un subscribe
Ġ( ...
var iation
ST ER
Comp act
star ter
Fetch ing
Const s
dh cp
Ð¾Ð³ Ð¾
Ġ ÑĢÐ°
Ġh op
block chain
!! !
getBounding ClientRect
de leg
In verse
Event Bus
Tree Map
in dependent
ro g
ont able
aint y
Ðµ Ð¹
Execution Context
ĠMod ify
Hint s
B ut
T B
st acle
de tected
ĠT ouch
čĊĉĉ čĊ
restrict ed
intermed iate
E ast
get Application
AT ING
SE C
Fore cast
Person al
Ġinstall ation
id ata
add ir
Ġ_ $
Ġan chors
Grid Layout
REG ISTER
é¡¹ çĽ®
è¯» åıĸ
C ookies
c ascade
j unction
Tr ainer
gr idx
ĠIn finity
current Index
oth ers
Ti pos
iev ement
hexd igest
P assed
set Geometry
ĠM esh
ml p
Test Suite
Mode s
rt c
ĠDis able
SU FFIX
Cart esian
g pus
get JSONObject
Ġuse Styles
Ġprint ed
cs r
WE IGHT
Ġp ert
ĊĊĉ ĠĠĠĠĠ
Proceso CrearEtiquetasProductos
ĠĠĠĠ ĊĠĠĠĠĠĠĠ
Ġt odos
Resource Id
Accessor Type
Ġarch itecture
b q
import Default
ĠT OK
ip c
mark ing
ĠIm ages
Ġqu ad
counter s
GR APH
mkdir s
ĠAre a
, *
D ONE
J BP
j u
r sp
get Metadata
Ġth ickness
test Data
grid y
Application Exception
ĠHel p
S ing
c rc
Ã ¥
åĳ Ĭ
SETT ING
Ġ ################################
Ġdata Map
par is
EX PORT
ĊĉĠĠĠĠ ĉ
stand ing
b loom
w pi
ì Ĥ
Ġp wd
ĊĊ ĊĠĠĠĠĠĠĠĠĠ
me g
percent ile
Serialized Size
Annot ated
J I
w icket
y t
in etic
ul ates
ĠA lembic
ĠP haser
min imize
../../ ../
ĠOr iginal
Ġget Service
sh rink
Ġadd on
current Color
Scroll View
mut ations
ĠRetri eves
ucle ot
foreg round
D n
Ġin vert
Ġw inner
Ġcont inuous
Ġå į
f lo
get Parameters
ation Type
Se p
ref ine
Ad j
Or EqualTo
block ed
æı Ĵ
p print
de serializer
Ġex e
čĊĠĠĠĠĠĠĠĠ čĊĠĠĠ
w inner
Ex clusive
Ġg aussian
En crypted
ĠHttp Client
separ ated
E FF
O V
mat rices
Ġrel ations
ãĢ Ĳ
r fc
Ġp riv
to Locale
Ġ ä¿®æĶ¹
Ġf ingerprint
loc s
gener ators
ĠCh anges
ãĢ ĳ
Ġt icker
Ġb uffers
ĠT ake
return Value
Ġme chanism
Ġ"" ")
Ġcapt ured
( \"
m peg
ur is
Ġin validate
Ġof ten
Ġexpect s
fail ures
C ate
S nap
__ ).
Ġget Client
lot s
sib lings
HAND LER
ad apt
oo led
ĠD iag
Http Method
Ġmut ations
Simul ator
Ġh params
Ġal gorithms
Sp aces
ĠClass Loader
åıĸ å¾Ĺ
+ )/
s po
ç µ
ĠString s
Api Key
draw Image
Host name
mix ins
Ð Ķ
ĠS prite
ĠT CP
Ġpro f
Font Size
ç»ĵ æŀĦ
Ġrand int
Ġcent ral
getH ours
adr atic
In coming
Ġun supported
Ġ' ='
Ġb abel
ist ance
ĠF ETCH
ĠError s
Interface Selection
C oder
u ate
č ĊĠĠĠĠĠĠĠĠĠĠĠĠĠĠĠĠĠĠ
ost on
Ġ] :
ĠQ Name
Ð¸ Ð½
w armup
Ġn ltk
Ċĉĉ ĠĠĠĠ
op ent
ĠV I
Last Name
bg p
H om
Ġm eter
ĠS napshot
Re action
arg parse
=' <
Stat uses
Th ird
insert Before
iss uer
S id
un ed
ĠC rypto
red ucer
ĠMet rics
Ġs ms
qu ark
AL LED
Ġ---------------------------------------------------------------- ---------
eder ated
Ġcombin ations
éĹ® é¢ĺ
Ġfor um
ĠP UB
String Field
}, "
Ġet ree
gu igu
éĴ ®
in cluded
ing u
ĠL ive
Ġare as
Ġback wards
ç» ľ
Management Plane
Sim ilarity
a es
(' *
sc a
Call er
ĠZ ero
Ġloc ally
les son
%% %%
ê³ ł
ManagementPlane Protection
de em
as Text
Ġ' ]
em e
Ad vice
ĠCo untry
ĠRel ative
Ġalloc ated
uclide an
(" |
Ġstr ong
ĠX XXXX
parent Element
AAAA AAAA
F illed
t weets
Ġsegment ation
ĠLinear Layout
J DBC
g lass
Ġo d
ĠA ng
unt u
Ġsc ratch
Xml AccessorType
override s
-+-+-+-+ -+-+-+-+
è ıľåįķ
on a
Ġb ond
um a
qu arter
ĠM AN
sc ipy
Ġmod ifications
('../../ ../
b ands
ĠD ir
De adline
time Unit
ĠAction s
ĠByteArray InputStream
il a
Ġv id
and Return
min der
Service Client
Min or
Ġc rit
Ġ" ~
ĠL D
Ġy min
TI O
Ġscale s
D ifferent
Ġlong est
mod ity
Xml AccessType
ä¸į åŃĺåľ¨
Ġalign ed
bpm n
çħ §
Z X
ĊĠĠĠ ĊĠĠĠ
Ġg allery
ai platform
éĢ ł
at guigu
page X
Ġaccess ible
čĊĉĉĉĉĉĉ ĉĉĉ
ĠComp iler
R aise
r ical
Ġch ance
short codes
Face book
Spect rum
Ġ amp
put Int
Ġr b
Ġtype Name
Ġ% }
Ġal ternate
Configuration Exception
super user
ing Info
Select ors
Ð° Ðº
Section s
v k
Ġ" `
ve cs
") ):
Ġ// ----------------------------------------------------------------
Ġan imal
Ġ'. ',
Ġweb hook
DATE TIME
Activ ities
S chool
[ ~
Ġc rypt
#### ###
UM NS
ç½ĳ ç»ľ
ì Ĩ
() ");
ict ures
Ġ") ";
Algorithm Exception
E Object
P okemon
Ġv ault
par cel
Sc aler
Sign er
Ġpack ed
segment ation
onto logy
ìļ ©
Ġ'} ';
J OIN
S ell
run ners
remove Attr
PL U
pk t
ĠSU CCESS
, $
e id
Ġass umes
è´ Ń
ĠMon itor
D m
D yn
K NOWN
h stack
n of
Ġres c
Service Response
product Id
ĠHy per
G ING
r ms
x ia
l te
re actions
Ġ' !
convert ed
pat ched
D s
M IC
Ì ½
Í ĵ
Ġw er
add Element
requ ent
J ump
in tr
Ġget Activity
group ed
Number FormatException
API View
ĠAct or
Ì½ Íĵ
Re cogn
out dir
Ġ! ***
red uced
Call ing
ĠVar iant
Ġflatten ed
D t
Ġtr avel
Ġfiles ystem
Ġblock ed
ĠMy SQL
ĠAttribute Set
Ġ*** !
Delimit er
se quelize
istr ation
l ift
dis card
ĠPRI MARY
Reject ed
t ros
is in
Ċĉĉ Ċĉĉ
ĠC ircle
Ġ[ ("
Bus y
ĠHE ADER
à¸² à¸
cvt Color
ê ·
ch ains
Ġdet ailed
Inv oker
Ġeff icient
uls ar
k ing
is Checked
lo an
Tr im
EN TIC
Ġindex Of
Pop ulation
ĠSty led
' %(
Ġget Status
roll up
M ID
Ġt en
MM essages
Pag ed
T Type
Ġs vc
ĠA udience
Ġ: ],
Key Store
Node List
D OT
f unct
g ml
in jection
Ġs uggestion
ĠS afe
ĠR ULE
è® ¿
prefix es
('@ /
èµĦ æºĲ
Ġr ace
[' /
class Instance
ĠCO UNT
SPE C
GENER AL
Ġinherit ed
ĠDetermin es
f A
ro is
id r
sc m
On Click
Factor ies
Ġconfirm ation
de b
Ġf ragments
ĠC T
oll ar
j an
re gist
Ġe lectron
Ġh ue
item all
ens us
my Data
ĠSub mit
JBP MMessages
A y
ĠS ur
ĠP L
args ort
Ġdis card
response Body
čĊčĊ čĊč
inner Height
account Id
Ġì Ħ
] )).
get Symbol
ch en
ĠT i
sub dir
ph ys
Ġup dater
Exec utors
monitor ing
kn ife
calcul ator
Ġannot ated
Ġintern ally
R ip
get Day
ĠA jax
AT ORS
st udents
ĠE OF
Ġstream ing
ili ary
Ġé »ĺè®¤
Git Hub
merc ial
ag tail
arg a
Ġsub classes
assign ments
ĠPRO PER
ìĸ ´
is Loading
mouse move
Ġassign ments
complex Type
Market place
B eat
K HTML
ĉ ĠĠĠ
or p
pl ug
cre ative
Ġbut ter
IP v
Yarn Server
Ġre cursively
Ġde g
Ġl atch
Ġ_ (
cont inuous
Est imate
Ġinstant iated
< (
P AD
h ap
w arp
li a
ĠIn ner
B ORDER
Ġm f
log it
ĠW allet
of Nullable
Ġcustom ers
Author ize
iment o
WR AP
S uggestion
ê ´
Ġdirection s
Z IP
am os
es m
Con sent
ie ve
f ine
f ingerprint
cor rection
Web Driver
double Value
ĠView Holder
CP tr
follow ing
P wd
Ġv lan
ĠP ASS
ĠW atch
Node Instance
Up dating
è´ §
ĠON E
dimension al
ĠConcurrent HashMap
regorian Calendar
S ampling
o j
Ġc irc
str s
ĠP ending
ĠG R
lock s
Tool kit
sen se
Book ing
B SD
Ã ´
set Parent
Ġor ient
ĠO ct
Ġset Current
ãģ µ
Ġfl ight
ĠFile Utils
first name
S uggestions
Ġm isc
ch arg
add Action
Ġget Random
config ured
ĠSt reet
Ġcor r
åĨ µ
. ]
st udio
co vid
Ġget View
Image Sharp
fetch one
th ere
AC C
Ġnode Id
è¿ ĺ
ĠPre paredStatement
=_ ('
M n
N ear
Ġ} {@
to logy
pro of
has More
æĺ ĵ
ĠSH A
Ġ= ================================
ĠM ED
ans ible
ID X
ĠIN I
(_ ("
pers istent
åł ´
âĸĦ âĸĦ
T Protocol
j ms
Ġ: -
Update Time
Ġparsed Message
Join Column
distribution s
gold en
n id
{ %
re levance
an imated
Ġc el
if er
qu irer
drag gable
ARE A
st ors
() },
us able
St retch
'] ").
Line Edit
('/ ');
ĠGener ates
custom ers
stride s
ç¼ĸ çłģ
S MS
s ans
Ġe ye
Ġget Field
ĠModel AndView
Ġmon keypatch
o z
ĠS imul
Ġnew Data
ty pename
map box
Ġpre pared
Ġexp iry
Pr ime
Ġwrit es
Att ention
Writ ten
c ifar
get Double
Ġs lic
ĠC ookie
ĠM B
Ġder ivative
Ġp ersistence
ĠA V
ack s
ER E
SI ST
plic ate
. "),
ol ving
set Un
Ġget T
cc c
Show ing
Acc iones
æĿ¡ ä»¶
âĪŀâĪŀ âĪŀâĪŀ
. "));
> "+
ĠP atch
arch itecture
Ġcycle s
> ').
parse WithIOException
xml beans
æł ¡
ulfill ment
Ġ" â
Ġst able
gr ab
Ġout going
An n
ĠCom parable
rs a
che my
Detalle Pagos
Ġtim ed
vocab ulary
ĠF ill
ener g
Servlet Context
Display ed
Ġsl ave
members hip
ĠJAXB Element
O DE
st ype
Ġget ters
Ġbe g
Ġlist Of
client e
ĠCom mit
ĊĠĠĠĠĠĠĠĠĠĠĠĠĠĠĠĠĠĠĠĠĠĠĠĠĠĠĠĠĠĠĠĠĠĠĠĠĠĠĠĠĠĠĠĠĠĠĠĠĠĠĠĠ ĠĠĠĠĠĠĠĠĠ
ĠConf irm
ĠFunc iones
t encent
get Attributes
ra ken
Ġì ĭ
Ġhome assistant
å·² ç»ı
coup ang
E OF
om i
Ġg id
Ġex cel
ie ved
ĠInt el
Ġinv ite
subject s
Mis match
l un
y ro
Ġt aking
an ularity
Ġc ritical
Ġclear Interval
under score
B ullet
__ /
ga uge
Ġinf os
I US
Ġ" |
urn ey
co ins
"," ","
æıı è¿°
+ )\
r q
á Ģ
Ġread Only
Dat atype
ĠDis k
Ġd ont
style able
Ġturn ed
Ġbuilt in
Ġc ategorical
Ġ'{ @
Ġplatform s
Force Builder
Î ¿
Ġ} )).
ol k
ang a
post a
Sup ply
Tri al
re plicas
get Re
Ġth resh
File Reader
Form as
Or Empty
ï¼ Ł
RES OL
DETAIL S
Ġrequest Url
Form Control
getSelected Item
S ynchron
Ġ ../
ag ain
Ġfor ces
ĠC D
ĠR FC
An imal
And Update
Ġæ Ľ
Rel ay
jo y
Break er
Ġmaybe ForceBuilder
ĠmaybeForceBuilder Initialization
V ivo
f ails
m ess
o O
de scri
to po
ĠL ang
ib ly
ĠIn vocation
AS CI
ĠÐ µ
EX PI
task Id
bound aries
Ġet ag
umul ated
' ><
S ITE
í Ħ
or bit
Ġ( *
ĠT echnologies
ĠM anaged
Ġne ural
Ġfl avor
Ġstruct ures
cognition Exception
' ");
C e
u its
form Data
node Id
Access ibility
LOAD ING
Prob ability
SPE CI
finished Message
grupo activof
is is
Ġd ados
add Data
ĠSQL ite
Ġs ch
Ġst amp
add Block
Instruction s
Ġaio http
b oo
Ġre commend
ĠN T
ibr ator
vol tage
ĠCLI ENT
ĠMotion Event
ap prove
Ġrequire ment
ĊĠĠĠĠĠĠĠĠĠĠĠĠĠĠĠĠ ĊĠĠĠĠĠĠĠ
ĠForm Data
Ġ ĊĊ
__ [
Ġse crets
SE Q
ä¸ Ķ
End points
layout s
Ġbad ge
s prites
ing Mode
icon st
aff er
ìĥ ģ
R ates
W Y
Ġm it
Ċĉĉĉĉ ĠĠĠ
CE L
sol r
ĠSER VICE
! ";
K A
f avorite
n ik
o prot
Ġre member
ĠR UN
Not hing
Ġmake Styles
Expression s
Ġ---------------------------------------------------------------- --------------
ĠSk y
æĮī éĴ®
Ġconven ience
T ake
ur lopen
To Remove
Resource Options
Ġè¾ ĵ
J et
K V
O WNER
V ia
n il
lo st
Ġ{} ),
ĠPh oto
Ġdiag onal
S AX
read Value
build s
al gorithms
test case
ĠRe search
Not ifier
body Parser
Ġme et
Clip board
pur ple
Ġe lems
'] /
Ġdo ctest
Ġweb driver
(', ');
interpol ation
B RO
G MT
N Y
P b
b attery
IN V
pre ferred
final ize
dar win
he art
Ġis Set
Ġse verity
bl k
Ġsearch Data
éĢ Ģ
Ġtran script
b road
v f
st ages
Ġt weets
ac a
ass ociation
Ġvar iation
ĠTH EN
Spring Application
u ator
ĉ Ġ
ĠS ch
ĠF R
De ps
Sign In
bed Pane
æ± Ł
G M
am t
im bra
Ex tras
Check out
RES H
Ġstop s
) #
pro per
ados Formas
P riv
de liver
ad at
tr aits
Ġnot ation
aff ine
ĠApple WebKit
v ron
Ġre covery
qu er
av i
Th rift
MAN AGER
adosFormas Pagos
in finispan
ĠS parse
In bound
Un mount
Not In
DR AW
åĲİ çļĦ
reactiv ex
Ġget Config
ä» ¤
ĠAd ded
Ġocc up
Ġ* ****************************************************************
ĠW E
ST erm
find First
enc od
dat amodel
exp iry
amil ies
&& (
h ms
n arrow
Ġ' '))
ot s
ĠEx cel
å® ½
"} ),
clar ing
CAS ES
d ock
ĠC ross
arg types
Ġpre processing
Ġevent Type
mb H
tt ps
ãĤ ĩ
exp lo
Ġol der
Ġfore ground
Ġ' {"
Ġw ar
Ġde mand
(", ")
P ie
Ġe asing
Dis posable
re cipes
() ].
Ġde m
ĠSt ates
do ctype
just ify
readcr umbs
Led ger
Com ma
C GameNotifications
Ġf riends
(' |
iz en
ĠClass NotFoundException
builder s
"} },
Mov ies
orph ic
ĠPoly gon
S y
ig s
Ġst udents
Ġj as
OD ES
do i
ĠJSON Exception
Ġinter preter
ĠLO CAL
t od
Ġx min
ĠFor ward
nb t
sin on
J AX
Tr acer
ĠY ear
FieldBuilder V
Ġ[ ].
ff i
ĠJ DBC
fer rer
User Details
emp resa
story book
Ġeas ier
v ised
Ġp icker
set Date
Ġap proach
cr s
jax b
Ġbranch es
Ġsuc ceeded
g ds
m im
Ġmax Length
Is Set
ĠDraw able
B all
G amma
ì £¼
or st
ĠH old
Token Type
Ġ... ]
TR ACE
cr m
æł ¸
åį ¡
Ġcap ability
Sl ash
Ident ifiers
B TC
Pro x
param etro
Ġzip file
ĠHandle s
F iber
S pi
get Right
Ġbe haviour
ĠObject Id
å® ¶
access or
ĠIter ate
quot ed
ãĤ¹ ãĥĪ
C p
ĠIn strument
aff old
ä¸į åĪ°
Ġfree ze
æ¸ ħ
j r
Ġn Ãº
set Action
iv y
File Utils
Exp ires
Ġtre es
openg amma
FACT ORY
æ Ĥ¨
Ŀ ¼
av ro
count y
ĠDe velopers
mouse over
Ġnick name
L N
i at
Ġre corded
Ġre moval
AD O
f nd
le le
Ġc g
et able
UR ITY
go als
Ġassoci ate
commun ication
çĽ® æłĩ
de al
Query Param
post css
lat ency
ĠMod ified
Ġnorm ally
Formatt ing
ManyToMany Field
Ġm pl
Ġis Active
pro vincia
ec m
Pool Size
fill Rect
Ġhow ever
Ġconcat en
ucle us
MAPP ING
| @
re serve
ro red
write To
Function al
Month s
sid HashMap
Requires Permissions
rtwname HashMap
C ash
ĠC ent
act ors
ĠJ s
Or acle
Pl aces
Method Descriptor
*/ }
PER LND
ĠOn ce
Ġperiod s
PW ATER
olid ay
k ick
Ġv otes
ib atis
ast ro
CO DER
remove Item
Ġæ Ī
AU DIO
F IND
G old
Ġf echa
([ {
Ġitem Id
ĠĠĠĠĠĠĠĠĠĠĠĠĠĠĠĠĠĠĠĠĠĠĠĠĠĠĠĠĠĠĠĠ ĠĠĠ
ç ª
Ġn ice
ed ucation
add Container
List adosFormasPagos
ĠW arning
ĠG mbH
ific ar
stop ped
T N
m ui
Ġc ant
ĠF S
gram s
Parcel able
E mploy
Ġreturn Value
(); //
ĠCon st
select able
Ġver bosity
cd ap
ANG LE
rivile ged
Ġesc aped
el ite
ĠA ES
ĠP UT
from CharCode
pre sto
touch es
Ġissu er
M p
N an
c Group
Ï Ħ
ĠT IM
ĠM ag
State ments
Ġ{} .
Table Id
'} }>
ĠPoint er
Ġ'* '
-_ -_
PLAT FORM
] ").
Ġs ales
Stat istic
With draw
Ġinv est
Ġsur vey
ASCI I
l ands
Ġget By
ĠH ive
At las
SI TION
Ġconnect ing
[ %
Ġif ace
Con cat
Com puter
be e
Ġdis pose
Ġaccount Id
ĠEvent Emitter
sim ilar
s atisf
Ġo w
ud son
Ġ` .
Model Serializer
hint s
B attle
Ġ( ++
up dater
ĠM AT
work bench
include Instance
ĠåĪ ¤æĸŃ
ByteArray OutputStream
Skip ping
n oc
o val
get Reference
ĠG PL
ĠRe cipe
Not Empty
bug s
ĠParam s
Ġinsert ion
æĶ¯ ä»ĺ
Sub scriptions
Ġequal ity
cost s
Ġlik elihood
C BC
F oot
U K
Ġc w
Ġn oinspection
IN CLUDE
led ge
Ġtrunc ate
e valu
in ent
le ge
al location
': [
event Type
Attribute Value
Ġsend Message
eg g
m ind
ew ork
)) /
Type Code
ĠW OR
AC TIONS
cur ate
API Request
lin ewidth
ele ms
spe ak
Tim ed
vo ices
b tc
ind x
start Activity
Builder Factory
Ġpl ant
Sem antic
getOwnProperty Descriptor
C as
k ms
l w
ĠĠ ĊĠĠĠĠĠĠĠĠĠĠĠ
int l
ĠA mount
Ġset Title
Param etro
ĠSet ter
skip ped
mid point
ĠDO C
ĠConnect or
S ORT
Sh a
Dis miss
Ġco untries
Ġmat ter
J OptionPane
_ ${
Object ive
Int ended
Ġop code
ĠLO AD
Ġdrop ped
it r
set Input
Bean Definition
PL AN
If Absent
ha ust
period ic
Ġcause s
ĠGrad ient
ed By
ĠDe ep
Ġå ¾
WIT HOUT
Ġmembers hip
} ):
Ġ' ).
Ġcon struction
server less
DEP TH
G RAN
Ð ļ
Ġ( \
To Delete
Value Map
sub type
'' ',
ox f
require ment
Ġcomp ared
NO W
Parse Context
ierarch ical
ĠKeyboard Interrupt
P are
p res
Ġre serve
ĠS lot
up loader
Ġtest case
pre senter
create New
Block Pos
sect or
Î ±
Ġde scriptors
ĠT echnology
ĠM E
sw ipe
ĠY AML
Start up
ĠFile NotFoundError
Ġqu iz
ĠXML HttpRequest
S a
h en
x max
as df
Ġs on
ĠP riority
LIST S
Ġequ ation
[ ['
le aves
te a
be en
ee ee
Ġpre sence
ãĤ ¦
MAT H
Ġdot s
aby lon
P unto
f uel
lo v
get Number
Ġtrans pose
Ġcontain ment
ĠIntern ational
U l
li e
Data Types
Form ation
Ġ[' -
met aclass
USER S
Ġcost s
LAY OUT
Claim s
c ust
Ġ rom
Ġr ates
Ġh ole
iv os
Ġpy plot
('. ',
ĠMedia Player
joint s
Ġl t
ĠB io
Ġan alytics
Clo sing
Ġre servation
Ġm el
pli ers
ĠY YYY
ĠCON ST
Float Field
Tri angle
T en
Ġex pose
Get ting
R a
h x
Ġ čĊĠĠĠĠĠĠĠĠĠĠĠ
Ġin active
row d
Response Entity
Ð° ÑĢ
full screen
Ġconvert s
unmodifiable List
P id
ri an
ĠS W
ĠE nt
"] ).
ĠMan ifest
Ġh d
... ',
åı Ĭ
comm its
E VAL
t alend
en ue
Ġm anag
ĠIn tegration
Ġproduct Id
mix er
Ġcred s
J sp
Z K
s uch
ĠĠĠĠĠĠĠĠ Ċ
et heus
sc enes
ST AND
root Url
åĢ ¤
O id
Ġst rength
In finity
ĠL ed
Test Runner
ĠE very
IR ON
Mon o
prox ies
ç« ł
Ġcal ibration
Ġdetermin es
oton ic
D EST
W IN
m us
re cycle
Ġs pread
ult ure
Ġget List
ĠF ollow
ak i
Log Level
å° ĳ
ĠInit ializes
ðŁ ĳ
ig id
ĠF IR
ple ado
Ġint s
test ation
Ġincid ent
sal ary
) };
E moji
m ero
an h
Ġc og
av ail
To Int
pk ts
Ġcomplet ely
F x
N b
ub es
ĠT X
ĠH uman
ãĥ ķãĤ
Ġ{? }
S copes
W AL
ot ions
Ġg uest
Ġi ou
Ġmin Occurs
Bag Layout
I ll
T ube
v ip
Box es
ero us
ĠSe quential
Ġwrite To
stub s
è§Ĵ èī²
QSize Policy
Ċ ĊĠĠĠĠĠĠĠĠĠĠĠĠ
ap ollo
us b
Ġwh itelist
AN NOT
Ġcurrent Page
mov ement
writ es
ĠFore ignKey
t ape
ist o
Ġe in
Ġpre load
ai lover
Ġpol ynomial
N ORTH
get Minutes
:// "
\" ",
ĠTest Utils
Ġpop per
åĢ Ļ
ĠPRE FIX
ĠSEC URITY
j dk
ur ger
get Random
parse Long
============ ===
Peer Class
ĊĠĠĠĠ ĊĊĠĠĠ
Ġt cp
Ġf ib
######## #
Pl ug
Exp licit
light s
; ;
D J
G i
import er
check ing
du stry
ĠEn coder
âĶģ âĶģ
C U
Resource Type
short cut
confirm ation
getCanonical Name
ucleot ide
B io
G uest
L st
ul ations
Ġw ildcard
Ġde veloper
log file
Ð¾Ð ¿
Ġpad y
. :
D X
ar ms
(' ^
ĠR etry
AN CHO
div ision
ĠÐ ³
cloud s
ev olve
Ġsolution s
Ġd ur
add Preferred
G lob
() ._
get Values
ĠA I
app Id
Key Spec
Time Stamp
ĠAdd ing
rest ype
Under Test
k le
if old
ud nn
map StateToProps
DI M
ĠWeb Driver
Nav Item
Mov ed
ÐµÐ» ÑĮ
d ilation
met as
open id
Ġhandle Change
ts x
Ġport al
æĸ° å¢ŀ
CHAR ACTER
K T
ur u
ĠA ns
Ġex periments
cr ud
åįķ ä½į
addPreferred Gap
f ive
w ild
Ġt ro
Ġs lope
Ex plorer
Ġoutput Stream
Ġ---------------------------------------------------------------- -------------
In Millis
ĠI I
Ġindex ing
PLU GIN
G V
ant d
ĠV ARCHAR
Component Placement
Ġhttp Client
çĶ µ
Ġdirect ives
ros pect
CA LE
hot el
ĠMark er
,, ,,
if th
Re gressor
Ġj c
ĠCom pound
ĠÐ »
Ġcolumn Name
ron o
éĹ ¨
( /*
] **
Ġn f
Ġs ale
Ġget Child
ED ED
ãĤ °
unit ies
mark ed
è¯ į
ç ı
sh oot
GR ID
Ġcomput ing
Ġin str
Ġst ay
con trast
uc umber
Ġover written
ä¸Ģ æ¬¡
ĠUtil ities
alleng es
CHO ICES
h dfs
de co
Layout Style
ĠEn glish
Ġexecution Context
LAT ORS
EXP RESSION
timest amps
ĠIM AGE
J NI
N ov
W x
Ġin file
Ex perience
out side
Ġget Image
ĠM SG
Ġcl amp
ifact uras
Leg al
ĠLook up
ifacturas prove
G lyph
set Selection
__( __
plot ly
TIC K
? ")
ĠM IS
Ġpy torch
Ġcor ners
getUser Id
PY THON
I so
p el
Ġc pp
Ġdef Style
Ġk l
Event o
ĠEx tra
Is Null
TE CT
inject or
F inite
d ong
e os
ion ic
un er
Ġw ays
Ġa ver
PO CH
Ġactiv ated
ĠÐ¿ Ð¾
E vidence
y co
Ġp q
qu ivo
op c
gr avity
UM MY
Ġsign er
Ġsign ificant
pu zzle
CP P
(' __
br ar
Ġloc ate
ĠRE MOVE
robot core
Writ ing
Ġres net
conv olution
Ġnav bar
D f
T EN
ĠS peed
sent inel
Ġmin Width
ĠEx tended
Ð° Ð¹
sv m
expand user
ãĥ¼ ãĤ¿
Ġ'.. ',
Ġpossib ly
A ws
R NA
or ama
im mer
Ġd z
In jection
ĠC redentials
ĊĠĠĠĠĠĠĠĠ ĊĠĠĠĠĠĠĠĠ
ĠF loor
Reg exp
curr ing
Ġans ible
dv cs
aky ReLU
_ ",
h axe
in correct
de ath
it ud
he mat
Ġ""" \
File Chooser
"] =
"> ';
âĢ ĵ
Ð¼ Ð¸
Ġsell er
aif low
K G
f wd
ar xiv
Ġdata Set
File OutputStream
Ġrespon sive
openg is
è¯¦ æĥħ
m ip
ĠC S
put ing
ĠB in
ĠCon cept
amp ion
Connect ivity
============ =
Ġ"../../ ../
Ġvisual ize
addContainer Gap
C d
C LICK
s ibling
ĠS phinx
Pro tected
amer as
Ġprogress Listener
ĠTree Map
Ġoper ating
solution s
ĠÄ ĳ
W as
Ġe ver
Ġk ubernetes
Exp iry
FF F
čĊčĊ čĊ
è½¦ ç«Ļ
ĠList View
Ġstring Builder
Ġmin us
Graph ic
Ġrad ians
ĠRef resh
åıĺ éĩı
In sets
ak t
Sc rap
Form ulario
STR ICT
Ge om
tm pl
ĠFunciones Swing
d os
f rappe
Ġc ors
lf f
ĠM onth
os gi
Ġad jacent
Ġrece ipt
æľĢ åĲİ
æ´ »
G GER
I H
T int
z u
is son
Ġcon trast
Id Set
Ġmargin Right
Cre ators
n or
t ank
em u
(' &
iv alue
çļĦ åĢ¼
Ġdict s
du ino
Ġqu iet
iffer ential
Ġthreshold s
Ġtempor al
VENTI LATORS
Ġget Target
Direct ories
Ġmaint ain
æİĴ åºı
Ġt alk
Ġnew Instance
ib il
UT ES
And Set
(". ")
åıĸ æ¶Ī
Q Palette
ĠS R
key map
md c
Ġquery Params
Ġwork book
Q Rect
Ġf ive
art a
read Field
Or ig
Ġvisual ization
l id
im en
oid s
Ġexp lo
block quote
{} \
device Id
E lev
Ġ/> );
render ing
Ñģ Ð¿
"} ],
Ġhead s
predict or
Ġocc ured
Delay ed
Ap ache
ĠÐ¸ Ð·
ĠProto buf
DISABLE D
it je
Ġwh atever
\\ /
BR ARY
FACT OR
get ID
ĠB oston
Ġsh rink
RO T
AP SHOT
als y
Report es
ĠSER VER
d ra
Â §
Ġd v
Ġ// .
ĠP ure
Component Architecture
Ġ/> <
begin Path
Ġts lib
éĺ Ł
ĠAnsw er
S UR
Pro t
create Statement
ric ao
ÑĤ Ð¾
<?> )
æĪĸ èĢħ
Re cipient
Ġconf usion
! )
S q
d riv
at tempts
Ġcon vention
Ġ\ `
ï¼ļ "
Ġam plitude
Processing Exception
D ns
N X
S aver
W s
Ĳ æłĩ
he zz
tr ading
IN ET
pre tt
ĠJ ul
ient ific
direct ives
cid r
Ġattach ments
Maint enance
C amb
C apt
get Role
ap ers
set Initial
res ample
Ġor bit
ãģ ³
Servlet Request
Ġprogress RequestListener
fact s
Ġåľ ¨
i ri
é »
ĠW rap
RO I
ãģª ãģĦ
Strict Equal
omb ie
C ool
f xml
Ġ ....
Ġd w
ĠE s
remove Attribute
Ġwhen ever
ĠRef lection
setP referredSize
B iz
| [
get Option
čĊĉ ĠĠĠĠĠĠĠ
Class path
full name
mouse up
Ġdeploy ed
pok emon
è®¿ éĹ®
s uggestion
Å Ĥ
ist ing
(); }
ĠM icro
"] (
Full Screen
Ġ"{ {
Dig ital
F rag
j nlp
st eer
set Location
Pro cesses
DI G
ĠEn coding
ĠImmutable Set
Ġblue print
Ġdatas ource
Ãµ es
j id
re cycler
ad aptive
Ġas cii
ĠM oney
ant lr
Ġan alyzer
me eting
åĬŁ èĥ½
q nh
us ch
co uld
pre serve
bat ik
NotificationService OuterClass
U CH
d T
s om
Order Id
Ġcustom ize
diff iculty
ĠThread Pool
N R
b v
on et
Ġs ometimes
ck er
Ġpublic Key
Ġx path
License d
Ġcontrib ution
TW O
Ġfrozen set
ç¾ ¤
= """
D lg
d na
ĠC ould
ĠG P
Ġdate Format
ynam ics
Ġclo sure
ìļ Ķ
Qualified Name
this Arg
sh p
]. [
sp ans
Ġ(! _
Ġfloat s
clip board
ï »
public Key
æĸĩ æľ¬
[][] []
getResource AsStream
estim ators
K I
re servation
Ġb illing
Ġb rightness
sh ap
red raw
Ġal location
Ġnode Map
times eries
Ġ"* "
Buffered Image
Ġautos pec
) //
M essaging
P ip
p ink
p ins
St rength
ne cessary
$/ .
ĠAtomic Boolean
how to
F ly
re tain
ang erous
Ġj edis
Ġsearch ing
COL UMNS
DOWN LOAD
ĠAtomic Reference
A mb
add Message
Im ports
pi eces
c ies
v artype
com ma
Ġget Date
ial s
ER IC
Ġ[] ).
OPER ATOR
Ġrespect ively
Ġide a
E cho
P ublished
s df
Ġf an
ch ooser
set Checked
åĪ ĩ
ìĿ Ģ
under line
B ubble
q ubits
ag on
+' \
Ġmk dir
s ymlink
im edia
sh ield
cc d
driver s
BO OL
rank ing
contain ed
æĥħ åĨµ
Ġremain der
d ent
get Account
Pro f
Ġch ip
Ġ$ ("<
ĠÐ Ĵ
Per f
Xml Attribute
Ġoper ate
tor rent
Ġ() {
SH IFT
stock Code
BAS IC
paris ons
v fh
al phabet
Ġm qtt
Ġprivate Key
File List
ens ing
IS US
ĠQ T
socket s
called Once
Import er
BOT H
all ax
Ġh l
ĠR n
ĠR ound
ĠIn sets
omatic ally
BIND ING
v oxel
} })
ar ly
est ad
RE AL
input Stream
group ing
Dc Motor
/ ");
o enix
Ġd ct
Ġde lt
up q
Ġto ok
tern atives
As ia
post er
PI X
ç» ´
seed s
Motion Event
S ENSOR
b mc
re covery
Ġw av
In etAddress
son gs
Ġup stream
Hash es
fh vu
ĠREQU IRED
VARI ABLE
åħ¶ ä»ĸ
hezz ol
on ds
im eters
Data Model
mer chant
promise s
Alarm Type
? ");
S ites
Ġis In
sp ider
Sc ratch
ĠRe gistration
ee e
Ġstart Index
Ġstring Array
Pool s
ĠDis patch
spot ify
in cluding
Ġen ded
ĠY ANG
SC AN
/> .
factor ies
Ġbucket s
X Path
s anitize
al on
ex perience
(' ;
ĠT ech
AE JB
ĠåŃ Ĺ
ISUS AEJB
c url
er sey
Ġor acle
ast ers
Data Array
ard less
ink er
Index OutOfBoundsException
Ac cordion
Constructor Return
freq s
Delimited From
im plicit
(" =
ĠT OP
ĠB ool
Event Emitter
err a
âĶĢâĶĢâĶĢâĶĢâĶĢâĶĢâĶĢâĶĢ âĶĢâĶĢâĶĢâĶĢâĶĢâĶĢâĶĢâĶĢ
s keleton
"] ):
t jg
æ ļ
Ġ ĊĠĠĠĠĠĠĠĠĠĠĠĠĠĠĠĠĠ
re nd
et ree
th ought
der a
ado res
Fore ign
Ġpad x
COMM ON
æ° ´
set Accessible
ke h
hi j
wave form
propag ate
ëĵ ľ
e ur
Ġ} </
net flix
ĠCon verter
ik it
Ġagre ement
Bot h
åł´ åĲĪ
h k
m il
at ment
Ġc aches
Ġo sp
İ· å¾Ĺ
Ġ---------------------------------------------------------------- ----------
jav as
ĠâĢ ĵ
wp ilib
+ ="
d ists
j ner
AL TO
AS ON
IM UM
SC ORE
ba idu
Ġcap ital
Slide s
Pe ers
^^^^ ^^^^
lad ok
\ -
u uta
¹ éħį
à §
ë Ĥ
Ġ ĊĠĠĠĠĠĠĠĠĠĠĠĠĠĠĠĠ
Ġstat uses
ma le
Ġso on
Ġexp ansion
Page Size
last name
Op aque
Ġscreen shot
Ġden ominator
Sn ackbar
G AN
c aptcha
í ĥ
on ing
un load
get World
ãģ ²
cr ash
Parent s
Ã¡ rio
ĠDAT ABASE
hig hest
ig ation
cl ub
ĠH ist
dat ac
mid i
EVENT S
ĠGo al
æ¹ĸ åĮº
fnd upq
vfh m
/ ">
b attle
Ġ# %
str ation
ob served
Ap pender
amp ing
ĠLimit ed
atell ite
es pecial
Value Pair
ys bh
Date Field
Fl atten
velo ped
ĠSo ft
jner lff
ysbh sh
Ġh o
Ġclass path
Ġun able
Equals And
Comp ress
ĠWh ere
UB E
Ġ'" '
friend ly
Sens itive
M Bean
M ONG
M inecraft
] ++;
Ġt reated
un expected
ore ferrer
++ );
Query Result
aph ore
ĠAl pha
set Error
sh own
ĠIn clude
Ġincl us
Bad Request
ament e
Reporte Dinamico
) _
Ġparam Int
Date Picker
fore st
handle Submit
ĠDet ail
o as
ap y
]) *
Over lap
ys mf
Index er
Window Manager
MEM ORY
oxf ysmf
uuta oxfysmf
Ġl d
Key Error
Sub Element
.* ?
Ġ"' "
pool ing
çķ Į
ĠBlue print
ï» ¿
J ul
st h
ur m
Ġn atural
instance Of
ĠIN FO
Ġ'' ',
ĠChar set
CONNECT ED
hemer al
ĠT S
ĠB roadcast
Ġ% >
cent ration
Ġread me
éĩį æĸ°
kar ma
lf low
um s
Ġen sures
/* #__
parent Id
Ġover view
è®¾ å¤ĩ
ĠFrame work
ĠINI TIAL
Ġ' `
ig er
ec a
assert ions
Ġen velope
Root Element
mut ator
Ġ"] ";
âĢĶâĢĶ âĢĶâĢĶ
A merica
D ialect
ë Ŀ¼
urren cies
Ġì Īĺ
black list
C hest
or no
add Object
Attribute Set
Row Index
rest aurant
Ġgen es
b ab
Ġm igrate
th ickness
ĠP ID
out going
Bit Set
decor ation
Ġgood s
Federation Protos
ĠFIR ST
Ġf resh
ud oku
Ġk b
Un lock
Ġem ails
wh ole
Ġ'/ ')
stock En
snapshot s
kg fhvu
coeff s
infra structure
E valuate
Ġl dap
Ġnew Node
ĠEx press
æĸ Ļ
Ġct or
stock Board
stock Cn
Ð· Ð¾Ð²
YarnServer FederationProtos
EqualsAnd HashCode
stockBoard Lot
W B
f usion
ap k
em ies
ass o
cl r
OT H
ãĥ Ĺ
Is olation
va e
Ġsens ors
Ġclaim s
ManyTo One
d ont
Ġ} */
Ġv i
ĠO PTION
sp am
ĠCom b
Non ce
Ġconvert To
commun icate
Ġn v
get ById
Ġb iz
ĠT akes
ĠT LS
assert ion
text ures
Ġret Val
panel s
release s
Measure d
tele gram
fq b
s old
ST ACK
={ })
me as
module Id
Ġlo ops
open ing
ear ly
Ġì ĥ
Year s
vol ucion
Ġgu ide
ĠåĪ Ŀå§ĭåĮĸ
h v
m ate
č ĊĠĠĠĠĠĠĠĠĠĠĠĠĠĠĠĠĠĠĠĠĠĠĠĠ
Ġd ialect
ĊĠĠĠĠĠĠĠĠ ĊĠĠĠĠĠĠĠĠĠĠĠ
new State
Ġpar cel
cre ating
InputStream Reader
asc al
BO UND
MIN UTE
Ġ íķ
ĠĠĠ ĊĠĠĠ
ĠS TE
ĠS team
com parator
Sub title
scroll bar
AF TER
~~~~~~~~~~~~~~~~ ~~~~~~~~~~~~~~~~
yco pg
(' \\
ĠO WNER
Ġz k
ãĤ Ń
Ġc umulative
Ġf ly
uff led
ok it
render s
MO CK
am in
RE P
struct s
submit ted
éĶ Ģ
vn wv
åĮħ åĲ«
Tra jectory
Tra versal
tjg np
vnwv fqb
ic ated
pt ip
est ado
Ġdo or
{ \"
Ġre cyclerView
pe p
over all
Al locator
Var iants
Sto res
sort able
cap ability
Ġgre at
Jo urnal
OneTo One
ĠVI EW
od j
ĠB ecause
api key
bar code
Image Data
Configuration Properties
mock s
PRO GRESS
Min us
Ġæ ·»åĬł
Ġfix tures
optim izers
Po jo
Ship ping
n ob
w al
ĠS SH
ĠR M
ĠR SA
Ġun register
Ġmonitor ing
on der
le ague
un supported
Ġfor Each
ĠC lip
ĠB N
:// {
CO S
Al chemy
Collection Utils
Ġcomm its
Ġå® ŀ
[...]
