{"!":0,"\"":1,"#":2,"$":3,"%":4,"&":5,"'":6,"(":7,")":8,"*":9,"+":10,",":11,"-":12,".":13,"/":14,"0":15,"1":16,"2":17,"3":18,"4":19,"5":20,"6":21,"7":22,"8":23,"9":24,":":25,";":26,"<":27,"=":28,">":29,"?":30,"@":31,"A":32,"B":33,"C":34,"D":35,"E":36,"F":37,"G":38,"H":39,"I":40,"J":41,"K":42,"L":43,"M":44,"N":45,"O":46,"P":47,"Q":48,"R":49,"S":50,"T":51,"U":52,"V":53,"W":54,"X":55,"Y":56,"Z":57,"[":58,"\\":59,"]":60,"^":61,"_":62,"`":63,"a":64,"b":65,"c":66,"d":67,"e":68,"f":69,"g":70,"h":71,"i":72,"j":73,"k":74,"l":75,"m":76,"n":77,"o":78,"p":79,"q":80,"r":81,"s":82,"t":83,"u":84,"v":85,"w":86,"x":87,"y":88,"z":89,"{":90,"|":91,"}":92,"~":93,"¡":94,"¢":95,"£":96,"¤":97,"¥":98,"¦":99,"§":100,"¨":101,"©":102,"ª":103,"«":104,"¬":105,"®":106,"¯":107,"°":108,"±":109,"²":110,"³":111,"´":112,"µ":113,"¶":114,"·":115,"¸":116,"¹":117,"º":118,"»":119,"¼":120,"½":121,"¾":122,"¿":123,"Â":124,"Ã":125,"Ä":126,"Å":127,"Æ":128,"Ç":129,"È":130,"É":131,"Ê":132,"Ë":133,"Ì":134,"Í":135,"Î":136,"Ï":137,"Ð":138,"Ñ":139,"Ò":140,"Ó":141,"Ô":142,"Õ":143,"Ö":144,"×":145,"Ø":146,"Ù":147,"Ú":148,"Û":149,"Ü":150,"Ý":151,"Þ":152,"ß":153,"à":154,"á":155,"â":156,"ã":157,"ä":158,"å":159,"æ":160,"ç":161,"è":162,"é":163,"ê":164,"ë":165,"ì":166,"í":167,"î":168,"ï":169,"ð":170,"ñ":171,"ò":172,"ó":173,"ô":174,"Ā":175,"ā":176,"Ă":177,"ă":178,"Ą":179,"ą":180,"Ć":181,"ć":182,"Ĉ":183,"ĉ":184,"Ċ":185,"ċ":186,"Č":187,"č":188,"Ď":189,"ď":190,"Đ":191,"đ":192,"Ē":193,"ē":194,"Ĕ":195,"ĕ":196,"Ė":197,"ė":198,"Ę":199,"ę":200,"Ě":201,"ě":202,"Ĝ":203,"ĝ":204,"Ğ":205,"ğ":206,"Ġ":207,"ġ":208,"Ģ":209,"ģ":210,"Ĥ":211,"ĥ":212,"Ħ":213,"ħ":214,"Ĩ":215,"ĩ":216,"Ī":217,"ī":218,"Ĭ":219,"ĭ":220,"Į":221,"į":222,"İ":223,"ı":224,"Ĳ":225,"ĳ":226,"Ĵ":227,"ĵ":228,"Ķ":229,"ķ":230,"ĸ":231,"Ĺ":232,"ĺ":233,"Ļ":234,"ļ":235,"Ľ":236,"ľ":237,"Ŀ":238,"ŀ":239,"Ł":240,"ł":241,"Ń":242,"ĠĠ":243,"ĠĠĠĠ":244,"ĠĠĠ":245,"ĊĠĠĠĠ":246,"er":247,"on":248,"in":249,"re":250,"at":251,"ĠĠĠĠĠĠĠĠ":252,"or":253,"st":254,"se":255,"Ġ=":256,"en":257,"ĊĠĠĠ":258,"ĊĠĠĠĠĠĠĠ":259,"Ġt":260,"le":261,"al":262,"ar":263,"ion":264,"de":265,"an":266,"ct":267,"it":268,"Ġc":269,");":270,"et":271,"ro":272,"ĠĠĠĠĠĠĠ":273,"Ġ{":274,"am":275,"ic":276,"Ġp":277,"ĊĠĠĠĠĠĠĠĠĠĠĠĠ":278,"Ġf":279,"is":280,"es":281,"im":282,"ur":283,"he":284,"ut":285,"ĊĠĠĠĠĠĠĠĠĠĠĠ":286,"Ġ\"":287,"as":288,"Ġre":289,"ĉĉ":290,"ing":291,"ent":292,"Ġn":293,"Ġ}":294,"()":295,"Ġ*":296,"ate":297,"Ġ'":298,"--":299,"un":300,"id":301,"if":302,"lo":303,"ex":304,"Ġ(":305,"ue":306,"get":307,"Ġs":308,"ort":309,"ce":310,"ed":311,"ad":312,"lf":313,"self":314,"om":315,"ag":316,"Ġm":317,"ul":318,"Ġin":319,"ap":320,"port":321,"ame":322,"tr":323,"il":324,"el":325,"urn":326,"pe":327,"Ġo":328,"Ġb":329,"Ġd":330,"Ġthe":331,"turn":332,"Ġv":333,"ac":334,"ĊĠ":335,"ol":336,"ser":337,"',":338,"ig":339,"pt":340,"ist":341,"ot":342,"import":343,"ode":344,"//":345,"ub":346,"ĊĠĠĠĠĠĠĠĠĠĠĠĠĠĠĠ":347,"ab":348,"\",":349,"um":350,"**":351,"his":352,"ĊĊĠĠĠ":353,"ction":354,"Ċĉ":355,"Ġif":356,"ation":357,"Ċĉĉ":358,"ri":359,"ĊĠĠĠĠĠ":360,"ew":361,"ch":362,"Ġreturn":363,"lic":364,"Ġw":365,"Ġself":366,"em":367,"set":368,"ata":369,"ĠS":370,"and":371,"(\"":372,"Ġa":373,"ay":374,"Ġde":375,"age":376,"==":377,"Ġst":378,"In":379,"ype":380,"ass":381,"ext":382,"ont":383,"----":384,"Ġ+":385,"est":386,"Ġl":387,"('":388,"int":389,"ect":390,"ile":391,"up":392,"ĊĠĠĠĠĠĠĠĠĠĠĠĠĠĠĠĠĠĠĠĠ":393,"##":394,"qu":395,"od":396,"ver":397,"ption":398,"):":399,"ĠT":400,"res":401,"Ġthis":402,"ublic":403,"Ġto":404,"Ġ@":405,"ult":406,"tring":407,"Ġfor":408,"pl":409,"lass":410,"();":411,"rom":412,"ht":413,"iz":414,"th":415,"ĠC":416,"ve":417,"ter":418,"ess":419,"alue":420,"Ġ#":421,"able":422,"to":423,"))":424,"ĠA":425,"der":426,"ck":427,"Ġ<":428,"per":429,"con":430,"Re":431,"__":432,"name":433,"ack":434,"ment":435,"Ġ[":436,"ĊĊĠĠĠĠĠĠĠ":437,"Ġis":438,"ject":439,"ath":440,"put":441,"aram":442,"')":443,"ĊĠĠĠĠĠĠĠĠ":444,"unction":445,"Ġcon":446,"us":447,"Ġnew":448,"ĊĠĠĠĠĠĠĠĠĠĠĠĠĠĠĠĠĠĠĠ":449,"end":450,"ke":451,"co":452,"pro":453,"ull":454,"Ex":455,"\")":456,"Ġof":457,"Ġdef":458,"Ġ-":459,"ĠL":460,"\":":461,"ain":462,"ow":463,"all":464,"one":465,"orm":466,"ang":467,"ers":468,"Ġor":469,"Ġ//":470,"ase":471,"St":472,"\"\"":473,"Ġpublic":474,"ir":475,"po":476,"Ġe":477,"add":478,"ĊĊ":479,"Ġg":480,"Ġr":481,"ith":482,"Ġas":483,"av":484,"],":485,"ime":486,"sert":487,"nt":488,"Ġh":489,"act":490,"str":491,"li":492,"Ġex":493,"Ġtr":494,"arg":495,"art":496,"ĠP":497,"Ġj":498,"oo":499,"que":500,"ĠN":501,"Ġcom":502,"com":503,"app":504,"pon":505,"bject":506,"':":507,"out":508,"Ġres":509,"ity":510,"Ġ:":511,"ror":512,"Name":513,"Ġget":514,"Ġ==":515,"Ġand":516,"Ġth":517,"ire":518,"),":519,"ize":520,"Id":521,"data":522,"log":523,"odel":524,"--------":525,"Ġ/":526,"String":527,"Ġ*/":528,"fig":529,"čĊ":530,"****":531,"ine":532,"Ġel":533,"our":534,"ĊĠĠĠĠĠĠĠĠĠ":535,"ĠD":536,"alse":537,"####":538,"op":539,"oc":540,"ĠM":541,"Ġu":542,"ĠĠĠĠĠĠĠĠĠĠĠĠĠĠĠĠ":543,"ĠF":544,").":545,"Pro":546,"ĠO":547,"ight":548,"iv":549,"Ġpro":550,"ice":551,"row":552,"====":553,"te":554,"sc":555,"key":556,"ind":557,"quest":558,"List":559,"ĠI":560,"['":561,"ance":562,"def":563,"ax":564,"atch":565,"ception":566,"ial":567,"unt":568,"param":569,"ple":570,"ON":571,"sion":572,"this":573,"iel":574,"Ġnot":575,"are":576,"Ġfunction":577,"ield":578,"inal":579,"form":580,"Ġnull":581,"ĠString":582,"Ġi":583,"Con":584,"\");":585,"ff":586,"=\"":587,"Ġ_":588,"os":589,"reate":590,"vent":591,"dex":592,"ace":593,"._":594,"Type":595,"fo":596,"..":597,"ER":598,"riv":599,"iew":600,"oid":601,"ib":602,"ray":603,"Ġse":604,"type":605,"']":606,"val":607,"ord":608,"ĠB":609,"Ċĉĉĉĉ":610,"ure":611,"Ġvar":612,"ĠR":613,"Ġelse":614,"Exception":615,"from":616,"rivate":617,"ory":618,"sh":619,"Ġstat":620,"Ċĉĉĉ":621,"ault":622,"().":623,"Tr":624,"ense":625,"class":626,"ans":627,"ĊĠĠĠĠĠĠĠĠĠĠĠĠĠĠĠĠĠĠĠĠĠĠĠ":628,"Ġdata":629,"Ġimport":630,"Ġvoid":631,"IN":632,"Ġbe":633,"pr":634,"Ġ\"\"\"":635,"cess":636,"Ġfrom":637,"essage":638,"ail":639,"return":640,"file":641,"Ġ},":642,"ps":643,"Cont":644,"vice":645,"Ġint":646,"path":647,"Ġset":648,"eng":649,"ule":650,"uil":651,"ource":652,"ator":653,"Ġon":654,"ition":655,"ener":656,"ies":657,"Ġ.":658,"qual":659,"und":660,"ument":661,"ponse":662,"ĊĊĠ":663,"Ġclass":664,"Ġit":665,"Res":666,"ast":667,"Ġy":668,"Ġwith":669,"date":670,"To":671,"ava":672,"Ġorg":673,"cont":674,"rit":675,"Ġ!":676,"code":677,"Ġvalue":678,"eth":679,"ber":680,"lement":681,"load":682,"ll":683,"ip":684,"mo":685,"args":686,"ger":687,"ive":688,"son":689,"public":690,"Data":691,"De":692,"Ġname":693,"Ġstatic":694,"ty":695,"Ġfinal":696,"Ġ)":697,"util":698,"Ġun":699,"ength":700,"Ġcont":701,"var":702,"Ġtest":703,"ange":704,"ES":705,"test":706,"čĊĠĠĠĠĠĠĠ":707,"čĊĠĠĠ":708,"cl":709,"En":710,"value":711,"Ġprivate":712,"og":713,"lect":714,"quire":715,"ard":716,"TI":717,"Ġ=>":718,"ant":719,"ĊĠĠ":720,"ery":721,"ache":722,"lient":723,"Ġassert":724,"EN":725,"ork":726,"Ġx":727,"tem":728,"ign":729,"heck":730,"Ser":731,"col":732,"abel":733,"Com":734,"ĠU":735,"icense":736,"Ch":737,"pre":738,"ust":739,"error":740,"='":741,"Ġfile":742,"Ġan":743,"Ar":744,"roup":745,"ĠNone":746,"bo":747,"ft":748,"let":749,"</":750,"Er":751,"stance":752,"ss":753,"ĠW":754,"ethod":755,"Ġstr":756,"list":757,"ug":758,"ĠG":759,"low":760,"Ġconst":761,"Ġch":762,"Ġ$":763,"Error":764,"Value":765,"htt":766,"ore":767,"loc":768,"urre":769,"uth":770,"Ġwh":771,"Se":772,"Ġ&":773,"ress":774,"Ġ});":775,"ml":776,"aw":777,"])":778,"io":779,"Ġ/**":780,"Ġtrue":781,"());":782,"new":783,"Ġtype":784,"ob":785,"ink":786,"url":787,"ask":788,"user":789,"function":790,"OR":791,"AR":792,"Ġjava":793,"ĠLicense":794,"ann":795,"lean":796,"lock":797,"ix":798,"gr":799,"ute":800,"');":801,"ly":802,"Ġpr":803,"Test":804,"Ġ>":805,"read":806,"pect":807,"));":808,"Ġfalse":809,"ken":810,"########":811,"ict":812,"Ġsh":813,"umber":814,"urrent":815,"Ġim":816,"********":817,"Ġ|":818,"ec":819,"ptions":820,"yn":821,"par":822,"ey":823,"Ġresult":824,"View":825,"čĊĉ":826,"uct":827,"append":828,"model":829,"ID":830,"ill":831,"========":832,"ong":833,"ĊĠĠĠĠĠĠĠĠĠĠĠĠĠĠĠĠĠĠĠĠĠĠĠĠĠĠĠĠ":834,"Ġby":835,"size":836,"py":837,"(),":838,"AT":839,"Col":840,"length":841,"Ġid":842,"assert":843,"ride":844,"----------------":845,"ost":846,"ĠH":847,"Object":848,"arget":849,"odule":850,"scri":851,"Key":852,"ary":853,"].":854,"Ġuse":855,"ĠĠĠĠĠ":856,"ations":857,"ST":858,"ise":859,"ide":860,"ader":861,"ĠIn":862,"\";":863,"ĠThe":864,"ponent":865,"ave":866,"oolean":867,"use":868,"Ġat":869,"},":870,"ash":871,"Over":872,"lay":873,"ry":874,"ence":875,"LE":876,"pec":877,"perty":878,"back":879,"True":880,"pack":881,"ock":882,"={":883,"ref":884,"Ġ&&":885,"pos":886,"trib":887,"ated":888,"Ġout":889,"ak":890,"Field":891,"yle":892,"Ġ%":893,"())":894,"://":895,"Map":896,"ud":897,"ample":898,"ilter":899,"nd":900,"[\"":901,"stat":902,"Ġcol":903,"Equal":904,"File":905,"Ġhe":906,"uilder":907,"SE":908,"eb":909,"Ġ!=":910,"Set":911,"ings":912,"Ġlist":913,"create":914,"sp":915,"Ġkey":916,"By":917,"ĠE":918,"RE":919,"';":920,"Ġthrow":921,"Text":922,"Ġval":923,"Ġ`":924,"rame":925,"({":926,"ton":927,"red":928,"work":929,"min":930,"Ġuser":931,"Ġrequire":932,"Ġal":933,"Override":934,"index":935,"text":936,"count":937,"Ġlog":938,"ne":939,"const":940,"own":941,"Ġprint":942,"AN":943,"update":944,"Ġ__":945,"ĊĠĠĠĠĠĠĠĠĠĠĠĠĠ":946,"ep":947,"utton":948,"ues":949,"AL":950,"api":951,"Request":952,"ma":953,"Ġthat":954,"init":955,"IT":956,"ĊĊĠĠĠĠĠĠĠĠĠĠĠ":957,"State":958,"itle":959,"umn":960,"idth":961,"config":962,"Time":963,"/**":964,"so":965,"ach":966,"array":967,"ount":968,"ĊĠĠĠĠĠĠĠĠĠĠĠĠĠĠĠĠĠĠĠĠĠĠĠĠĠĠĠĠĠĠĠĠĠĠĠĠ":969,"ĠV":970,"arch":971,"anag":972,"Item":973,"Ġdefault":974,"ream":975,"Ad":976,"Ġk":977,"query":978,"Ġen":979,"ĊĠĠĠĠĠĠĠĠĠĠĠĠĠĠĠĠĠĠĠĠĠĠĠĠĠĠĠ":980,"Class":981,"Config":982,"Ġnp":983,"rap":984,"div":985,"\"]":986,"ĠJ":987,"http":988,"mand":989,"ifi":990,"Ġmodel":991,"action":992,"item":993,"Ġ</":994,"Sc":995,"for":996,"Node":997,"ou":998,"time":999,"yst":1000,"ames":1001,"map":1002,"word":1003,"ms":1004,"];":1005,"cept":1006,"ler":1007,"uff":1008,"rite":1009,"Im":1010,"ocument":1011,"Element":1012,"ific":1013,"ge":1014,"Service":1015,"Ġparam":1016,"Ġ()":1017,"print":1018,"format":1019,"pes":1020,"ystem":1021,"ĠTr":1022,"be":1023,"ild":1024,"play":1025,"ait":1026,"of":1027,"Ġrequest":1028,"export":1029,"Ġadd":1030,"ia":1031,"At":1032,"Array":1033,"ersion":1034,"oul":1035,"Ġsc":1036,"line":1037,"čĊĠĠĠĠĠĠĠĠĠĠĠ":1038,"core":1039,"gle":1040,"UT":1041,"ces":1042,"opy":1043,"Event":1044,"ould":1045,"Ġro":1046,"ync":1047,"fer":1048,"loat":1049,"state":1050,"ses":1051,"Ġ||":1052,"node":1053,"ody":1054,"Ap":1055,"dir":1056,"lection":1057,"string":1058,"((":1059,"sub":1060,"[]":1061,"ãģ":1062,"User":1063,"ree":1064,"ded":1065,"Qu":1066,"ape":1067,"input":1068,"};":1069,"uc":1070,"Ġ===":1071,"AS":1072,"ww":1073,"uild":1074,"ED":1075,"////":1076,"ite":1077,"Message":1078,"anager":1079,"Path":1080,"ound":1081,"result":1082,"Ġcreate":1083,"Ġser":1084,"Ġ?":1085,"til":1086,"arent":1087,"ages":1088,"info":1089,"oint":1090,"gist":1091,"ere":1092,"ify":1093,"start":1094,"Ġ+=":1095,"ark":1096,"Context":1097,"Ġpath":1098,"ĠRe":1099,"Ġdo":1100,"Ġtry":1101,"TION":1102,"ee":1103,"DE":1104,"package":1105,"ph":1106,"oin":1107,"valid":1108,"roll":1109,"max":1110,"Ġsup":1111,"Info":1112,"Ġpar":1113,"\"\"\"":1114,"ale":1115,"Param":1116,"indow":1117,"Ġobject":1118,"mon":1119,"Ġboolean":1120,"Ġ};":1121,"Ġob":1122,"AM":1123,"IC":1124,"ys":1125,"eat":1126,"erm":1127,"point":1128,"Ġexpect":1129,"json":1130,"uration":1131,"view":1132,"html":1133,"Ġconfig":1134,"move":1135,"ook":1136,"RO":1137,"None":1138,"Ġare":1139,"../":1140,"allback":1141,"Ġinput":1142,"ors":1143,"Util":1144,"object":1145,"Un":1146,"Ġext":1147,"Ġtime":1148,"AC":1149,"js":1150,"dis":1151,"irst":1152,"cord":1153,"Not":1154,"ick":1155,"argument":1156,"dict":1157,"db":1158,"andler":1159,"ens":1160,"lick":1161,"UR":1162,"Ġunder":1163,"eta":1164,"eight":1165,"lot":1166,"Code":1167,"Stat":1168,"Builder":1169,"Ġnode":1170,"rc":1171,"mat":1172,"([":1173,"num":1174,"link":1175,"label":1176,"not":1177,"me":1178,"\">":1179,"Log":1180,"Ġos":1181,"Index":1182,"++":1183,"auth":1184,"cur":1185,"Ġ);":1186,"lete":1187,"Ġnum":1188,"Ġall":1189,"irect":1190,"Ġerror":1191,"lob":1192,"tern":1193,"vel":1194,"Of":1195,"ner":1196,"by":1197,"Form":1198,"lose":1199,"').":1200,"ĠTrue":1201,"Ġle":1202,"err":1203,"right":1204,"imit":1205,"rib":1206,"Ġdist":1207,"Ġ->":1208,"Model":1209,"Ġcase":1210,"Def":1211,"ĠList":1212,"Ġ{}":1213,"Th":1214,"client":1215,"Ġresponse":1216,"Response":1217,"__(":1218,"pen":1219,"request":1220,"ates":1221,"event":1222,"Date":1223,"){":1224,"tot":1225,"ainer":1226,"raw":1227,"ends":1228,"Ġpl":1229,"hed":1230,"Ġsub":1231,"oogle":1232,"ä¸":1233,"org":1234,"scription":1235,"Ġmethod":1236,"ĊĊĉ":1237,"Ġdis":1238,"default":1239,"ware":1240,"():":1241,"Ġ})":1242,"net":1243,"Ġlen":1244,"ializ":1245,"Ġapp":1246,"Ċĉĉĉĉĉĉ":1247,"equal":1248,"ake":1249,"False":1250,"plit":1251,"Ġitem":1252,"actory":1253,"try":1254,"Group":1255,"trans":1256,"ateg":1257,"plate":1258,"ren":1259,"Manager":1260,"čĊĉĉ":1261,"uffer":1262,"eter":1263,"roid":1264,"Ġstart":1265,"Ġtext":1266,"write":1267,"Ġspec":1268,"Ġthrows":1269,"IS":1270,"reak":1271,"});":1272,"Up":1273,"arn":1274,"Ġ(!":1275,"apache":1276,"Or":1277,"tribute":1278,"field":1279,"annel":1280,"ert":1281,"place":1282,"/*":1283,"ics":1284,"base":1285,"Val":1286,"aise":1287,"Ġpre":1288,"ices":1289,"ĠĠĠĠĠĠ":1290,"ution":1291,"Ġac":1292,"...":1293,"ider":1294,"sole":1295,"ING":1296,"tings":1297,"module":1298,"andle":1299,"frame":1300,"wait":1301,"ĠCon":1302,"status":1303,"Ġmessage":1304,"Ġlet":1305,"Result":1306,"teger":1307,"andom":1308,"order":1309,"ual":1310,"Ġmax":1311,"cond":1312,"current":1313,"eturn":1314,"Ġcheck":1315,"message":1316,"inter":1317,"][":1318,"Ġevent":1319,"nection":1320,"Be":1321,"parse":1322,"ush":1323,"****************":1324,"ĠAr":1325,"check":1326,"Sh":1327,"Query":1328,"group":1329,"./":1330,"esc":1331,"################":1332,"ET":1333,"Ġ[]":1334,"\").":1335,"older":1336,"ypes":1337,"Ġindex":1338,"ission":1339,"eters":1340,"Ġoutput":1341,"Size":1342,"Ġfield":1343,"join":1344,"find":1345,"Property":1346,"As":1347,"An":1348,"ie":1349,"Ġstate":1350,"pli":1351,"ool":1352,"ĠFalse":1353,"ĠPro":1354,"Ġargs":1355,"Ċĉĉĉĉĉ":1356,"local":1357,"df":1358,"Ac":1359,"over":1360,"ome":1361,"ĠObject":1362,"čĊč":1363,"mb":1364,"Ġcurrent":1365,"Input":1366,"assword":1367,"https":1368,"ments":1369,"enc":1370,"'),":1371,"Ġ\\":1372,"================":1373,"Ġcan":1374,"pty":1375,"struct":1376,"Ġent":1377,"Ġz":1378,"with":1379,"Ġinstance":1380,"sed":1381,"ld":1382,"her":1383,"pert":1384,"image":1385,"tt":1386,"ql":1387,"true":1388,"ension":1389,"uble":1390,"Ġem":1391,"Lay":1392,"ude":1393,"lib":1394,"ined":1395,"lication":1396,"face":1397,"ected":1398,"google":1399,"null":1400,"fl":1401,"assertEqual":1402,"ustom":1403,"len":1404,"Ġurl":1405,"params":1406,"Listener":1407,"Add":1408,"led":1409,"annot":1410,"Ġso":1411,"ĊĠĠĠĠĠĠĠĠĠĠĠĠĠĠĠĠĠĠĠĠĠĠĠĠĠĠĠĠĠĠĠ":1412,"content":1413,"Ġpos":1414,"perties":1415,"cope":1416,"Ġcl":1417,"layer":1418,"version":1419,"riter":1420,"duct":1421,"Ġsuper":1422,"box":1423,"output":1424,"mp":1425,"AG":1426,"Ġwill":1427,"Button":1428,"enu":1429,"Le":1430,"Par":1431,"Ġexcept":1432,"sum":1433,"ĠK":1434,"Ġ['":1435,"context":1436,"Ġmay":1437,"Ġno":1438,"'],":1439,"Null":1440,"proto":1441,"af":1442,"Client":1443,"old":1444,"Ġtarget":1445,"ENT":1446,"private":1447,"CO":1448,"Ġend":1449,"''":1450,"Ġrange":1451,"AP":1452,"response":1453,"iable":1454,"Instance":1455,"Ġexp":1456,"Stream":1457,"dat":1458,"ative":1459,"})":1460,"ok":1461,"ĊĊĠĠĠĠĠ":1462,"utils":1463,"ptional":1464,"vert":1465,"target":1466,"Int":1467,"Ġcontext":1468,"ript":1469,"attr":1470,"uted":1471,"sg":1472,"Ġhas":1473,"hema":1474,"instance":1475,"Ġtrans":1476,"LO":1477,"unc":1478,"its":1479,"ĠAp":1480,"Ġyou":1481,"Ġlo":1482,"Ġdistrib":1483,"Trans":1484,"On":1485,"Ġwe":1486,"Ġoptions":1487,"Ġawait":1488,"uf":1489,"Ġcopy":1490,"SON":1491,"sent":1492,"ï¼":1493,"ĠThis":1494,"ugin":1495,"Content":1496,"ntity":1497,"ell":1498,"lang":1499,"Out":1500,"With":1501,"Act":1502,"select":1503,"env":1504,"filter":1505,"method":1506,"bug":1507,"Ġinit":1508,"run":1509,"Ġupdate":1510,"obj":1511,"uto":1512,"uccess":1513,"rl":1514,"ther":1515,"Status":1516,"ply":1517,"ox":1518,"App":1519,"itor":1520,"web":1521,"Table":1522,"Ġcatch":1523,"IL":1524,"ĠOR":1525,"UL":1526,"wargs":1527,"serv":1528,"Action":1529,"Color":1530,"lobal":1531,"sw":1532,"round":1533,"AD":1534,"Select":1535,"AB":1536,"Ġline":1537,"Loc":1538,"mit":1539,"Count":1540,"Ġnumber":1541,"reg":1542,"ĠclassName":1543,"np":1544,"\"),":1545,"md":1546,"Ġ{@":1547,"ftware":1548,"--------------------------------":1549,".__":1550,"ags":1551,"title":1552,"split":1553,"Ġelif":1554,"cre":1555,"no":1556,"table":1557,"Ġlabel":1558,"For":1559,"SI":1560,"aint":1561,"Sub":1562,"Ġstring":1563,"token":1564,"Pos":1565,"Ġbreak":1566,"Ġextends":1567,"adata":1568,"DI":1569,"Factory":1570,"shape":1571,"options":1572,"iter":1573,"Desc":1574,"met":1575,"top":1576,"CH":1577,"Ġact":1578,"abled":1579,"rol":1580,"Ġdocument":1581,"OT":1582,"ĊĠĠĠĠĠĠĠĠĠĠĠĠĠĠĠĠĠ":1583,"raph":1584,"ĠAN":1585,"Ġelement":1586,"Ġ]":1587,"ures":1588,"ĠY":1589,"br":1590,"az":1591,"Ġraise":1592,"Handler":1593,"remove":1594,"cent":1595,"Ġab":1596,"amp":1597,"ible":1598,"ivity":1599,"utes":1600,"ĠUn":1601,"train":1602,"ãĤ":1603,"cs":1604,"ui":1605,"tes":1606,"style":1607,"Ġrun":1608,"ich":1609,"process":1610,"\"))":1611,"the":1612,"Get":1613,"gister":1614,"Ġshould":1615,"Ġ**":1616,"ilen":1617,"Ġtem":1618,"Entity":1619,"${":1620,"All":1621,"next":1622,"ĊĠĠĠĠĊĠĠĠ":1623,"bar":1624,"Pl":1625,"Ġinter":1626,"orch":1627,"Component":1628,"ference":1629,"He":1630,"Ġcode":1631,"Ġag":1632,"ĠCom":1633,"comp":1634,"Ġvalid":1635,"unit":1636,"ank":1637,"Lo":1638,"license":1639,"Ġandroid":1640,"Ġpy":1641,"idget":1642,"has":1643,"nect":1644,">>":1645,"ĠSt":1646,"main":1647,"Ġbase":1648,"vider":1649,"common":1650,"ermission":1651,"čĊĠĠĠĠĠĠĠĠĠĠĠĠĠĠĠ":1652,"ified":1653,"Utils":1654,"Token":1655,"Ġmin":1656,"ote":1657,"Ġconsole":1658,"da":1659,"Ġdistributed":1660,"server":1661,"ulti":1662,"totype":1663,"color":1664,"ains":1665,"body":1666,"tected":1667,"Inter":1668,"Ġ('":1669,"fore":1670,"ression":1671,"ifier":1672,"Ġrequired":1673,"Ġne":1674,"Al":1675,"Layout":1676,"width":1677,"ally":1678,"resh":1679,"ical":1680,"uage":1681,"Types":1682,"www":1683,"Arg":1684,"OD":1685,"From":1686,"location":1687,"Ġsource":1688,"Base":1689,"rag":1690,"rid":1691,"Ġdat":1692,"close":1693,"Image":1694,"roller":1695,"ient":1696,"post":1697,"ffset":1698,"pace":1699,"ification":1700,"Ġwhen":1701,"Ġarray":1702,"Ġaction":1703,"sup":1704,"čĊĠĠĠĠ":1705,"Ġquery":1706,"ails":1707,"Ġobj":1708,"ade":1709,"abase":1710,"\".":1711,"ilename":1712,"element":1713,"air":1714,"Ġvalues":1715,"CT":1716,"PO":1717,"Block":1718,"cle":1719,"Ġrow":1720,"Ġimage":1721,"'))":1722,"aders":1723,"block":1724,"wh":1725,"ning":1726,"call":1727,"bl":1728,"Ġsize":1729,"sing":1730,"pring":1731,"Em":1732,"Ġclient":1733,"avax":1734,"exports":1735,"US":1736,"Number":1737,"Ġup":1738,"UN":1739,"Method":1740,"PE":1741,"Ġ],":1742,"build":1743,"Url":1744,"ines":1745,"ĠX":1746,"ng":1747,"ctx":1748,"idd":1749,"////////":1750,"FI":1751,"ov":1752,"åı":1753,"orage":1754,"MP":1755,"eature":1756,"ensor":1757,"exp":1758,"stant":1759,"search":1760,"ĠOF":1761,"ging":1762,"clude":1763,"img":1764,"ĠÐ":1765,"ĠArray":1766,"my":1767,"AME":1768,"vis":1769,"uid":1770,"defined":1771,"HE":1772,"rop":1773,"Ġjson":1774,"rix":1775,"ĠDe":1776,"Ġother":1777,"tract":1778,"Ed":1779,"open":1780,"'s":1781,"Page":1782,"final":1783,"Ġload":1784,"require":1785,"Ġstyle":1786,"component":1787,"Label":1788,"lp":1789,"show":1790,"TY":1791,"icon":1792,"ML":1793,"props":1794,"ĊĠĠĠĠĠĠ":1795,"source":1796,"Ġparams":1797,"ĠIf":1798,"Point":1799,"parent":1800,"peration":1801,"ĠException":1802,"src":1803,"values":1804,"number":1805,"ater":1806,"HO":1807,"ĠEx":1808,"ove":1809,"Ġnet":1810,"Ġad":1811,"ttp":1812,"Dis":1813,"doc":1814,"framework":1815,"Default":1816,"equals":1817,"ĊĊĠĠĠĠĠĠĠĠĠĠĠĠĠĠĠ":1818,"Ġgener":1819,"Ġax":1820,"Ġcontent":1821,"down":1822,"çļ":1823,"Ġhttp":1824,"çļĦ":1825,"HT":1826,"gener":1827,"Ġ/>":1828,"posit":1829,"dd":1830,"nder":1831,"toString":1832,"ra":1833,"send":1834,"ns":1835,"ĠReturn":1836,"oot":1837,"push":1838,"ormal":1839,"false":1840,"Ġcall":1841,"čĊčĊĠĠĠ":1842,"ĠIN":1843,"prototype":1844,"Ġco":1845,"\",\"":1846,"float":1847,"reen":1848,"Ġopen":1849,"we":1850,"ategory":1851,"imple":1852,"entity":1853,"alc":1854,"olic":1855,"ango":1856,"models":1857,"do":1858,"Ġlong":1859,"Case":1860,"page":1861,"Ġread":1862,"author":1863,"cod":1864,"ĠRes":1865,"ĠSet":1866,"vide":1867,"Ġused":1868,"uster":1869,"Ġfloat":1870,"Ġmap":1871,"ility":1872,"mark":1873,"Ġone":1874,"Ġjavax":1875,"ized":1876,"RAN":1877,"flow":1878,"ATE":1879,"Column":1880,"Auth":1881,"Ð¾":1882,"Var":1883,"åĪ":1884,"Ġcolor":1885,"ymb":1886,"example":1887,"Ġtitle":1888,"\\\"":1889,"RI":1890,"Ġversion":1891,"jango":1892,"req":1893,"ialog":1894,"čĊĉĉĉ":1895,"Ġtoken":1896,"patch":1897,"kwargs":1898,"Ġed":1899,"otal":1900,"ear":1901,"'.":1902,"ector":1903,"thon":1904,"px":1905,"exec":1906,"[:":1907,"bin":1908,"store":1909,"Ġmodule":1910,"edia":1911,"anguage":1912,"ialize":1913,"++)":1914,"host":1915,"ĊĠĠĠĠĠĠĠĠĠĠĠĠĠĠĠĠ":1916,"leg":1917,"Ġnext":1918,"Str":1919,"ities":1920,"ization":1921,"mod":1922,"part":1923,"Ðµ":1924,"Ġ{'":1925,"Line":1926,"Ġfl":1927,"ĠĠĠĠĠĠĠĠĠĠĠ":1928,"omain":1929,"apping":1930,"End":1931,"CE":1932,"ĠCON":1933,"Filter":1934,"Ġhave":1935,"Source":1936,"Gener":1937,"root":1938,"Equals":1939,"anel":1940,"attern":1941,"ern":1942,"property":1943,"Det":1944,"itch":1945,"untime":1946,"scope":1947,"fix":1948,"asses":1949,"Ð°":1950,"replace":1951,"CON":1952,"java":1953,"att":1954,"ground":1955,"service":1956,"cor":1957,"Ġpart":1958,"ymbol":1959,"Integer":1960,"Ġany":1961,"project":1962,"Ġasync":1963,"OException":1964,"Ġus":1965,"olve":1966,"Ġtable":1967,"any":1968,"ember":1969,"Ġ!==":1970,"buf":1971,"iven":1972,"spring":1973,"formation":1974,"irectory":1975,"Options":1976,"Ġwhile":1977,"Ġfirst":1978,"Create":1979,"last":1980,"Ġselect":1981,"Ġwhich":1982,"ln":1983,"plot":1984,"match":1985,"igh":1986,"Style":1987,"Version":1988,"Ġprocess":1989,"aph":1990,"itions":1991,"Pr":1992,"Resource":1993,"\\\\":1994,"Ġgroup":1995,"And":1996,"msg":1997,"react":1998,"(_":1999,"save":2000,"Ġexpected":2001,"FA":2002,"lt":2003,"Ġmatch":2004,"Ġview":2005,"ists":2006,"tx":2007,"Ġcolumn":2008,"td":2009,"'t":2010,"Ġlimit":2011,"pc":2012,"Ġdb":2013,"Ġ((":2014,"URL":2015,"ESS":2016,"pend":2017,"stract":2018,"TO":2019,"opt":2020,"command":2021,"delete":2022,"Ġwork":2023,"Exp":2024,"button":2025,"Check":2026,"ender":2027,"names":2028,"apter":2029,"ish":2030,"left":2031,"LI":2032,"perator":2033,"amb":2034,"Ġ--":2035,"ocket":2036,"Parser":2037,"EX":2038,"Ġ,":2039,"ildren":2040,"Click":2041,"pository":2042,"Ġtorch":2043,"ĠSee":2044,"Ġformat":2045,"Hel":2046,"cy":2047,"graph":2048,"ward":2049,"NAME":2050,"Ġauth":2051,"ause":2052,"column":2053,"Attribute":2054,"ĠSystem":2055,"Format":2056,"Link":2057,"Ġ/*":2058,"ources":2059,"Ġstatus":2060,"dist":2061,"]);":2062,"items":2063,"opyright":2064,"Ġimple":2065,"then":2066,"sign":2067,"lip":2068,"unk":2069,"Width":2070,"Ġwidth":2071,"Ġpoint":2072,"ById":2073,"tn":2074,"Start":2075,"task":2076,"debug":2077,"straint":2078,"Ġcallback":2079,"loud":2080,"Valid":2081,"Ġlast":2082,"ĠFile":2083,"PI":2084,"Ġpass":2085,"ĠTest":2086,"Server":2087,"Ġ'/":2088,"xy":2089,"ãĥ":2090,"izer":2091,"tributes":2092,"Ġback":2093,"ĠIS":2094,"Ġper":2095,"\"));":2096,"etch":2097,"Pre":2098,"uple":2099,"Cl":2100,"bot":2101,"'])":2102,"etime":2103,"xml":2104,"cat":2105,"*/":2106,"ĠQ":2107,"Ob":2108,"lem":2109,"Json":2110,"The":2111,"olicy":2112,"Change":2113,"rapper":2114,"Update":2115,"height":2116,"idx":2117,"System":2118,"bind":2119,"Ġme":2120,"ik":2121,"Ġmet":2122,"structor":2123,"Task":2124,"ions":2125,"ene":2126,"Tem":2127,"mt":2128,"FF":2129,"Frame":2130,"Row":2131,"TH":2132,"Ġargument":2133,"Ġonly":2134,"Ġref":2135,"ĠANY":2136,"span":2137,"Char":2138,"rows":2139,"ric":2140,"keys":2141,"No":2142,"annotation":2143,"Buffer":2144,"Ġparse":2145,"Ġopt":2146,"Ġfind":2147,"dim":2148,"click":2149,"EST":2150,"tag":2151,"ĉĉĉĉ":2152,"Ġpage":2153,"Ġ>=":2154,"session":2155,"rel":2156,"ither":2157,"expect":2158,"ift":2159,"Ġmodels":2160,"Ġprotected":2161,"ĠReturns":2162,"Ġcount":2163,"Ġfilter":2164,"Ġrender":2165,"println":2166,"Command":2167,"gress":2168,"ï¼Į":2169,"cc":2170,"types":2171,"sets":2172,"springframework":2173,"less":2174,"rect":2175,"Ġpermission":2176,"Ġ[\"":2177,"ĠCopyright":2178,"ĠWAR":2179,"ĊĠĠĠĠĠĠĠĠĠĠĠĠĠĠĠĠĠĠĠĠĠĠĠĠĠĠĠĠĠĠĠĠĠĠĠ":2180,"alled":2181,"Ġform":2182,"ĠGet":2183,"ular":2184,"LIC":2185,"Ġparent":2186,"Box":2187,"gram":2188,"imest":2189,"Ġmod":2190,"loy":2191,"channel":2192,"Ġoff":2193,"ating":2194,"Met":2195,"ting":2196,"sk":2197,"script":2198,"iron":2199,"Function":2200,"Ġserver":2201,"]]":2202,"Module":2203,"Ġar":2204,"description":2205,"position":2206,"Ġcommand":2207,"ĊĠĠĠĠĠĠĠĠĊĠĠĠĠĠĠĠ":2208,"iled":2209,"Ġq":2210,"Ġmsg":2211,"Ġap":2212,"Ġreg":2213,"Ġcomp":2214,"iction":2215,"UP":2216,"board":2217,"::":2218,"lease":2219,"ential":2220,"Ġcur":2221,"Mode":2222,"Configuration":2223,"aster":2224,"Ġcomponent":2225,"batch":2226,"files":2227,"ession":2228,"ĠĠĠĠĠĠĠĠĠĠĠĠĠĠĠĠĠĠĠĠĠĠĠĠĠĠĠĠĠĠĠĠ":2229,"rad":2230,"orld":2231,"ower":2232,"quence":2233,"ĠLog":2234,"Ġ<=":2235,"Is":2236,"ĠassertEquals":2237,"mock":2238,"ids":2239,"Ġver":2240,"plied":2241,"ared":2242,"Ġdict":2243,"sample":2244,"ĠTh":2245,"Ġdate":2246,"Ġorder":2247,"first":2248,"ĊĉĊ":2249,"Ġgiven":2250,"Ġright":2251,"Ġtf":2252,"{}":2253,"stream":2254,"iff":2255,"spec":2256,"Ġlogger":2257,"tain":2258,"Provider":2259,"emb":2260,"fter":2261,"UM":2262,"Sup":2263,"ayload":2264,"Ġmust":2265,"Ġparser":2266,"tom":2267,"random":2268,"åĲ":2269,"Ġlay":2270,"ĠWARRAN":2271,"ĠCol":2272,"ron":2273,"Ġexec":2274,"else":2275,"IND":2276,"Ġfiles":2277,"Co":2278,"æľ":2279,"\"],":2280,"ternal":2281,"ĠIm":2282,"ithub":2283,"Entry":2284,"ĠYou":2285,"essages":2286,"Ġdescription":2287,"MA":2288,"Ref":2289,"case":2290,"ume":2291,"Output":2292,"><":2293,"Ð¸":2294,"ĠUser":2295,"tra":2296,"></":2297,"ORT":2298,"Ġheight":2299,"eatures":2300,"ole":2301,"Comp":2302,"Ġcor":2303,"du":2304,">();":2305,"Ġtrain":2306,"abs":2307,"stri":2308,"icle":2309,"čĊčĊ":2310,"sv":2311,"Mod":2312,"Ġsoftware":2313,"Ġspecific":2314,"Hash":2315,"TIONS":2316,"ailable":2317,"anged":2318,"KE":2319,"address":2320,"]:":2321,"ÑĤ":2322,"char":2323,"ULT":2324,"Container":2325,":\"":2326,"vo":2327,"ays":2328,"utor":2329,"uch":2330,"Stack":2331,"Ġwindow":2332,"Ġmock":2333,"ME":2334,"Ġ...":2335,"Window":2336,"','":2337,"ĠAn":2338,"Ġover":2339,"æķ":2340,"Ġblock":2341,"Tag":2342,"Ġ),":2343,"ux":2344,"protobuf":2345,"ĠCh":2346,"Ġeither":2347,"copy":2348,"Api":2349,"active":2350,"Ġio":2351,"sl":2352,"Sto":2353,"Ġmain":2354,"Ġwrit":2355,"Ġlocal":2356,"Ġtask":2357,"ä»":2358,"Ġresource":2359,"Height":2360,"Ġsp":2361,"Activity":2362,"Address":2363,".\"\"\"":2364,"ian":2365,"ollow":2366,"cache":2367,"change":2368,"now":2369,"è¯":2370,"Access":2371,"aces":2372,"Ġhelp":2373,"Ġchar":2374,"Empty":2375,"ambda":2376,"ĠData":2377,"licenses":2378,"ĠĊ":2379,"junit":2380,"ved":2381,"render":2382,"TIES":2383,"ĠWIT":2384,"EL":2385,"Ġroot":2386,"QL":2387,"weight":2388,"other":2389,"=[":2390,"Order":2391,"../../":2392,"Ġ\"\\":2393,"level":2394,"imestamp":2395,"Ġmake":2396,"Ġlanguage":2397,"refer":2398,"Ġfound":2399,"('.":2400,"static":2401,"Ġhandle":2402,"()).":2403,"Menu":2404,"Part":2405,"ted":2406,"det":2407,")),":2408,"ializer":2409,"tool":2410,"Ġsys":2411,")))":2412,"Per":2413,"mode":2414,"`,":2415,"queue":2416,"Ġinst":2417,"VER":2418,"unter":2419,"Return":2420,"ane":2421,"settings":2422,"ero":2423,"Ġass":2424,")).":2425,"ĠDate":2426,"Run":2427,"ĠApache":2428,"ĠMap":2429,"imal":2430,"ENSE":2431,"should":2432,"Ġeach":2433,"ailed":2434,"gistry":2435,"atrix":2436,"('#":2437,"actor":2438,"Ġav":2439,"Connection":2440,"Ġ\"/":2441,"ĠSer":2442,"river":2443,"Ġ{\"":2444,"}>":2445,"(){":2446,"Ġisinstance":2447,"ts":2448,"Ġsw":2449,"Vis":2450,"Params":2451,"Ġses":2452,"document":2453,"Ġ(\"":2454,"window":2455,"handle":2456,"Ġarg":2457,"OL":2458,"css":2459,"Http":2460,"Constant":2461,"ds":2462,"mer":2463,"Names":2464,"wo":2465,"Ġ'./":2466,"('/":2467,"arning":2468,"github":2469,"sor":2470,"hash":2471,"Ġ'''":2472,"Ġshow":2473,"TR":2474,"ĊĠĠĠĠĠĠĠĠĠĠĠĠĠĠĠĠĠĠĠĠĠ":2475,"Process":2476,"parser":2477,"romise":2478,"ackage":2479,"ĠJSON":2480,"ĠOptional":2481,"Ġundefined":2482,"adding":2483,"umer":2484,"Cache":2485,"Ġdouble":2486,"present":2487,"Ġsession":2488,"istory":2489,"email":2490,"ouse":2491,"Ġproject":2492,"ĠMath":2493,"ique":2494,"entic":2495,"Ġtop":2496,"inue":2497,"JSON":2498,"åħ":2499,"angle":2500,"Ġwas":2501,"space":2502,"Ġposition":2503,"********************************":2504,"ĠWARRANTIES":2505,"template":2506,"ement":2507,"Ġbuild":2508,"Ġservice":2509,"Ġproperty":2510,"Argument":2511,"ĠVersion":2512,"device":2513,"Header":2514,"ĊĊĊĠĠĠ":2515,"inition":2516,"CL":2517,"ĊĊĉĉ":2518,"pers":2519,"Child":2520,"apt":2521,"Ġlength":2522,"Session":2523,"Position":2524,"ported":2525,"ins":2526,"password":2527,"Ġ\",":2528,"ports":2529,"License":2530,"Exec":2531,"Ġresults":2532,"Ġ${":2533,"Ġexpress":2534,"alcul":2535,"OP":2536,"Ġobtain":2537,"Ġdf":2538,"Controller":2539,"register":2540,"Logger":2541,"mask":2542,"Parameter":2543,"iginal":2544,"range":2545,"enter":2546,"aa":2547,"curity":2548,"ploy":2549,"Ġqu":2550,"Ġmy":2551,"onth":2552,"ĠAs":2553,"Each":2554,"ragment":2555,"DB":2556,"Ð½":2557,"HOUT":2558,"Collection":2559,"ĠArrayList":2560,"Ġagre":2561,"Ġnames":2562,"ĠCreate":2563,"Ġtotal":2564,"display":2565,"################################":2566,"Record":2567,"nown":2568,"Level":2569,"total":2570,"book":2571,"uck":2572,"çĶ":2573,"Target":2574,"Properties":2575,"func":2576,"ĠSe":2577,"Ġbody":2578,"idden":2579,"Ġrel":2580,"ias":2581,"cp":2582,"header":2583,"stack":2584,"Ab":2585,"cover":2586,"ency":2587,"Ġbatch":2588,"irection":2589,"ĠInteger":2590,"ature":2591,"igr":2592,"gin":2593,"pop":2594,"VAL":2595,"connect":2596,"QU":2597,"Icon":2598,"Fl":2599,"PRO":2600,"Reg":2601,"Ġrandom":2602,"ĠWITHOUT":2603,"Back":2604,".*":2605,"Ġind":2606,"components":2607,"filename":2608,"prop":2609,"olution":2610,"æķ°":2611,"Ġreq":2612,"lex":2613,"Ġpost":2614,"Title":2615,"ao":2616,"grid":2617,"refix":2618,"Top":2619,"ffect":2620,"æĸ":2621,"Proto":2622,"Ġpermissions":2623,"offset":2624,"cf":2625,"Rule":2626,"Length":2627,"loss":2628,"čĊĠĠĠĠĠ":2629,"sort":2630,"rics":2631,"Ġbyte":2632,"resource":2633,"=(":2634,"Body":2635,"long":2636,"gen":2637,"Ġdelete":2638,"gn":2639,"TER":2640,"utf":2641,"čĊĠ":2642,"fr":2643,"Store":2644,"ĊĠĠĠĠĠĠĠĠĠĠ":2645,"``":2646,"inner":2647,"conf":2648,"ĠTHE":2649,"XX":2650,"IM":2651,"Ġå":2652,"Ġenv":2653,"Ġglobal":2654,"Ġctx":2655,"Panel":2656,"Ġsrc":2657,"nn":2658,"Ġport":2659,"ATION":2660,"full":2661,"Init":2662,"scribe":2663,"Spec":2664,"plugin":2665,"ãĢ":2666,"anch":2667,"pha":2668,"Assert":2669,"pi":2670,"Call":2671,"Ġusing":2672,"ping":2673,"ĠCont":2674,"ready":2675,"Bar":2676,"admin":2677,"atform":2678,"go":2679,"scale":2680,"hel":2681,"================================":2682,"Callback":2683,"Ġdoes":2684,"Ġbut":2685,"ences":2686,"ĠKIND":2687,"erson":2688,"Load":2689,"Match":2690,"lice":2691,"KEY":2692,"ÑĢ":2693,"ignore":2694,"Ġmore":2695,"imes":2696,"pth":2697,"vas":2698,"čĊĠĠĠĠĠĠĠĠĠĠĠĠĠĠĠĠĠĠĠ":2699,"Do":2700,"FAULT":2701,"Ġsearch":2702,"Ġdisplay":2703,"draw":2704,"TYPE":2705,"txt":2706,"Max":2707,"Dir":2708,"logger":2709,"Ġ[],":2710,"Ġinstanceof":2711,"Helper":2712,"sm":2713,"Ġlogging":2714,"igger":2715,"Ġhash":2716,"undle":2717,"Ġmode":2718,"entifier":2719,"eed":2720,"rypt":2721,"points":2722,"TP":2723,"Mock":2724,"pliance":2725,"Ġtemp":2726,"OM":2727,"gs":2728,"Ġapplic":2729,"ped":2730,"ingle":2731,"Ġbot":2732,"ious":2733,"ubl":2734,"Ġret":2735,"Ġinfo":2736,"ĠReact":2737,"pute":2738,"ĠEn":2739,"fn":2740,"Ġsk":2741,"bit":2742,"uture":2743,"Ġimplied":2744,"\":\"":2745,"Rout":2746,"game":2747,"Ag":2748,"step":2749,"emory":2750,"Long":2751,"eline":2752,"Ġremove":2753,"Descri":2754,"Que":2755,"poch":2756,"ĠValue":2757,"imum":2758,"dataset":2759,"Search":2760,"plete":2761,"}/":2762,"acter":2763,"New":2764,"TE":2765,",\"":2766,"Reader":2767,"Ġgover":2768,"Ġsort":2769,"Ġplt":2770,"png":2771,"Ġexception":2772,"AGE":2773,"Web":2774,"LICENSE":2775,"argin":2776,"Ġcache":2777,"Ġentry":2778,"pol":2779,"AY":2780,"Ð¾Ð":2781,"Location":2782,"pose":2783,"Ġprovide":2784,"Ġallow":2785,"raft":2786,"ĠĠĠĠĠĠĠĠĠĠĠĠ":2787,"eps":2788,"rowser":2789,"That":2790,"late":2791,"ĠLicensed":2792,"ants":2793,"Ġoffset":2794,"Ġinto":2795,"Ġneed":2796,"Ġtag":2797,"Ġwriting":2798,"å®":2799,"Ġpred":2800,"Ġiter":2801,"Unit":2802,"can":2803,"imer":2804,")]":2805,"dev":2806,"ĠDef":2807,"gl":2808,"Ġparameters":2809,"Ġsign":2810,"Ġlink":2811,"hedule":2812,"è¿":2813,"Descript":2814,"Read":2815,"SER":2816,"(\"#":2817,"fs":2818,"ci":2819,"imary":2820,"Net":2821,"Tree":2822,"Ġstore":2823,"Ext":2824,"Ġleft":2825,"Rem":2826,".$":2827,"Ġfont":2828,"verse":2829,"Ġapi":2830,"~~":2831,"Ġimg":2832,"Ġhttps":2833,"ODO":2834,"redential":2835,"Sp":2836,"ĠID":2837,"nap":2838,"Application":2839,"Template":2840,"cloud":2841,"Ñģ":2842,"Min":2843,"ĠType":2844,"wn":2845,"ĠGener":2846,"oftware":2847,"čĊčĊĠĠĠĠĠĠĠ":2848,"ince":2849,"results":2850,"Document":2851,"ĠĠĠĠĠĠĠĠĠ":2852,"shot":2853,"contains":2854,"Ġcontinue":2855,"Dialog":2856,"Ġæ":2857,"Ġapplicable":2858,"transform":2859,"Ġcompliance":2860,"ACK":2861,"Ġrecord":2862,"API":2863,"Bean":2864,"ironment":2865,"Ġheader":2866,"Ġop":2867,"Ġarguments":2868,"ulum":2869,"Ġvariable":2870,"valu":2871,"Card":2872,"insert":2873,"Num":2874,"Schema":2875,"option":2876,"ĠBAS":2877,"Ġvis":2878,"mary":2879,"äº":2880,"(\"/":2881,"getName":2882,"exception":2883,"Adapter":2884,"container":2885,"ĠError":2886,"card":2887,"Ġdet":2888,"Impl":2889,"ABLE":2890,"Offset":2891,"Ġlaw":2892,"Ġsave":2893,"MO":2894,"ITY":2895,"olume":2896,"ĠCONDI":2897,"fields":2898,"Ġfields":2899,"Tool":2900,"ĠAdd":2901,"lower":2902,"ĊĠĠĠĠĠĠĠĠĠĠĠĠĠĠĠĠĠĠĠĠĠĠĠĠĠĠĠĠĠĠĠĠĠĠĠĠĠĠĠ":2903,"Ġgoverning":2904,"ĠBASIS":2905,"gment":2906,"SS":2907,"asic":2908,"light":2909,"ĠCONDITIONS":2910,"Writer":2911,"Non":2912,"Ġsecond":2913,"udio":2914,"Ġwrite":2915,"Ġnumpy":2916,"sql":2917,"Ġpassword":2918,"Ġbefore":2919,"uri":2920,"Values":2921,"Ġinformation":2922,"Ġexist":2923,"second":2924,"Mapping":2925,"Ġlimitations":2926,"med":2927,"center":2928,"tf":2929,"($":2930,"byte":2931,"FT":2932,"temp":2933,"Ġfollow":2934,"ĊĠĠĠĠĠĠĠĠĠĠĠĠĠĠĠĠĠĠĠĠĠĠĠĠĠ":2935,"product":2936,"ired":2937,"alle":2938,"head":2939,"[:,":2940,"expected":2941,"åĬ":2942,"(`":2943,"aded":2944,"Ġtemplate":2945,"ination":2946,"itional":2947,"ision":2948,"ulumi":2949,"Widget":2950,"Ġconnection":2951,"Ġparameter":2952,"Ġagreed":2953,"account":2954,"username":2955,"auto":2956,"objects":2957,"actions":2958,"job":2959,"side":2960,"Repository":2961,"foo":2962,"Ġsum":2963,"inary":2964,"execute":2965,"UE":2966,"operator":2967,"Ġph":2968,"EC":2969,"Ġimplements":2970,"success":2971,"ĠSh":2972,"pred":2973,"GET":2974,"ĠTo":2975,"ancel":2976,"}.":2977,"Ġsample":2978,"rict":2979,"Timeout":2980,"als":2981,"Ġspecified":2982,"record":2983,"'].":2984,"Cell":2985,"Selector":2986,"entry":2987,"Control":2988,"widget":2989,"(-":2990,"csv":2991,"Obj":2992,"Ġ[];":2993,"Account":2994,"čĊĉĉĉĉ":2995,"Ġdest":2996,"rt":2997,"ĠUnless":2998,"async":2999,"Ġhost":3000,"ibr":3001,"iver":3002,"(__":3003,"ents":3004,"Ġsettings":3005,"Ġsend":3006,"getElement":3007,"ĊĉĉĊĉ":3008,"Ġsuccess":3009,"callback":3010,"iod":3011,"Serv":3012,"Settings":3013,"Ġyour":3014,"ech":3015,"engine":3016,"cast":3017,"amer":3018,"Ġdevice":3019,"UID":3020,"ĠAPI":3021,"Ġfin":3022,"Storage":3023,"Down":3024,"coder":3025,"amount":3026,"player":3027,"loader":3028,"ords":3029,"Ġerr":3030,"å¤":3031,"////////////////":3032,"network":3033,"ĠIOException":3034,"Ġafter":3035,"gb":3036,"Dat":3037,"assertEquals":3038,"utable":3039,"Ġwhere":3040,"ordin":3041,"uter":3042,"boolean":3043,"Reference":3044,"application":3045,"Ġattribute":3046,"MM":3047,"ius":3048,"Ġprev":3049,"END":3050,"ĠClass":3051,"NO":3052,"[-":3053,"Byte":3054,"child":3055,"stop":3056,"è®":3057,"Require":3058,"make":3059,"Boolean":3060,"Ġ'.":3061,"æĪ":3062,"ason":3063,"custom":3064,"ween":3065,"oom":3066,"ĠSc":3067,"ances":3068,"ai":3069,"see":3070,"heet":3071,"Range":3072,"dk":3073,"ç»":3074,"ixel":3075,"imation":3076,"sol":3077,"layout":3078,"Ġcustom":3079,"throws":3080,"Ġchange":3081,"mean":3082,"ym":3083,"IG":3084,"Edit":3085,"ĠDE":3086,"ĊĉĠĠĠ":3087,"}`":3088,"ĊĠĠĠĠĠĠĠĠĠĠĠĠĠĠĠĠĠĠĠĠĠĠĠĠĠĠĠĠĠĠĠĠĠĠĠĠĠĠĠĠĠĠĠĠĠĠĠĠĠĠĠĠ":3089,"font":3090,"Ġthen":3091,"axis":3092,"Player":3093,"Msg":3094,"VE":3095,"Ġ{};":3096,"inst":3097,"Ġbuilder":3098,"Work":3099,"score":3100,"Ġchannel":3101,"Description":3102,"Ġ$(":3103,"peed":3104,"console":3105,"rule":3106,"clear":3107,"assertTrue":3108,"cr":3109,"<?":3110,"django":3111,"lta":3112,"ĊĠĠĠĠĠĠĠĠĠĠĠĠĠĠ":3113,"labels":3114,"domain":3115,"()))":3116,"Ġdim":3117,"'):":3118,"Props":3119,"ideo":3120,"Ġ>>>":3121,"prefix":3122,"perations":3123,"lear":3124,"ucket":3125,"eg":3126,"Ġcontain":3127,"limit":3128,"anges":3129,"Ġjob":3130,"schema":3131,"ĠLO":3132,"ialized":3133,"ERR":3134,"zer":3135,"off":3136,"cell":3137,"classes":3138,"ugh":3139,"ernel":3140,"Operation":3141,"Ġgraph":3142,"åŃ":3143,"system":3144,"Ġold":3145,"Ph":3146,"Items":3147,"Post":3148,"xf":3149,"Iter":3150,"parameters":3151,"Loader":3152,"ram":3153,"ĠZ":3154,"issing":3155,"edit":3156,"login":3157,"Ġcond":3158,"legal":3159,"std":3160,"Ġsame":3161,"arr":3162,"Ġdone":3163,"ATA":3164,"man":3165,"Ġattr":3166,"dest":3167,"Ġcreated":3168,"metadata":3169,"images":3170,"ä½":3171,"cret":3172,"aj":3173,"etry":3174,"ĠWh":3175,"NotNull":3176,"ĠTODO":3177,"Current":3178,"Ġ``":3179,"Ġinterface":3180,"ived":3181,"ZE":3182,"Ġemail":3183,"Render":3184,"ators":3185,"PL":3186,"menu":3187,"Ġframe":3188,"Ġmulti":3189,"Ġdoc":3190,"Ġitems":3191,"apply":3192,"ze":3193,"Ġ\".":3194,"swing":3195,"Project":3196,"'}":3197,"Descriptor":3198,"Job":3199,"Open":3200,"global":3201,"ished":3202,"way":3203,"andard":3204,"ike":3205,"RL":3206,"IOException":3207,"bose":3208,"_.":3209,"mine":3210,"ru":3211,"Parent":3212,"ier":3213,"Ġproduct":3214,"Variable":3215,"forEach":3216,"resolve":3217,"Ġentity":3218,"Ġweb":3219,"Bytes":3220,"Left":3221,"ling":3222,"ĠSoftware":3223,"Local":3224,"Ġ\"\"":3225,"ĠĠĠĠĠĠĠĠĠĠĠĠĠĠĠ":3226,"RES":3227,"Ġaccount":3228,"Ġlocation":3229,"Option":3230,"meta":3231,"irt":3232,"ggle":3233,"ocus":3234,"Ġstream":3235,"Ġbl":3236,"Ġmark":3237,"ability":3238,"Ġlevel":3239,"'},":3240,"ires":3241,"Enabled":3242,"WAR":3243,"(()":3244,"Graph":3245,"Ġchild":3246,"iddle":3247,"ĠĊĠĠĠĠĠĠĠ":3248,"']['":3249,"Sign":3250,"etween":3251,"exists":3252,"One":3253,"Ċĉĉĉĉĉĉĉ":3254,"ipeline":3255,"Ġbutton":3256,"modules":3257,"Ġbool":3258,"nodes":3259,"intern":3260,"sen":3261,"ĠNot":3262,"Invalid":3263,"è¡":3264,"Channel":3265,"ensions":3266,"selected":3267,"(\"\\":3268,"ump":3269,"Ġfilename":3270,"Ġdataset":3271,"Expression":3272,"Found":3273,"Thread":3274,"Fields":3275,"vm":3276,"lide":3277,"Ġheaders":3278,"Grid":3279,"Ġwithout":3280,"<>();":3281,"Ġhref":3282,"impl":3283,"xb":3284,"oci":3285,"bs":3286,"ood":3287,"conv":3288,"Port":3289,"amera":3290,"alend":3291,"ignment":3292,"bound":3293,"Ġdatetime":3294,"cimal":3295,"avig":3296,"Ġdatabase":3297,"normal":3298,"Ġempty":3299,"Ġaxis":3300,"Ġaddress":3301,"Ġrule":3302,"ium":3303,"Ġaccess":3304,"ĠDefault":3305,"]))":3306,"Ġpd":3307,")}":3308,"gt":3309,"Ġunit":3310,"empty":3311,"Ġtransform":3312,"Ġ'<":3313,"ynam":3314,"Next":3315,"Meta":3316,"Registry":3317,"cls":3318,"mission":3319,"Metadata":3320,"FOR":3321,"ged":3322,"+\"":3323,"Product":3324,"expr":3325,"aly":3326,"Ġplayer":3327,"çĶ¨":3328,"Ġnon":3329,"lat":3330,"typeof":3331,"webpack":3332,"role":3333,"Ġnn":3334,"section":3335,"napshot":3336,"ĠCheck":3337,"æĹ":3338,"Constants":3339,"SION":3340,"Plugin":3341,"super":3342,"ev":3343,"rate":3344,"cmd":3345,"connection":3346,"STR":3347,"rior":3348,"sys":3349,"Ġ'#":3350,"ĠKey":3351,"ĠHash":3352,"ories":3353,"tree":3354,"acity":3355,"CC":3356,"reshold":3357,"day":3358,"lines":3359,"ĠApp":3360,"oop":3361,"buffer":3362,"ĊĊĠĠĠĠĠĠĠĠĠĠĠĠĠĠĠĠĠĠĠ":3363,"acket":3364,"ĠAssert":3365,"*-":3366,"ĠassertThat":3367,"igin":3368,"Ġstep":3369,"ĠĠĠĠĠĠĠĠĠĠ":3370,"tmp":3371,"ios":3372,"rs":3373,"fin":3374,"ĠFor":3375,"Pool":3376,"Ġthread":3377,"pk":3378,"Ġthere":3379,"cd":3380,"Ġdjango":3381,"access":3382,"Ġconvert":3383,"('./":3384,"PAT":3385,"ges":3386,"Ġproperties":3387,"dom":3388,"pg":3389,"aved":3390,"MS":3391,"Ġprops":3392,"Ġcollection":3393,"ibility":3394,"layers":3395,"Details":3396,"ĠBase":3397,"eam":3398,"coding":3399,"ictionary":3400,"Ġcontainer":3401,"bed":3402,"Ġits":3403,"Ġ\"<":3404,"llegal":3405,"Ġshape":3406,"iss":3407,"encode":3408,"urren":3409,"ret":3410,"Role":3411,"Ġloc":3412,"()));":3413,"Custom":3414,"---":3415,"Ġdown":3416,"PER":3417,"Policy":3418,"children":3419,"timeout":3420,"Ġreturns":3421,"alendar":3422,"Ġstrict":3423,"uction":3424,"Ġ'\\":3425,"Password":3426,"features":3427,"Mapper":3428,"Ġweight":3429,"æĺ":3430,"holder":3431,"ĠText":3432,"Ġswitch":3433,"Selected":3434,"ERROR":3435,"oding":3436,"____":3437,"Ġconf":3438,"Ġdtype":3439,"Ġfull":3440,"Red":3441,"ether":3442,"fit":3443,"builder":3444,"Ġgr":3445,"returns":3446,"profile":3447,"prev":3448,"asure":3449,"redentials":3450,"Ġ-*-":3451,"Rel":3452,":`":3453,"internal":3454,"pTypes":3455,"This":3456,"ĠHttp":3457,"craft":3458,"Ġmer":3459,"grad":3460,"arge":3461,"Enum":3462,"Wrapper":3463,"DO":3464,"fill":3465,"Ġselected":3466,"arm":3467,"ALL":3468,"isEmpty":3469,"Changed":3470,"ĠĊĠĠĠĠ":3471,"Ġlicense":3472,"ategy":3473,"Ġ''":3474,"âĶ":3475,"afe":3476,"velo":3477,"control":3478,"leep":3479,"Transaction":3480,"properties":3481,"Ġdirectory":3482,"Ġbr":3483,"Ġfollowing":3484,"]),":3485,"Wh":3486,"IP":3487,"required":3488,"Ġfail":3489,"ĠNOT":3490,"UB":3491,"Ġbuffer":3492,"ries":3493,"headers":3494,"irm":3495,"Ġhere":3496,"Ġclose":3497,"ĠAll":3498,"ASE":3499,"DS":3500,"entication":3501,"feature":3502,"cip":3503,"Ġinitial":3504,"break":3505,"category":3506,"ĊĠĠĠĠĠĠĠĠĠĠĠĠĠĠĠĠĠĠĠĠĠĠĠĠ":3507,"POST":3508,"setText":3509,"rem":3510,".*;":3511,"Ġ;":3512,"ws":3513,"vision":3514,"amed":3515,"Definition":3516,"ĠValueError":3517,"Ġreference":3518,"strip":3519,"handler":3520,"xc":3521,"Ġscale":3522,"mar":3523,"oice":3524,"folder":3525,"wise":3526,"notation":3527,"Ġexample":3528,"Parameters":3529,"OS":3530,"btn":3531,"\"+":3532,"known":3533,"BU":3534,"If":3535,"SIZE":3536,"double":3537,"Ġprovided":3538,"Ġev":3539,"âĢ":3540,"åĽ":3541,"ls":3542,"ĠView":3543,"itude":3544,"PAR":3545,"MENT":3546,"Sw":3547,"Ġì":3548,"Root":3549,"(\".":3550,"tab":3551,"Ġinclude":3552,"variable":3553,")):":3554,"matrix":3555,"lin":3556,"ĊĊĊ":3557,"esh":3558,"Trace":3559,"olver":3560,"ĠSub":3561,"oto":3562,"Ġcls":3563,"validate":3564,"Ġbeen":3565,"Ġoption":3566,"acy":3567,"getId":3568,"very":3569,"Ġplot":3570,"Last":3571,"ful":3572,"Ġ\"'":3573,"Ġkwargs":3574,"ĉĉĉ":3575,"amil":3576,"ous":3577,"Ġthan":3578,"ĠParam":3579,"press":3580,"ested":3581,"Ġkeys":3582,"only":3583,"ĠConfig":3584,"runtime":3585,"Delete":3586,"ced":3587,"Ġignore":3588,"drop":3589,"untry":3590,"ĠHT":3591,"greg":3592,"riteria":3593,"Interface":3594,"Ġmat":3595,"member":3596,"InputStream":3597,"Ġrece":3598,"gor":3599,"Ġimplement":3600,"Fragment":3601,"Ġbytes":3602,".,":3603,"ĠĊĠĠĠ":3604,"getElementById":3605,"ĠPy":3606,"used":3607,"\"])":3608,"lambda":3609,"je":3610,"Ġpadding":3611,"Mark":3612,"getString":3613,"collection":3614,"Ġ$('#":3615,"Ġhtml":3616,"Ġgenerate":3617,"Ġavailable":3618,"ĠNO":3619,"SC":3620,"requ":3621,"HTML":3622,"include":3623,"Queue":3624,"Ġrepresent":3625,"ten":3626,"chron":3627,"wd":3628,"Bl":3629,"Ġmask":3630,"EXT":3631,"Ġ\"\",":3632,"aises":3633,"ĠURL":3634,"ArrayList":3635,"Float":3636,"HER":3637,"TIC":3638,"site":3639,"Ġtmp":3640,"ado":3641,"Del":3642,"Ġsb":3643,"jo":3644,"Ġsystem":3645,"Ġlayer":3646,"Symbol":3647,"Ġconfiguration":3648,"done":3649,"none":3650,"WE":3651,"xd":3652,"rest":3653,"getValue":3654,"alys":3655,"verter":3656,"ixed":3657,"crypt":3658,"Right":3659,":'":3660,"pool":3661,"android":3662,"+'":3663,",'":3664,"Ġequal":3665,"Ġrole":3666,"Ġicon":3667,"Ġcell":3668,"Ġhandler":3669,"]['":3670,"manager":3671,"Ġenumer":3672,"alog":3673,"Ġ'',":3674,"irtual":3675,"fail":3676,"ĠImage":3677,"DER":3678,"alysis":3679,"(@":3680,"Ð»":3681,"El":3682,"rand":3683,"URE":3684,"users":3685,"++;":3686,"Ġty":3687,"reset":3688,"Tab":3689,"Ġtree":3690,"Ġfeature":3691,"Doc":3692,"Ġmetadata":3693,"Ġnetwork":3694,"Ġauthor":3695,"ometry":3696,"Math":3697,"iffer":3698,"{'":3699,"eek":3700,"xe":3701,"datetime":3702,"LOG":3703,"....":3704,"Ġstop":3705,"Ġnormal":3706,"parator":3707,"Ġloss":3708,"gorith":3709,"bytes":3710,"{\"":3711,"tensor":3712,"wner":3713,"seq":3714,"Ass":3715,"Device":3716,"Ġcv":3717,"âĸ":3718,"Dict":3719,"rowable":3720,"Constraint":3721,"ONE":3722,"('\\":3723,"route":3724,"Args":3725,"Ġalready":3726,"imul":3727,"arnings":3728,"ãĢĤ":3729,"Rest":3730,"atio":3731,"cb":3732,"ynchron":3733,"ynamic":3734,"voke":3735,"Ġnow":3736,"Ġjust":3737,"anner":3738,"aterial":3739,"ĠLOG":3740,"track":3741,"conn":3742,"Ġoriginal":3743,"DEFAULT":3744,"cluster":3745,"Close":3746,"Ids":3747,"ĠOr":3748,"Bound":3749,"Author":3750,"mount":3751,"catch":3752,"ĠNode":3753,"year":3754,"embed":3755,"prec":3756,"Keys":3757,"AA":3758,"Servlet":3759,"åº":3760,"exit":3761,"bool":3762,"ario":3763,"----------------------------------------------------------------":3764,")[":3765,">(":3766,"ross":3767,"ĠBuilder":3768,"Report":3769,"Profile":3770,"Ġoptional":3771,"Draw":3772,"define":3773,"answ":3774,"icker":3775,"SET":3776,"xa":3777,"ding":3778,"INT":3779,"ĠDo":3780,"Ġregister":3781,"ĠAb":3782,"direct":3783,"Ġ{},":3784,"Ġ'../":3785,"Ġgame":3786,"Ġplace":3787,"Ġconstructor":3788,"ASS":3789,"multi":3790,"Op":3791,"Success":3792,"COL":3793,"cid":3794,"CK":3795,"Ġpayload":3796,"Ġusername":3797,"Double":3798,"ather":3799,"pass":3800,"Env":3801,"Dist":3802,"DIR":3803,"hidden":3804,"Host":3805,"Ġactual":3806,"Ġdraw":3807,"iment":3808,"Ġschema":3809,"indexOf":3810,"Display":3811,"æł":3812,"ito":3813,"toBe":3814,"ROM":3815,"(!":3816,"Ġoperation":3817,"ats":3818,"Sync":3819,".\",":3820,"ayment":3821,"Ġfr":3822,"Ġsee":3823,"aff":3824,"desc":3825,"non":3826,"Ġatt":3827,"prob":3828,"emo":3829,"alk":3830,"Ġ({":3831,"ĠInt":3832,"words":3833,"Ġplugin":3834,"}</":3835,"lap":3836,"Are":3837,"ĠLong":3838,"Ġbox":3839,"ched":3840,"Script":3841,"umb":3842,"ĠPath":3843,"reference":3844,"throw":3845,"ĠUp":3846,"Ġbound":3847,"sumer":3848,"oose":3849,"éĢ":3850,"oss":3851,"Ġactive":3852,"alculate":3853,"embers":3854,"alance":3855,"Ġtypes":3856,"events":3857,"alt":3858,"Ġobjects":3859,"Layer":3860,"ĠAND":3861,"iler":3862,"PATH":3863,"UI":3864,"Xml":3865,"ending":3866,"Bind":3867,"ele":3868,"Ġlabels":3869,"Files":3870,"Ġprefix":3871,"Ġdir":3872,"Statement":3873,"Ġprob":3874,"ILITY":3875,"Ġcalled":3876,"math":3877,"tools":3878,"Ġsome":3879,"columns":3880,"world":3881,"Ġgrid":3882,"ĠResponse":3883,"pare":3884,"/>":3885,"OK":3886,"æį":3887,"area":3888,"ah":3889,"icro":3890,"uuid":3891,"icate":3892,"Ġcre":3893,":]":3894,"Ġnodes":3895,"Ġidx":3896,"FO":3897,"SH":3898,"å¼":3899,"First":3900,"ĠPropTypes":3901,"boot":3902,"errors":3903,"pu":3904,"Ġmargin":3905,"ifact":3906,"dirname":3907,"Ġstack":3908,"tags":3909,"iant":3910,"ĊĠĠĠĠĠĠĠĠĠĠĠĠĠĠĠĠĠĠ":3911,"apped":3912,"PRE":3913,"ĠSO":3914,"Active":3915,"qa":3916,"xx":3917,"Ġpython":3918,"ness":3919,"Ġsql":3920,"Me":3921,"ĠWe":3922,"Ġcmd":3923,"support":3924,"\\/":3925,"python":3926,"keep":3927,"UD":3928,"styles":3929,"struction":3930,".\")":3931,"ä¿":3932,"Ġsingle":3933,"decode":3934,"aml":3935,"Ġword":3936,"urrency":3937,"Ġ::":3938,"Ġreturned":3939,"roy":3940,"Ġauto":3941,"docs":3942,"ĠLoc":3943,"(*":3944,"Ġsetup":3945,"encies":3946,"Ġ'@":3947,"Ġgo":3948,"stats":3949,"report":3950,"Font":3951,"Package":3952,"'+":3953,"short":3954,".\"":3955,"Cre":3956,"Ġscript":3957,"Ġrequests":3958,"torch":3959,"Ġcorrect":3960,"Ġproto":3961,"Ġ'-":3962,"Ġ\"\";":3963,"Email":3964,"Ġverify":3965,"car":3966,"zeros":3967,"cores":3968,"Category":3969,"Ġtuple":3970,"Ġtimeout":3971,"Ġraw":3972,"router":3973,"åį":3974,"Ġclear":3975,"Ġelements":3976,"screen":3977,"kit":3978,"Ġ',":3979,"Ġconn":3980,"ANT":3981,"ĠIllegal":3982,"Ġmatrix":3983,"Game":3984,"OUT":3985,"Cond":3986,"createElement":3987,"DateTime":3988,"ites":3989,"iag":3990,"iteral":3991,"GER":3992,"pa":3993,"Rect":3994,"rough":3995,"norm":3996,"security":3997,"ĊĠĠĠĠĠĠĠĠĠĠĠĠĠĠĠĠĠĠĠĠĠĠĠĠĠĠĠĠĠĠĠĠĠĠĠĠĠĠĠĠĠĠĠ":3998,"services":3999,"Ġmethods":4000,"IO":4001,"PORT":4002,"Ġtwo":4003,"ĠTrans":4004,"hedul":4005,"extend":4006,"comment":4007,"factory":4008,"concat":4009,"ives":4010,"DATA":4011,"URI":4012,"ĠFOR":4013,"plement":4014,"media":4015,"LECT":4016,"Only":4017,"ta":4018,"SQL":4019,"Track":4020,"cel":4021,"comm":4022,"Av":4023,"Protocol":4024,"pattern":4025,"oad":4026,"USER":4027,"fetch":4028,"Ġerrors":4029,"Step":4030,"ention":4031,"Ġvalidate":4032,"lint":4033,"price":4034,"eval":4035,"epoch":4036,"database":4037,"starts":4038,"Ind":4039,"ef":4040,"yy":4041,"storage":4042,"hide":4043,"Ġmeta":4044,"socket":4045,"Ġresolve":4046,"\"}":4047,"dot":4048,"ĠBy":4049,"'''":4050,"activ":4051,"Ġbetween":4052,"Feature":4053,"Ġconnect":4054,"'][":4055,"inputs":4056,"voc":4057,"Ġbackground":4058,"INE":4059,"slice":4060,"Holder":4061,"Main":4062,"Scroll":4063,"Ġpoints":4064,"gorithm":4065,"Ġes":4066,"served":4067,"assed":4068,"Ġsplit":4069,"Ġarr":4070,"={{":4071,"views":4072,"Network":4073,"soft":4074,">{":4075,"getS":4076,"bers":4077,"ube":4078,"Ġfunc":4079,"\"):":4080,"Ġyield":4081,"Ġstruct":4082,"allow":4083,"vue":4084,"ĊĠĠĠĠĠĠĠĠĠĠĠĠĠĠĠĠĠĠĠĠĠĠĠĠĠĠĠĠĠ":4085,"ĠAuth":4086,"Transform":4087,"ca":4088,"cv":4089,"andid":4090,"Show":4091,"ĠAt":4092,"imizer":4093,"ĠĊĉ":4094,"minecraft":4095,"`.":4096,"Ġfetch":4097,"ended":4098,"logging":4099,"TestCase":4100,"oriz":4101,")(":4102,"ĠAl":4103,"Ġtrack":4104,"ĠEvent":4105,"ibrary":4106,"Database":4107,">\\":4108,"Ġtx":4109,"Ġincl":4110,"ĠBlock":4111,"oly":4112,"Ġdiv":4113,"ä¸Ģ":4114,")));":4115,"channels":4116,"mm":4117,"Bot":4118,"Ġfs":4119,"Ġcluster":4120,"convert":4121,"ublish":4122,"/{":4123,"su":4124,"Progress":4125,"iate":4126,"atic":4127,"ĠInput":4128,"Auto":4129,"created":4130,"ĠNumber":4131,"Ġutils":4132,"Ġ).":4133,"asc":4134,"Can":4135,"Multi":4136,"eq":4137,"Before":4138,"ircle":4139,"getInstance":4140,"eer":4141,"scroll":4142,"assign":4143,"]+":4144,"Ġsent":4145,"ĊĊĉĉĉ":4146,"WARE":4147,"Ġperson":4148,"åıĸ":4149,"Generator":4150,"AND":4151,"Permission":4152,"beta":4153,"ĠModel":4154,"Parse":4155,"la":4156,"ĠPRO":4157,"contrib":4158,"cap":4159,"tip":4160,"Ġpop":4161,"serialize":4162,"åľ":4163,"rot":4164,"###":4165,"Results":4166,"getMessage":4167,"home":4168,"logy":4169,"Total":4170,"(/":4171,"istence":4172,"EventListener":4173,"Rad":4174,".\");":4175,"lipse":4176,"Ġqueue":4177,"fc":4178,"Ġ\"#":4179,"Ġpattern":4180,"ĠEX":4181,"ka":4182,"Ġborder":4183,"Ġwait":4184,"ĠBoolean":4185,"Selection":4186,"Media":4187,"ior":4188,"ĠRequest":4189,"mater":4190,"Ġpackage":4191,"Conf":4192,"Ġapplication":4193,"undefined":4194,"Aut":4195,"diff":4196,"plex":4197,"igrations":4198,"Ġ}),":4199,"ĠRE":4200,"ose":4201,"Ġlines":4202,"leted":4203,"Vert":4204,"just":4205,"fg":4206,"AX":4207,"Async":4208,"acc":4209,"Ġevents":4210,"video":4211,"Ġpulumi":4212,"Matrix":4213,"Cluster":4214,"generated":4215,"čĊĠĠĠĠĠĠĠĠĠĠĠĠĠĠĠĠĠĠĠĠĠĠĠ":4216,"PR":4217,"HashMap":4218,"TIME":4219,"Ġ$(\"#":4220,"Ġ--------":4221,"Handle":4222,"Gr":4223,"pm":4224,"each":4225,"parameter":4226,"CRE":4227,"Ġ_.":4228,"generate":4229,"respon":4230,"sure":4231,"allet":4232,"æī":4233,"FILE":4234,"ĠPar":4235,"sible":4236,"Price":4237,"oard":4238,"Vector":4239,"anagement":4240,"ĠTime":4241,"ĠPAR":4242,"ifferent":4243,"Cur":4244,"ĠCollection":4245,"commit":4246,"DATE":4247,"ĠArgs":4248,"ets":4249,"Ġdebug":4250,"unch":4251,"ABILITY":4252,"itive":4253,"aut":4254,"gy":4255,"Ġverbose":4256,"attribute":4257,"ucer":4258,"('--":4259,"verage":4260,"Core":4261,"ker":4262,"region":4263,"Ġbit":4264,"setup":4265,"ii":4266,"Ġ'\"":4267,"protected":4268,"ops":4269,"Ġchildren":4270,"Ġcopyright":4271,";</":4272,"tests":4273,"acing":4274,"dr":4275,"******":4276,"Ġscope":4277,"ĊĠĠĠĠĠĠĠĠĠĠĠĠĠĠĠĠĠĠĠĠĠĠ":4278,"Ġenumerate":4279,"Build":4280,"cfg":4281,"Admin":4282,"Required":4283,"Iterator":4284,"MAX":4285,"à¤":4286,"ï¼ļ":4287,"aws":4288,"SD":4289,"ployment":4290,"VALUE":4291,"Ġcontains":4292,"Ã©":4293,"Ġdepend":4294,"counter":4295,"Pattern":4296,"zip":4297,"Ġ\"./":4298,"groups":4299,"Sum":4300,"Ġ\"-":4301,"ba":4302,"=\\\"":4303,"controller":4304,"pag":4305,"Sequence":4306,"mov":4307,"Modal":4308,"Ġextension":4309,"Ġedit":4310,"XML":4311,"udent":4312,"zz":4313,"ç½":4314,"ACT":4315,"\":[":4316,"iddleware":4317,"ĠAc":4318,"Nullable":4319,"Ġ$.":4320,"Ġlambda":4321,"delta":4322,"Internal":4323,"å¯":4324,"ĠItem":4325,"CONT":4326,"Ġprogram":4327,"Ġmerge":4328,"thread":4329,"Ñĥ":4330,"sq":4331,"tick":4332,"agent":4333,"amily":4334,"Ġlike":4335,"annotations":4336,"åĩ":4337,"Ġunique":4338,"Ġattributes":4339,"team":4340,"éĩ":4341,"achine":4342,"æĺ¯":4343,"ead":4344,"indices":4345,"DF":4346,"Ġupdated":4347,"åĮ":4348,"Ġcolumns":4349,"material":4350,"Ġfill":4351,"Ġtool":4352,"Bundle":4353,"GL":4354,"hav":4355,"Socket":4356,"na":4357,"Ġart":4358,"ĠHashMap":4359,"Identifier":4360,"roke":4361,"ITE":4362,"ways":4363,"istic":4364,"Ġvert":4365,"ĠonClick":4366,"Ġreplace":4367,"čĊĠĠĠĠĠĠĠĠĠ":4368,"payload":4369,"fa":4370,"driver":4371,"alpha":4372,"Editor":4373,"platform":4374,"pad":4375,"Ġ'_":4376,"ĠĠĠĠĠĠĠĠĠĠĠĠĠ":4377,"NotFound":4378,"jsp":4379,"Area":4380,"Fore":4381,"Ġclick":4382,"Attributes":4383,"âĶĢ":4384,"ipo":4385,"ĠLogger":4386,"ours":4387,"\"].":4388,"messages":4389,"ä¸ª":4390,"Full":4391,"Ġdel":4392,"periment":4393,"dtype":4394,"Login":4395,"gnore":4396,"ĠLI":4397,"Ðº":4398,"bb":4399,"plier":4400,"|.":4401,"Ġprevious":4402,"skip":4403,"Rece":4404,"BO":4405,"ured":4406,"WOR":4407,"dt":4408,"ampl":4409,"zone":4410,"FTWARE":4411,"real":4412,"ĠIt":4413,")/":4414,"prot":4415,"!!":4416,"resources":4417,"svg":4418,"Sk":4419,"GHT":4420,"()),":4421,"Ġshort":4422,"answer":4423,"Ġalso":4424,"Ġè":4425,"Ġcontrol":4426,"ird":4427,"Ġfailed":4428,"Directory":4429,"cause":4430,"background":4431,"WS":4432,"ones":4433,"mutable":4434,"loor":4435,"Region":4436,"=-":4437,"zh":4438,"Ġtags":4439,"ga":4440,"'));":4441,"question":4442,"adow":4443,"collect":4444,"WN":4445,"Ġsm":4446,"Abstract":4447,"Ġ'%":4448,"Ġopts":4449,"ribution":4450,"Ġreport":4451,"ĠWeb":4452,"protocol":4453,"Ġinsert":4454,"trace":4455,"imate":4456,"ArgumentException":4457,"Ġtensor":4458,"à¸":4459,"Ġ\"+":4460,"Nodes":4461,"dates":4462,"Ġassoci":4463,"Ge":4464,"Ġresp":4465,"gine":4466,"ULE":4467,"Ġtypeof":4468,"sleep":4469,"arguments":4470,"čĊčĊĉ":4471,"ialization":4472,"ĠFROM":4473,"Ġfinally":4474,"Ġter":4475,"Route":4476,"iness":4477,"high":4478,"Ġmenu":4479,"Ġrad":4480,"ECT":4481,"(['":4482,"Batch":4483,"\"},":4484,"Ġ(_":4485,"MIN":4486,"ANCE":4487,"Pane":4488,"Ġabstract":4489,"MOD":4490,"mail":4491,"seed":4492,"Events":4493,"'\\":4494,"ĠName":4495,"ordinates":4496,"clar":4497,"oment":4498,"Ġzip":4499,"Ġ\\\"":4500,"valueOf":4501,"BP":4502,"symbol":4503,"æĹ¶":4504,"Ġfig":4505,"Ġdon":4506,"ertific":4507,"awt":4508,"Art":4509,"Ġman":4510,"ĠJson":4511,"Ġdetails":4512,"Ġdesc":4513,"chain":4514,"æį®":4515,"clare":4516,"Ġdirect":4517,"UTH":4518,"ached":4519,"ä¸º":4520,"edge":4521,"Ġ}).":4522,"Ġge":4523,"validation":4524,"Ġcategory":4525,"Ġgenerated":4526,"Ġcenter":4527,"ART":4528,"ĠSOFTWARE":4529,"ĠRuntime":4530,"Lock":4531,"StackTrace":4532,"Ġadditional":4533,"SP":4534,"ĠAbstract":4535,"trie":4536,"Detail":4537,"timestamp":4538,"ĠPromise":4539,"trim":4540,"dum":4541,"Ġdev":4542,">,":4543,"wt":4544,"ship":4545,"si":4546,"GE":4547,"ĊĠĠĠĠĠĠĠĠĠĠĠĠĠĠĠĠĠĠĠĠĠĠĠĠĠĠĠĠĠĠĠĠĠ":4548,"hell":4549,"PUT":4550,"gistr":4551,"plates":4552,"Ġelem":4553,"ĠOn":4554,"()[":4555,"pair":4556,"sig":4557,"Ġaut":4558,"Ġxml":4559,"ĠComponent":4560,"Ġinputs":4561,"usr":4562,"quare":4563,"attributes":4564,"LA":4565,"Visible":4566,"scriptor":4567,"ateway":4568,"ĊĠĠĠĠĠĠĠĠĠĠĠĠĠĠĠĠĠĠĠĠĠĠĠĠĠĠ":4569,"samples":4570,"NonNull":4571,"Ġamount":4572,"}}":4573,"Ġbuf":4574,"Ġrights":4575,"pytest":4576,"Extension":4577,"Ġnoqa":4578,"Decimal":4579,"jpg":4580,"fire":4581,"Ġwant":4582,"faces":4583,")\",":4584,"argv":4585,"čĊĠĠĠĠĠĠĠĠ":4586,"Ġscore":4587,"Prefix":4588,"Ġregion":4589,"jection":4590,"Interval":4591,"Ax":4592,"çĽ":4593,"plet":4594,"Ġgen":4595,"__,":4596,"Scale":4597,"ĠDis":4598,"plan":4599,"istics":4600,"optional":4601,"anc":4602,"Ġclasses":4603,"hr":4604,"Ġsupport":4605,"Execution":4606,"Expect":4607,"uffix":4608,"Ġ'__":4609,"Scope":4610,"Ġcoding":4611,"Ġexists":4612,"term":4613,"Ġlook":4614,"vers":4615,"ĠSQL":4616,"checked":4617,"Inst":4618,"orizont":4619,">.":4620,"heduler":4621,"/',":4622,"setState":4623,"ari":4624,"uce":4625,"ĠMessage":4626,"Ġthem":4627,"Ġ'--":4628,"ä»¶":4629,"APP":4630,"compute":4631,"alth":4632,"gre":4633,"Ġrows":4634,"avigation":4635,"stringify":4636,"Ġadded":4637,"Screen":4638,"Pair":4639,"NOT":4640,"odo":4641,"ros":4642,"Ġsl":4643,"CI":4644,"Ġabove":4645,"éĹ":4646,"wrap":4647,"~~~~":4648,"}\")":4649,"Br":4650,"sec":4651,"Ġapply":4652,"uded":4653,"ĠAd":4654,"']:":4655,"Effect":4656,"bottom":4657,"Ġusers":4658,"ĠĊĠĠĠĠĠĠĠĠĠĠĠ":4659,"Fail":4660,"ä¸į":4661,"Tensor":4662,"Ġown":4663,"ULL":4664,"å½":4665,"Ġfn":4666,"Ġcy":4667,"ĠNo":4668,"Ġexecute":4669,"VENT":4670,"inte":4671,"eff":4672,"Ġcommon":4673,"ips":4674,"dash":4675,"nav":4676,"strap":4677,"Ġ\"__":4678,"Simple":4679,"ĊĊĠĠ":4680,"Uri":4681,"history":4682,"ĠThrowable":4683,"heme":4684,"ifest":4685,"irc":4686,"ĊĊĠĠĠĠĠĠĠĠĠ":4687,"CP":4688,"Ġ\"_":4689,"Ġla":4690,"plic":4691,"cos":4692,"Ġ):":4693,"Ġbased":4694,"disable":4695,"ely":4696,")',":4697,"Ġreject":4698,"VIC":4699,"Ġet":4700,"TAG":4701,"editor":4702,"riority":4703,"ventory":4704,"flag":4705,"ighb":4706,"}\"":4707,"solute":4708,"MODE":4709,"icode":4710,"astic":4711,"Ġhel":4712,"ViewById":4713,"ressed":4714,">'":4715,"CS":4716,"weights":4717,"čĊĠĠ":4718,"Ġdispatch":4719,"Lower":4720,"getClass":4721,"=['":4722,"Ġhead":4723,"Ġ..":4724,"After":4725,"Rate":4726,"Folder":4727,"Ġstd":4728,"clean":4729,"ernal":4730,"Ġtests":4731,"å°":4732,"orizontal":4733,"opts":4734,"hand":4735,"Serializer":4736,"Generated":4737,"Ġbind":4738,"dc":4739,"master":4740,"Member":4741,"directory":4742,"Ġsorted":4743,"Ġfolder":4744,"policy":4745,"Ignore":4746,"inf":4747,"uplic":4748,"ture":4749,"ĠPl":4750,">\"":4751,"Failed":4752,"Ġ[{":4753,"GR":4754,"čĊĉĉĉĉĉ":4755,"Limit":4756,"Own":4757,"itter":4758,"Proxy":4759,"CA":4760,"ĠRed":4761,"upload":4762,"Ġflag":4763,"compile":4764,"getLogger":4765,"OutputStream":4766,"lab":4767,"Pointer":4768,"Ġmessages":4769,"allel":4770,"Ġfeatures":4771,"dm":4772,"lers":4773,"CTION":4774,"æĿ":4775,"Notification":4776,"ĠForm":4777,"æŀ":4778,"Ġsocket":4779,"Connect":4780,"ĠLink":4781,"Ġtraining":4782,"Ġlayout":4783,"numpy":4784,"Bit":4785,"ĠInter":4786,"Attr":4787,"pts":4788,"Ġembed":4789,"room":4790,"paths":4791,"ĠassertTrue":4792,"vars":4793,"ORS":4794,"Ġbecause":4795,"Ġreset":4796,"vid":4797,"loop":4798,"usiness":4799,"Global":4800,"Ġwhether":4801,"ĠRem":4802,"Ġtab":4803,"otion":4804,"rgb":4805,"Flow":4806,"TEST":4807,"ĊĉĠ":4808,"]],":4809,"Ġreader":4810,"ACE":4811,"Struct":4812,"Ġip":4813,"substring":4814,"after":4815,"states":4816,"supported":4817,"Ġdomain":4818,"Ċĉĉĉĉĉĉĉĉ":4819,"Ġ}}":4820,"SELECT":4821,"Ġsymbol":4822,"My":4823,"sn":4824,"win":4825,"ĠVal":4826,"Ġkernel":4827,"curs":4828,"Random":4829,"Ġest":4830,"Ġpytest":4831,"Ġinternal":4832,"Cap":4833,"antity":4834,"Ġperform":4835,"ĠPr":4836,"mouse":4837,"initial":4838,"_(":4839,"hip":4840,"ĠMock":4841,"Ġpassed":4842,"Ġdifferent":4843,"Ġutf":4844,"shift":4845,"Ġimages":4846,"hy":4847,"Ġinvalid":4848,"ĠParameters":4849,"iation":4850,"__)":4851,"Ġinv":4852,"uk":4853,"Ġutil":4854,"Ġcontaining":4855,"metrics":4856,"Ġskip":4857,"Ġsubject":4858,"ĠFunction":4859,"Fin":4860,"FL":4861,"road":4862,"ĠTH":4863,"rift":4864,"âĶĢâĶĢ":4865,"GEN":4866,"Ġvariables":4867,"Ver":4868,"sim":4869,"merge":4870,"Day":4871,"Ġalign":4872,"Second":4873,"æľī":4874,"Ġbar":4875,"IR":4876,"LED":4877,"ĠAS":4878,"printStackTrace":4879,".')":4880,"Ġmath":4881,"ĠVar":4882,"Ġprop":4883,"Ġlistener":4884,"ooks":4885,"THER":4886,"month":4887,"begin":4888,"ons":4889,"Ġclean":4890,"summary":4891,"querySelector":4892,"complete":4893,"Ġdefined":4894,"Ġcard":4895,"DD":4896,"Objects":4897,"è¡¨":4898,"ĠClient":4899,"uda":4900,"Ġwriter":4901,"crement":4902,"warn":4903,"Ġ'../../":4904,"Att":4905,"Background":4906,"generator":4907,"Write":4908,"modal":4909,"Ġexisting":4910,"ategories":4911,"Ġlogin":4912,"uy":4913,"Ġexports":4914,"akes":4915,"Compat":4916,"pb":4917,"configuration":4918,"pleted":4919,"Ġ\")":4920,"\"][\"":4921,"Dao":4922,"Ġstorage":4923,"Ġprofile":4924,"ĊĠĠĠĠĠĠĠĠĠĠĠĠĠĠĠĠĠĠĠĠĠĠĠĠĠĠĠĠĠĠĠĠ":4925,"Ġbegin":4926,"addr":4927,"Ġdictionary":4928,"Sort":4929,"hem":4930,"ĠHTTP":4931,"Ġmove":4932,"owner":4933,"Ð²":4934,"nb":4935,"Support":4936,"Ġput":4937,"Ġconditions":4938,"CharField":4939,"ĠAny":4940,"GB":4941,"IMP":4942,"cessed":4943,"alar":4944,"':'":4945,"seconds":4946,"Ñı":4947,"trigger":4948,"SO":4949,"Ġloop":4950,"Ġmean":4951,"History":4952,"come":4953,"submit":4954,"NUM":4955,"depend":4956,"Ð¼":4957,"Ġcomment":4958,"Ġedge":4959,"EW":4960,"ĠDEFAULT":4961,"Des":4962,"Ġchunk":4963,"âķ":4964,"gest":4965,"enable":4966,"ertificate":4967,"dx":4968,"igration":4969,"___":4970,"etri":4971,"eclipse":4972,"tw":4973,"alert":4974,"details":4975,"ĠOTHER":4976,"-------":4977,"depth":4978,"Ġnotice":4979,"uring":4980,"Implement":4981,"ç½®":4982,"Intent":4983,"namespace":4984,"ools":4985,"Ġexpression":4986,"ases":4987,"border":4988,"ynt":4989,"æĶ":4990,"Ġextract":4991,"tries":4992,"provider":4993,"pulumi":4994,"duction":4995,").__":4996,"inv":4997,"æĸĩ":4998,"metric":4999,"dec":5000,"Func":5001,"Ġcursor":5002,"urface":5003,"Pag":5004,"Ġsequence":5005,"LS":5006,"icator":5007,"Stats":5008,"Ġcannot":5009,"toggle":5010,"Security":5011,"herit":5012,"wrapper":5013,"aining":5014,"ifiers":5015,"ied":5016,"æİ":5017,"where":5018,"ĠUse":5019,"HTTP":5020,"Ġrem":5021,"Ġlat":5022,"steps":5023,"ony":5024,"Off":5025,"SU":5026,"iterator":5027,"Ġabout":5028,"cursor":5029,"RED":5030,"éĻ":5031,"ĠField":5032,"ĠConstraint":5033,"Ġpair":5034,"Ġencode":5035,"ĠMy":5036,"':{'":5037,"Ġmov":5038,"(\"%":5039,"Ġrot":5040,"covered":5041,"<?>":5042,"ĠST":5043,"ä¸Ń":5044,"Ġ-->":5045,"tuple":5046,"Tests":5047,"Ġalpha":5048,"interval":5049,"Domain":5050,",-":5051,"lation":5052,"ĠSimple":5053,"ek":5054,"sens":5055,"ench":5056,"Ġyear":5057,"ĠJava":5058,")*":5059,"MAT":5060,"angular":5061,"atom":5062,"getP":5063,"Ġreal":5064,"por":5065,"bad":5066,"ji":5067,"disabled":5068,"Ġparsed":5069,"ĠResource":5070,"future":5071,"#!":5072,"chunk":5073,"Ġbinary":5074,"getC":5075,"when":5076,"Optional":5077,"Ġvideo":5078,"Ġdescribe":5079,"Year":5080,"ĊĊĊĊ":5081,"anization":5082,"__.":5083,"\"{":5084,"ĠQt":5085,"ookie":5086,"Engine":5087,"loads":5088,"Schedule":5089,"ifications":5090,"gu":5091,"Section":5092,"before":5093,"toEqual":5094,"ital":5095,"Ġcb":5096,"Ġct":5097,"Ġspace":5098,"dig":5099,"Man":5100,"Ġ\"%":5101,"Ġtyping":5102,"Ġsection":5103,"lr":5104,"Agent":5105,"Ġdiff":5106,"ìĿ":5107,"ĠRun":5108,"Headers":5109,"Ġseed":5110,"tile":5111,"(?":5112,"oder":5113,"peat":5114,"RIGHT":5115,"deep":5116,"permission":5117,"Ġthrough":5118,"commons":5119,"åĨ":5120,"Ġreserved":5121,"Ġcap":5122,"rupt":5123,"fe":5124,"Dataset":5125,"Ġassociated":5126,"('../":5127,"Constructor":5128,"LL":5129,"rank":5130,"ĠOpen":5131,"VID":5132,"Amount":5133,"owired":5134,"invalid":5135,"shall":5136,"Ġ`${":5137,"azy":5138,"oth":5139,"pout":5140,"PS":5141,"Ġencoding":5142,"sequence":5143,"Elements":5144,"ral":5145,"Loading":5146,"Ġrest":5147,"\"></":5148,"Ġour":5149,"interface":5150,"Ġsure":5151,"valuate":5152,"Ġmember":5153,"warning":5154,"Ġbtn":5155,"Ġday":5156,"git":5157,"uilt":5158,"Ġvalidation":5159,"Ġaccept":5160,"åĢ":5161,"force":5162,"rece":5163,"Ġnamespace":5164,"ĊĊĊĠĠĠĠĠĠĠ":5165,"Autowired":5166,"ClickListener":5167,"Validator":5168,"Ġthey":5169,"Runtime":5170,"dialog":5171,"é¡":5172,"ĠFound":5173,"plt":5174,"Ġ\"--":5175,"ç§":5176,"icip":5177,"Ġplay":5178,"primary":5179,"Ġkeep":5180,"Ġ-=":5181,"ĠService":5182,"æ³":5183,"addClass":5184,"$(":5185,"ixin":5186,"ĠEd":5187,"PC":5188,"blue":5189,"tection":5190,"Py":5191,"Ġmultiple":5192,"bg":5193,"Ġhigh":5194,"Ġfunctions":5195,"ually":5196,"ensity":5197,"æķ°æį®":5198,"duration":5199,"Ġmigrations":5200,"Ċĉĉĉĉĉĉĉĉĉĉ":5201,"DA":5202,"čĊĉčĊ":5203,"_,":5204,"Ġsupported":5205,"servlet":5206,"Ġactiv":5207,"ĠStringBuilder":5208,"Ġextra":5209,"idual":5210,"yntax":5211,"Ġvm":5212,"izes":5213,"Ġassign":5214,"activity":5215,"iform":5216,"Ġsaved":5217,"accept":5218,"Ġprogress":5219,"ads":5220,"Ġtri":5221,"enabled":5222,"Ġdistance":5223,"Comment":5224,"aker":5225,":\\":5226,"correct":5227,"ĠPython":5228,"Annotation":5229,"ĠTO":5230,"moved":5231,"fx":5232,"uit":5233,"Ġconv":5234,"FIG":5235,"ĊĠĠĊĠ":5236,"ĠUpdate":5237,"Video":5238,"åŃĹ":5239,"DR":5240,"hs":5241,"theme":5242,"Ġbest":5243,"ĠAct":5244,"tegr":5245,"grade":5246,"Java":5247,"eners":5248,":%":5249,"panel":5250,"like":5251,"Ġfree":5252,"DTO":5253,"NS":5254,"canvas":5255,"available":5256,"Ġsimple":5257,"factor":5258,"Us":5259,"azz":5260,"Move":5261,"original":5262,"vector":5263,"chat":5264,"Ġtransaction":5265,"ĠĠĠĠĠĠĠĠĠĠĠĠĠĠ":5266,"concurrent":5267,"Qt":5268,"exist":5269,"prite":5270,"Condition":5271,"elements":5272,"eries":5273,"persistence":5274,"Ġwrapper":5275,"references":5276,"oices":5277,"ĠInc":5278,"Executor":5279,"translate":5280,"atar":5281,"ĠInit":5282,"rf":5283,"reshape":5284,"switch":5285,"href":5286,"Ġallowed":5287,"Validation":5288,"Month":5289,"Common":5290,"help":5291,"unique":5292,"ä¼":5293,"Ġpossible":5294,"ĊĉĠĠĠĠĠĠĠ":5295,"Ġrunning":5296,"Ġworld":5297,"loaded":5298,"lert":5299,"Users":5300,"ilities":5301,"cal":5302,"Ġprimary":5303,"/'":5304,"volume":5305,"Ġ\");":5306,"Ġmodify":5307,"sync":5308,"Ġexport":5309,"ĊĠĠĠĠĠĠĠĠĠĠĠĠĊĠĠĠĠĠĠĠĠĠĠĠ":5310,"ha":5311,"predict":5312,"appendChild":5313,"ural":5314,"tml":5315,"Ġcontrib":5316,"Ġperm":5317,"}\\":5318,"elem":5319,"Ġadmin":5320,"gistration":5321,"Dim":5322,"ĠOut":5323,"Ġalert":5324,"Ñĭ":5325,"čĊčĊč":5326,"Pop":5327,"ç±":5328,"Div":5329,"Mon":5330,"Collect":5331,"ĠProject":5332,"Endpoint":5333,"ĠIllegalArgumentException":5334,"OB":5335,"Timestamp":5336,"andas":5337,"contact":5338,"Children":5339,"Ġsim":5340,"Ġhand":5341,"ĠIter":5342,"å®ļ":5343,"Ġpool":5344,"ulation":5345,"loading":5346,"distance":5347,"helper":5348,"ĠPre":5349,"single":5350,"ho":5351,"chart":5352,"commands":5353,"cm":5354,"leton":5355,"ĠLe":5356,"Ġ'';":5357,"filters":5358,"Play":5359,"extract":5360,"ĠResult":5361,"UUID":5362,"pdf":5363,"VERSION":5364,"Chart":5365,"Ġcompute":5366,"SY":5367,"Duration":5368,"Use":5369,"Book":5370,"Ġdisable":5371,"addEventListener":5372,"XXXX":5373,"Ġscreen":5374,"Ġpeg":5375,"Ġë":5376,"Binary":5377,"simple":5378,"Messages":5379,"city":5380,"Ġexit":5381,"Ġtimestamp":5382,"Ġvector":5383,"person":5384,"Converter":5385,"('-":5386,"language":5387,"LowerCase":5388,"void":5389,"FR":5390,"Org":5391,"Ġpk":5392,"ĠCre":5393,"Ġinstead":5394,"BER":5395,"Edge":5396,".',":5397,"Mouse":5398,"ENTI":5399,"times":5400,"UNT":5401,"Ġbrowser":5402,"Unknown":5403,"Ġevery":5404,"ELD":5405,"illis":5406,"fully":5407,"beans":5408,"Weight":5409,"relation":5410,"ropout":5411,"]).":5412,"Future":5413,"spect":5414,"writer":5415,"ongo":5416,"release":5417,"!--":5418,"apture":5419,"atten":5420,"mac":5421,"Ġhow":5422,"blank":5423,"ĠMethod":5424,"detail":5425,"#!/":5426,"vc":5427,"Ġjoin":5428,"secret":5429,"Ġactions":5430,"agger":5431,"ipe":5432,"proxy":5433,"Router":5434,"è½":5435,"curr":5436,"Ġtheme":5437,"Ġcharacter":5438,"Register":5439,"Constraints":5440,"Space":5441,"andidate":5442,"Ġcorrespon":5443,"sdk":5444,"Ġdirection":5445,"å¸":5446,"ESC":5447,"ickle":5448,"zero":5449,"Ġattrs":5450,"derr":5451,"Person":5452,"dl":5453,"İ·":5454,"cpu":5455,"called":5456,"browser":5457,"assets":5458,"******/":5459,"outputs":5460,"aths":5461,"va":5462,"Character":5463,"ç±»":5464,"since":5465,"FIX":5466,"Pred":5467,"_;":5468,"REQU":5469,"bucket":5470,"scene":5471,"amma":5472,"aper":5473,"staticmethod":5474,"reader":5475,"atis":5476,"fd":5477,"MODULE":5478,"PT":5479,"ĠValid":5480,"ĠButton":5481,"plugins":5482,"rome":5483,"ĠTable":5484,"Ġ----------":5485,"environ":5486,"Ġwr":5487,"Arrays":5488,"acion":5489,"Remove":5490,"localhost":5491,"Normal":5492,"ĠPublic":5493,"Ġprice":5494,"ĊĠĠĠĠĠĠĠĠĠĠĠĠĠĠĠĠĠĠĠĠĠĠĠĠĠĠĠĠĠĠĠĠĠĠĠĠĠĠĠĠĠĠĠĠĠĠĠ":5495,"tokens":5496,"look":5497,"Ġepoch":5498,"cipe":5499,"eeded":5500,"servable":5501,"]*":5502,"locity":5503,"Environment":5504,"clone":5505,"Ġowner":5506,"acters":5507,"condition":5508,"sb":5509,"æģ":5510,"getText":5511,"AV":5512,"cut":5513,"JECT":5514,"ĠThread":5515,"transaction":5516,"'>":5517,"Ġgl":5518,"æĢ":5519,"BUG":5520,"atter":5521,"memory":5522,"åĲį":5523,"Processor":5524,"legate":5525,"Ġwithin":5526,"ãģ®":5527,"Ġdelta":5528,"Save":5529,"dispatch":5530,"Place":5531,"ixels":5532,"elastic":5533,"ializable":5534,"Ġenum":5535,"repository":5536,"Renderer":5537,"await":5538,"Ġvisit":5539,"Ġcons":5540,"jack":5541,"Ġdom":5542,"amaz":5543,"Ġ++":5544,"olved":5545,"EM":5546,":{":5547,"__':":5548,"Cor":5549,"Ġside":5550,"Ġtimes":5551,"Db":5552,"extra":5553,"cook":5554,"nan":5555,"Nav":5556,"invoke":5557,"alf":5558,"('<":5559,"duce":5560,"!=":5561,"ropy":5562,"CODE":5563,"anis":5564,"={'":5565,"Ġduration":5566,"LIST":5567,"Ġfix":5568,"\\\":":5569,"progress":5570,"è¡Į":5571,"Ġagain":5572,"`;":5573,"Resources":5574,"adoop":5575,"Actions":5576,"Strategy":5577,"Ġforward":5578,"havior":5579,"ulp":5580,"Fr":5581,"Ġinitialize":5582,"}'":5583,"]):":5584,"uint":5585,"cost":5586,"sqrt":5587,"Expr":5588,"Big":5589,"ĠAR":5590,"INST":5591,"floor":5592,"æĪĲ":5593,"ĠQuery":5594,"Ġremote":5595,"Program":5596,"ĠBig":5597,"toLowerCase":5598,"è´":5599,"$.":5600,"Ġterm":5601,"ĊĠĠĠĠĠĠĠĠĠĠĠĠĠĠĠĠĠĠĠĠĠĠĠĠĠĠĠĠĠĠ":5602,"constructor":5603,"park":5604,"ĠBuffer":5605,"lev":5606,"cli":5607,"Contract":5608,"Dest":5609,"visible":5610,"Ð´":5611,"ĊĉĠĠĠĠ":5612,"<>(":5613,"Ġcore":5614,"vec":5615,"Shape":5616,"YY":5617,"Ġlib":5618,"bre":5619,"Ġgrad":5620,"pp":5621,"requency":5622,"////////////////////////////////":5623,"****************************************************************":5624,"Ġsa":5625,"fast":5626,"Short":5627,"cuda":5628,"ĠColumn":5629,"Animation":5630,"Ġcanvas":5631,"Ġtheir":5632,"Ġsite":5633,"amazon":5634,"ĠTypeError":5635,"Drop":5636,"while":5637,"kernel":5638,"mi":5639,"ĠNote":5640,"curacy":5641,"Ġmonth":5642,"flags":5643,"STRING":5644,"urls":5645,"verify":5646,"Ġfactory":5647,"precated":5648,"âĸĪ":5649,"aim":5650,"reduce":5651,"OF":5652,"remote":5653,"initialize":5654,"DataFrame":5655,"rules":5656,"Ġotherwise":5657,"Ġstats":5658,"ORY":5659,"æģ¯":5660,"ĠColor":5661,"learn":5662,"Ġuri":5663,"VALID":5664,"ĠCo":5665,"We":5666,"otor":5667,"direction":5668,"Ġpresent":5669,"ĠCommand":5670,"Ġeditor":5671,"Axis":5672,"Ġenable":5673,"Ġsynchron":5674,"READ":5675,"å¾":5676,"ading":5677,"enum":5678,"Flag":5679,"ters":5680,"BUT":5681,"Contact":5682,"vals":5683,"Ġprovider":5684,"USE":5685,"ience":5686,"stdout":5687,"Ġcfg":5688,"Ġhidden":5689,"setAttribute":5690,"Information":5691,"Ġ<<":5692,"compare":5693,"VI":5694,"LETE":5695,"download":5696,"oog":5697,"ients":5698,"Ġcommit":5699,"Ġenvironment":5700,"ĠAction":5701,"Sl":5702,"VICE":5703,"feed":5704,"Operator":5705,"ars":5706,"ENG":5707,"Stop":5708,"Ġdocumentation":5709,"ĠUtil":5710,"ales":5711,"Tags":5712,"ocker":5713,"ourse":5714,"Ġpad":5715,"ĠSets":5716,"Ġthese":5717,"Metrics":5718,"Example":5719,"uffle":5720,"Ġcop":5721,"HERE":5722,"ä¹":5723,"[][]":5724,"rary":5725,"selection":5726,"riterion":5727,"azure":5728,"white":5729,"Tick":5730,"ĠCode":5731,"Ġpatch":5732,"topic":5733,"TRI":5734,"mun":5735,"pet":5736,"/\"":5737,"Operations":5738,"Dto":5739,"training":5740,"ðŁ":5741,"Ġ----------------------------------------------------------------":5742,"Ġendpoint":5743,"ĠDict":5744,"SV":5745,"ĊĊĠĠĠĠĠĠĠĠĠĠĠĠĠĠĠĠĠĠĠĠĠĠĠ":5746,"phone":5747,"Ġnative":5748,"Ġinstall":5749,"oll":5750,"------------":5751,"aries":5752,"Ġinteger":5753,"Ġroute":5754,"ĠCustom":5755,"mult":5756,"colors":5757,"rompt":5758,".\\":5759,"-%":5760,"upper":5761,"Ġstride":5762,"çī":5763,"Ġflex":5764,"Arr":5765,"ĊĠĠĠĠĠĠĠĠĠĠĠĠĠĠĠĠĠĠĠĠĠĠĠĠĠĠĠĠĠĠĠĠĠĠĠĠĠĠĠĠĠĠĠĠĠĠĠĠĠĠĠĠĠĠĠĠĠĠĠĠĠĠĠĠĠĠĠĠ":5766,"Suppress":5767,"ignKey":5768,"Single":5769,"Conv":5770,"Counter":5771,"Ġbeing":5772,"ÑĮ":5773,"åĽŀ":5774,"Direction":5775,"native":5776,"Ġpack":5777,"ĠHe":5778,"padding":5779,"repo":5780,"boxes":5781,"JS":5782,"cancel":5783,"imitive":5784,"ĠPoint":5785,"Import":5786,"IMPORT":5787,"(\\":5788,"Ġcontroller":5789,"ĠOrder":5790,"refresh":5791,"Sample":5792,"best":5793,"MET":5794,"inc":5795,"stmt":5796,"mob":5797,"EqualTo":5798,"endpoint":5799,"LOW":5800,"TextField":5801,"expression":5802,"les":5803,"Ġ[[":5804,"avor":5805,"mk":5806,"gon":5807,"exceptions":5808,"Ġ'')":5809,"Ali":5810,"ĠServer":5811,"ores":5812,"Plan":5813,"AIN":5814,"You":5815,"å·":5816,"čĊĉĉčĊĉ":5817,"ĠFoundation":5818,"Term":5819,"Ġcounter":5820,"innerHTML":5821,"units":5822,"Ġterms":5823,"Ġimplementation":5824,"getType":5825,"icrosoft":5826,"Tile":5827,"Mov":5828,"hex":5829,"İ·åıĸ":5830,"Ġretrie":5831,"icons":5832,"Quest":5833,"Ġseconds":5834,"vol":5835,"pletion":5836,"ĠGroup":5837,"OwnProperty":5838,"ÐµÐ½":5839,"Fn":5840,"emon":5841,"ARY":5842,"uite":5843,"Ġdoesn":5844,"RS":5845,"ĠTem":5846,"Ġdrop":5847,"rive":5848,"ĠCall":5849,"Border":5850,"Bottom":5851,"black":5852,"è¯·":5853,"åľ¨":5854,"Points":5855,"ĠState":5856,"MD":5857,"mbo":5858,"days":5859,"del":5860,"Ġtrigger":5861,"Warnings":5862,"Ã¡":5863,"CLUD":5864,"ĠFl":5865,"constants":5866,"found":5867,"Ġ<!--":5868,"Ġsuch":5869,"STAT":5870,"Ġ[-":5871,"Ġagent":5872,"claration":5873,"ä¿¡":5874,"until":5875,"safe":5876,"Ġchanged":5877,"Ġmissing":5878,"Ġboth":5879,"Cancel":5880,"Ġmon":5881,"atalog":5882,"Ġtokens":5883,"tk":5884,"Ġ~":5885,"åħ¥":5886,"Ġpaths":5887,"Ġdialog":5888,"BPACK":5889,"ae":5890,"Ġ'{":5891,"World":5892,"ĠReg":5893,"Enter":5894,"ĠGets":5895,"threshold":5896,"/***/":5897,"Ġlock":5898,"emit":5899,"udit":5900,"ĠLocal":5901,"mapping":5902,"audio":5903,"getKey":5904,"actual":5905,"Ġ$('.":5906,"Ġident":5907,"Ġdefine":5908,"å¯¹":5909,"Prop":5910,"Ġselection":5911,"ducer":5912,"className":5913,"quires":5914,"strict":5915,"Ġenabled":5916,"processing":5917,"({'":5918,"describe":5919,"aling":5920,"fake":5921,"xs":5922,"Ġdriver":5923,"Binding":5924,"FIELD":5925,"ĠDouble":5926,"cision":5927,"neg":5928,"posite":5929,"install":5930,"Inner":5931,"cogn":5932,"Complete":5933,"mbok":5934,"IZ":5935,"ulate":5936,"Side":5937,"thing":5938,"Promise":5939,"ĠByte":5940,"hi":5941,"vices":5942,"BASE":5943,"ajax":5944,"Gen":5945,"Score":5946,"vg":5947,"/******/":5948,"ĠQu":5949,"Ġ\"{":5950,"Ġcsv":5951,"visit":5952,"sin":5953,"Est":5954,"Debug":5955,"Ġsig":5956,"åĪĨ":5957,"æŃ":5958,"attrs":5959,"hadoop":5960,"REG":5961,"cols":5962,"Ġredirect":5963,"testing":5964,"Ġoutputs":5965,"uggest":5966,"Runner":5967,"Ġincid":5968,"Millis":5969,"wj":5970,"().__":5971,"Ġsetting":5972,"plus":5973,"helpers":5974,"Submit":5975,"align":5976,"Btn":5977,"pages":5978,"}\",":5979,"plotlib":5980,"Ġwidget":5981,"termin":5982,"LINE":5983,"speed":5984,"Ġpolicy":5985,"ĠStat":5986,"Home":5987,"](":5988,"ordinate":5989,"Ġ')":5990,"Ġrate":5991,"operation":5992,"Calendar":5993,"covery":5994,"è§":5995,"WEBPACK":5996,"Resolver":5997,"tasks":5998,"Ġcomput":5999,"basic":6000,"Setting":6001,"ycle":6002,"aug":6003,"servation":6004,"rb":6005,"Ġtile":6006,"rec":6007,"Ġam":6008,"Ł¥":6009,"Driver":6010,"Ġmemory":6011,"ĠtoString":6012,"wik":6013,"ĠDat":6014,"Criteria":6015,"agic":6016,"Language":6017,"ĠGrid":6018,"reply":6019,"pipeline":6020,"Ġchanges":6021,"classmethod":6022,"NING":6023,"ĠLoad":6024,"ATED":6025,"Ġcondition":6026,"shared":6027,"æĪ·":6028,"ĊĉĠĠĠĠĠ":6029,"ĠDB":6030,"Ġsegment":6031,"Ġids":6032,"UND":6033,"Segment":6034,"')[":6035,"(\"<":6036,"ĠNet":6037,"Ġlombok":6038,"CONFIG":6039,":',":6040,"Ġts":6041,"fb":6042,"focus":6043,"extension":6044,"Ġscroll":6045,"codes":6046,"CLUDING":6047,"constant":6048,"startswith":6049,"________":6050,"utation":6051,"BE":6052,"Ġrelative":6053,"dp":6054,")\\":6055,"Styles":6056,"Print":6057,"Ġoperator":6058,"Ġ##":6059,"Ġmapping":6060,"Ġmaximum":6061,"FE":6062,"power":6063,"imator":6064,"period":6065,"Sql":6066,"raises":6067,"delay":6068,"INFO":6069,"()}":6070,"Ġdepth":6071,"Bag":6072,"chor":6073,"omatic":6074,"constraint":6075,"hicle":6076,"Ġmanager":6077,"################################################################":6078,"INTER":6079,"Ġdownload":6080,"Tx":6081,"Ġsince":6082,"COMP":6083,"Authentication":6084,"TEXT":6085,"è¾":6086,"(\"./":6087,"Ġargparse":6088,"jspx":6089,"Linear":6090,"Material":6091,"fp":6092,"ooter":6093,"flush":6094,"IST":6095,"Html":6096,"slot":6097,"Has":6098,"strument":6099,"Series":6100,"Created":6101,"__()":6102,"tempt":6103,"å±":6104,"aging":6105,"valuation":6106,"')),":6107,"astype":6108,"effect":6109,"Ġbottom":6110,"ĠÐ¿":6111,"some":6112,"linear":6113,"uss":6114,"ãģĦ":6115,"ffff":6116,"ANG":6117,"outer":6118,"||":6119,"CCESS":6120,"clus":6121,"ĠIndex":6122,"AUTH":6123,"formed":6124,"scores":6125,"Ġdt":6126,"Ġenter":6127,"ĠExample":6128,"abilities":6129,"poly":6130,"mbed":6131,"ĠjQuery":6132,"resp":6133,"blob":6134,"serve":6135,"small":6136,"æĮ":6137,"Ġforce":6138,"radius":6139,"ĠGeneral":6140,"Bounds":6141,"maps":6142,"Ġĉ":6143,"Ġweights":6144,"flex":6145,"ersist":6146,"Memory":6147,"ĠContext":6148,"ĠPage":6149,"origin":6150,"Activ":6151,"Ġangle":6152,"removeClass":6153,"ĠTask":6154,"Ġloading":6155,"Ġhistory":6156,"Ġrect":6157,"dy":6158,"stock":6159,"Ġiss":6160,"Ġindices":6161,"ç¬":6162,"Ġlower":6163,"Ġpe":6164,"BL":6165,"Send":6166,"article":6167,"subject":6168,"nable":6169,"Focus":6170,"_{":6171,"=%":6172,"Ġwhat":6173,"Ġrs":6174,"ĠElement":6175,"NN":6176,"Ġflow":6177,"Ġactivity":6178,"perature":6179,"ĠIntent":6180,"åŃĺ":6181,"expand":6182,"Theme":6183,"mc":6184,"achment":6185,"Groups":6186,"Ġexecution":6187,"prevent":6188,"defineProperty":6189,"CR":6190,"Ġacc":6191,"Gui":6192,"VO":6193,"Tipo":6194,"II":6195,"uding":6196,"Ġalt":6197,"Ġ[(":6198,"Ty":6199,"cn":6200,"DOM":6201,"Packet":6202,"avg":6203,"'\"":6204,"ndarray":6205,"]}":6206,"ĊĉĉĉĊĉĉ":6207,"Ġmatches":6208,"Ġoperations":6209,"TIVE":6210,"roadcast":6211,"Join":6212,"ĠEntity":6213,"åĢ¼":6214,"wjgl":6215,"Ġdistribution":6216,"åĪ°":6217,"alyt":6218,"dic":6219,"cycl":6220,"abc":6221,"ĠUSE":6222,"Snapshot":6223,"branch":6224,"ç¤":6225,"FIL":6226,"oney":6227,"semb":6228,"åī":6229,"Copy":6230,"slf":6231,"$/":6232,"udy":6233,"Ġzero":6234,"STATE":6235,"IMPORTED":6236,"ĠApi":6237,"except":6238,"percent":6239,"ĠSH":6240,"jet":6241,"avel":6242,"binary":6243,"margin":6244,"ĥ½":6245,"series":6246,"Ġrouter":6247,"SuppressWarnings":6248,"ĠIMP":6249,"Ġanother":6250,"ights":6251,"pipe":6252,"Identity":6253,"acle":6254,"Ġcalculate":6255,"Ġbin":6256,"thrift":6257,"ULAR":6258,"Hand":6259,"Accept":6260,"Ġperiod":6261,"Ġreceived":6262,"][\"":6263,"SL":6264,"Ġidentifier":6265,"variables":6266,"elasticsearch":6267,"mem":6268,"lim":6269,"XY":6270,"Upload":6271,"Touch":6272,"logic":6273,":\",":6274,"Ġmouse":6275,"éĹ´":6276,"peated":6277,"schedule":6278,"hot":6279,"Ġcontact":6280,"ĠCreated":6281,"ison":6282,"Ġlibrary":6283,"Consumer":6284,"Ġchain":6285,"Ġgroups":6286,"Ġmetric":6287,"tol":6288,"bounds":6289,"=\\":6290,"segment":6291,"hing":6292,"Ġteam":6293,"jav":6294,"ilar":6295,"Dig":6296,"ĠBe":6297,"ClassName":6298,"NU":6299,"Ġplaceholder":6300,"Ġplatform":6301,"(\",":6302,"selector":6303,"Ġfit":6304,"obile":6305,"Ġensure":6306,"decor":6307,"parseInt":6308,"Ġseq":6309,"({\"":6310,"ula":6311,"forward":6312,"Ġneg":6313,"çĤ":6314,"NotFoundException":6315,"AGES":6316,"Ġtopic":6317,"Word":6318,"ĠDocument":6319,"seg":6320,"uest":6321,"obs":6322,"ational":6323,"Tuple":6324,"ven":6325,"Ġentries":6326,"dumps":6327,"Ġreason":6328,"Ġ\"@":6329,"ĊĠĠĠĠĠĠĠĠĊĠĠĠ":6330,"edges":6331,"Power":6332,"ĠBuild":6333,"åı¯":6334,"MenuItem":6335,"resize":6336,"Columns":6337,"thenReturn":6338,"Ġtick":6339,"star":6340,"Ġcould":6341,"Ġ{}\".":6342,"Collections":6343,"Visibility":6344,"Ġmetrics":6345,"vs":6346,"fil":6347,"ĠLine":6348,"IF":6349,"incip":6350,"Bus":6351,"Chain":6352,"destroy":6353,"Ġappend":6354,"Ip":6355,"pin":6356,"urch":6357,"Zone":6358,"ferences":6359,"ĠExec":6360,"ĠStr":6361,"Ġdecode":6362,"Depend":6363,"jackson":6364,"Timer":6365,"mid":6366,"ada":6367,"Slot":6368,"classList":6369,"Ġround":6370,"Ġ($":6371,"Ġuuid":6372,"watch":6373,"NESS":6374,"Ġvol":6375,"åĬł":6376,"ĠSE":6377,"entities":6378,"getUser":6379,"free":6380,"rip":6381,"Ġintent":6382,"¦ģ":6383,"Ġder":6384,"bias":6385,"Ret":6386,"ĠOutput":6387,"Ġresources":6388,"===":6389,"ĠonChange":6390,"Center":6391,"Formatter":6392,"verbose":6393,"Implemented":6394,"================================================================":6395,"cour":6396,"Ġdig":6397,"Basic":6398,"pd":6399,"EMP":6400,"Ġloaded":6401,"Inject":6402,".'":6403,"dump":6404,"(\"-":6405,"POSE":6406,"resses":6407,"updated":6408,"COMM":6409,"ometh":6410,"Ġprediction":6411,"COUNT":6412,"Ġserial":6413,"dbc":6414,"uet":6415,"Namespace":6416,"ESSAGE":6417,"bc":6418,"Ġcurr":6419,"yaml":6420,"LOCK":6421,"Present":6422,"Ġtrace":6423,"è®¾":6424,"ĠVector":6425,"otes":6426,"Ġarea":6427,"ummy":6428,"GroupLayout":6429,"ĠWhen":6430,"note":6431,"Ġwords":6432,"ands":6433,"omething":6434,"awn":6435,"Ġok":6436,"Ġunittest":6437,"green":6438,"|;":6439,"ements":6440,"ĠGraph":6441,"ĠToken":6442,"Ġrecovered":6443,"Public":6444,"Ġmedia":6445,"Ġlang":6446,"Errors":6447,"relu":6448,"Ġalways":6449,"çĲ":6450,"ĠPO":6451,"Ġreverse":6452,"isode":6453,"æĸ°":6454,"Ġupload":6455,"Opt":6456,"ja":6457,"OLDER":6458,"START":6459,"pid":6460,"ĊĠĠĠĠĠĠĠĠĠĠĠĠĠĠĠĠĠĠĠĠĠĠĠĠĠĠĠĠĠĠĠĠĠĠ":6461,"Ġbook":6462,"ĠMIT":6463,"voice":6464,"Ġhasattr":6465,"pat":6466,"LY":6467,"lour":6468,"ks":6469,"di":6470,"Rot":6471,"Ġrules":6472,"Ġduring":6473,"Remote":6474,"Rows":6475,"Ġdeaths":6476,"hook":6477,"kind":6478,"ti":6479,"Ġnested":6480,"Ġneeded":6481,"Ġvolume":6482,"regex":6483,"ĠLIM":6484,"Sm":6485,"Ġ_,":6486,"aving":6487,"getProperty":6488,"ForeignKey":6489,"ĠparseInt":6490,"escape":6491,"WI":6492,"å¹":6493,"isc":6494,"Raises":6495,"çĤ¹":6496,"Ġcar":6497,"Accessor":6498,"Ġway":6499,"ĠLIMIT":6500,"Cursor":6501,"Ġincidents":6502,"weet":6503,"Static":6504,"isher":6505,"Ġds":6506,"repr":6507,"uman":6508,"Raw":6509,"ç¤º":6510,"velop":6511,")\"":6512,"vocation":6513,"CLASS":6514,"getDefault":6515,"General":6516,"é¢":6517,"ĠMain":6518,"identity":6519,"Ġcn":6520,"Ġincluded":6521,"adline":6522,"REQUEST":6523,"Ġwould":6524,"most":6525,"rpc":6526,"Ġcomponents":6527,"ĠXML":6528,"aN":6529,"ĠDesc":6530,"methods":6531,"ACTION":6532,"Ġ\"../":6533,"oday":6534,"RECT":6535,"slide":6536,"ico":6537,"|(":6538,"Ġcomplete":6539,"ĠWork":6540,"Ġproxy":6541,"Vertex":6542,"ĠMet":6543,"ĠSearch":6544,"ÑģÑĤ":6545,"Ġflags":6546,"redirect":6547,"ality":6548,"Ġfoo":6549,"asList":6550,"Volume":6551,"ĠAttribute":6552,"Ġfeed":6553,"Ġdes":6554,"vance":6555,"ĠCl":6556,"Ġdisabled":6557,"Ġ];":6558,"country":6559,"Ġloader":6560,"æŀľ":6561,"sr":6562,"Span":6563,"Ð¿":6564,"Angle":6565,"Ġrepository":6566,"Fixed":6567,"Ġ\"\")":6568,"Owner":6569,"__\":":6570,"Ġengine":6571,"Ġeval":6572,"lookup":6573,"Ġnotification":6574,">',":6575,"getAttribute":6576,"MAP":6577,"reet":6578,"faster":6579,"etter":6580,"ĠĠĠĠĠĠĠĠĠĠĠĠĠĠĠĠĠĠĠ":6581,"Ġcommands":6582,"matches":6583,"utors":6584,"library":6585,"æĸ¹":6586,"den":6587,"(**":6588,"ĠCreates":6589,"ĠuserId":6590,"ĠBUT":6591,"LOAD":6592,"usic":6593,"Allow":6594,"Ġpredict":6595,"iones":6596,"Ġinterval":6597,"Failure":6598,"feat":6599,"backend":6600,"ĠRuntimeException":6601,"jax":6602,"ategor":6603,"choice":6604,"alias":6605,"Ġdefinition":6606,"çĲĨ":6607,"ĠBE":6608,"ATOR":6609,"bus":6610,"åĪĹ":6611,"ĠWHERE":6612,"erc":6613,"notations":6614,"dims":6615,"Img":6616,"energy":6617,"DEBUG":6618,"pear":6619,"æ±":6620,"åįķ":6621,"assertRaises":6622,"čĊčĊĠĠĠĠĠĠĠĠĠĠĠ":6623,"Ġstrings":6624,"Ġcompare":6625,"setter":6626,"ĠOUT":6627,"pay":6628,"Ġprotocol":6629,"Topic":6630,"Expected":6631,"íķ":6632,"au":6633,"ĠMod":6634,"deg":6635,"=\"/":6636,"MIT":6637,"ratio":6638,"Ġorigin":6639,"Ġcalcul":6640,"wr":6641,"initions":6642,"Gu":6643,"ond":6644,"SA":6645,"bul":6646,"ĠConstant":6647,"bn":6648,"preventDefault":6649,"Ġocc":6650,"literal":6651,"Ġremoved":6652,"IB":6653,"Mask":6654,"ãģĹ":6655,"hashCode":6656,"ivers":6657,"\\.":6658,"Ġgetattr":6659,"Switch":6660,"Sheet":6661,"optim":6662,"Ġlayers":6663,"Ġdestination":6664,"archive":6665,"Ġpandas":6666,"program":6667,"hist":6668,"incipal":6669,"Ġthreshold":6670,"kt":6671,"mesh":6672,"Ġ))":6673,"UTF":6674,"getTime":6675,"Ġ])":6676,"Native":6677,"ĊĊĊĠ":6678,"Speed":6679,"functions":6680,"CHANT":6681,"umeric":6682,"elli":6683,"Arch":6684,"Ġlow":6685,"Ġhy":6686,"forms":6687,"Ġmd":6688,"Standard":6689,"frames":6690,"aption":6691,"è¿Ķ":6692,"uplicate":6693,"Ġnote":6694,"OnClickListener":6695,"LIED":6696,"userId":6697,"heel":6698,"Relation":6699,"tim":6700,"cycler":6701,"'{":6702,"React":6703,"WORD":6704,"Alert":6705,"configure":6706,"ä¿¡æģ¯":6707,"MT":6708,"URPOSE":6709,"getItem":6710,"Locale":6711,"Car":6712,"clip":6713,"TextView":6714,"unknown":6715,"Ġspecify":6716,"Diff":6717,"Ġnorm":6718,"åĩº":6719,"rupted":6720,"geo":6721,"INSTANCE":6722,"ĠCO":6723,"Ġeffect":6724,"Light":6725,"ä¸ĭ":6726,"tle":6727,"ĠMER":6728,"bum":6729,"BY":6730,"notification":6731,"assertFalse":6732,"Ġ^":6733,"ĠsetUp":6734,"ITNESS":6735,"]])":6736,"ifies":6737,"links":6738,"Ġ}));":6739,"cnt":6740,"ĠuseState":6741,"LObject":6742,"asy":6743,"fasterxml":6744,"ves":6745,"FER":6746,"Ġ>>":6747,"Ã£":6748,"saved":6749,"Ġstatement":6750,"arding":6751,"ĠAuto":6752,"sep":6753,"Ġcolors":6754,"blocks":6755,"IGHT":6756,"Chunk":6757,"includes":6758,"Period":6759,"Ġrelated":6760,"Ġbucket":6761,"ĠMedia":6762,"ĠON":6763,"that":6764,"čĊĉĉĉĉĉĉ":6765,"calc":6766,"Ġfilters":6767,"PH":6768,"Ġsol":6769,"Ġmatplotlib":6770,"ĠFI":6771,"ble":6772,"ĠPARTIC":6773,"Align":6774,"Ġexc":6775,"gui":6776,"Dom":6777,"ĠSup":6778,"Ne":6779,"Ġdelay":6780,"Ġnumbers":6781,"Canvas":6782,"adapter":6783,"`);":6784,"Ġgoogle":6785,"Ġsubprocess":6786,"High":6787,"KEN":6788,"DIS":6789,"Ġroom":6790,"ĠTree":6791,"ILED":6792,"Missing":6793,"Ġstyles":6794,"çº":6795,"éĿ":6796,"+=":6797,"Ġgenerator":6798,"cert":6799,"strong":6800,"changed":6801,"Ġinner":6802,"ĠLay":6803,"Available":6804,"ĠCOP":6805,"Ġviews":6806,"edList":6807,"mediate":6808,"ENGTH":6809,"ĠPURPOSE":6810,"balance":6811,"utdown":6812,"Ġdependencies":6813,"Summary":6814,"atest":6815,"Direct":6816,"lette":6817,"Extra":6818,"Distance":6819,"Ġ%(":6820,"Ġve":6821,"CHANTABILITY":6822,"Ñĩ":6823,"ĠsetTimeout":6824,"Ġselector":6825,"Real":6826,"ife":6827,"Ġanswer":6828,"ĠNew":6829,"FileName":6830,"afka":6831,"Ġcost":6832,"Mer":6833,"Ġblank":6834,"Team":6835,"Export":6836,"imated":6837,"entries":6838,"Ġpipeline":6839,"cup":6840,"catalog":6841,"anaged":6842,"Ġbranch":6843,"ĠPARTICULAR":6844,"Ġradius":6845,"apes":6846,"={\"":6847,"ToString":6848,"ä¾":6849,"structure":6850,"Exists":6851,"ĠChar":6852,"Fetch":6853,"ĊĠĠĠĠĠĠĠĠĠĠĠĠĠĠĠĠĠĠĠĠĠĠĠĠĠĠĠĠĠĠĠĠĠĠĠĠĠ":6854,"Ġwx":6855,"ublished":6856,"Radius":6857,"tc":6858,"Ġcontents":6859,"Ġmaterial":6860,"Drag":6861,"rtype":6862,"Classes":6863,"Ġcharacters":6864,"HttpServlet":6865,"clo":6866,"åĲ¦":6867,"ĠIP":6868,"åİ":6869,")])":6870,"Ġsens":6871,"!\");":6872,"Ġps":6873,"InstanceState":6874,"BED":6875,"Ġspeed":6876,"jup":6877,"ĠCOPY":6878,"encoder":6879,"signed":6880,"ĠImport":6881,"Ġsynchronized":6882,"graphics":6883,"getData":6884,"Ġcr":6885,"have":6886,"Exist":6887,"Drawable":6888,"ming":6889,"Ġeven":6890,"foot":6891,"SUCCESS":6892,"->":6893,"Wait":6894,"Ġfa":6895,"Ġcause":6896,"Blockly":6897,"čĊčĊĠ":6898,"\"><":6899,"/%":6900,"So":6901,"AMP":6902,"timer":6903,"uting":6904,"Dispatch":6905,"Ġleg":6906,"Widgets":6907,"enario":6908,"ĠOb":6909,"overage":6910,"čĊĠĠĠĠĠĠĠĠĠĠĠĠĠĠĠĠĠĠĠĠĠĠĠĠĠĠĠ":6911,"Signature":6912,"Ġdimension":6913,"ĠProcess":6914,"Ġdescriptor":6915,"AST":6916,"Enable":6917,"sect":6918,"Texture":6919,"ByteString":6920,"Ġgu":6921,"ĠMERCHANTABILITY":6922,"Ġaudio":6923,"łģ":6924,"Ġoptim":6925,"Feed":6926,"identifier":6927,".</":6928,"Ġdeclare":6929,"ĠSource":6930,"Chat":6931,"JsonProperty":6932,"\"\\":6933,"GRO":6934,"}'.":6935,"pus":6936,"orn":6937,"Ġjs":6938,"usters":6939,"enchmark":6940,"front":6941,"Ġfire":6942,"čĊĠĠĠĠčĊĠĠĠ":6943,"ership":6944,"FLAG":6945,"company":6946,"ikari":6947,"Ġ'[":6948,"share":6949,"ĠStart":6950,"ç®":6951,"(\"--":6952,"Contents":6953,"è¦ģ":6954,"Ġcalls":6955,"ĠRead":6956,"ĠWH":6957,"ä¸Ĭ":6958,"Note":6959,"imulation":6960,"riend":6961,"ĠDAM":6962,"MB":6963,"robot":6964,"Ġabsolute":6965,"stage":6966,"integr":6967,"STATUS":6968,"camera":6969,"sess":6970,"Mixin":6971,"Ġtake":6972,"Ġchart":6973,"Ġhelper":6974,"jQuery":6975,"zen":6976,"logs":6977,"freq":6978,"pan":6979,"exc":6980,"ooth":6981,"DESC":6982,":.":6983,"writ":6984,"peg":6985,"Ġkind":6986,"sBy":6987,"Ġinstances":6988,"reverse":6989,"latest":6990,"inherit":6991,"Any":6992,"credentials":6993,"ih":6994,"Ġdeployment":6995,"Transition":6996,"Ġvia":6997,"Ġ-------":6998,"()]":6999,"Ġboard":7000,"pound":7001,"ectors":7002,"currency":7003,"inject":7004,"Ġsamples":7005,"ĠFITNESS":7006,"ORE":7007,"hasOwnProperty":7008,"endor":7009,"refs":7010,"ĠSpec":7011,"demo":7012,"quee":7013,"ÑĢÐ°":7014,"LOC":7015,".<":7016,"ĠIMPLIED":7017,"Ġdst":7018,"Len":7019,"Ġconstraint":7020,"Lat":7021,"}\".":7022,"bootstrap":7023,"lon":7024,"Ġatom":7025,"CLI":7026,"Ġdeleted":7027,"gers":7028,"ãĥ¼":7029,"spe":7030,"\"][":7031,"sorted":7032,"Ġmodules":7033,"è¿ĶåĽŀ":7034,"DEF":7035,"éĶ":7036,"Look":7037,"Ġbounds":7038,"quential":7039,"ãĢģ":7040,"Conn":7041,"GN":7042,"slug":7043,"Ġneeds":7044,"âĸĪâĸĪ":7045,"Ġbelow":7046,"previous":7047,"anded":7048,"-.":7049,"ĠLIMITED":7050,"Ġseries":7051,"ura":7052,"Ġmany":7053,")+":7054,"two":7055,"åīį":7056,"ashboard":7057,"uetooth":7058,"ãĤĵ":7059,"ares":7060,"Head":7061,"ublisher":7062,"square":7063,"listener":7064,"guild":7065,"Ġspan":7066,"ascript":7067,"Ġdec":7068,"prediction":7069,"ĠApplication":7070,"alytics":7071,"Arguments":7072,"inator":7073,"isEqualTo":7074,"Many":7075,"Ġstored":7076,"arrow":7077,"AIL":7078,"defaults":7079,"rm":7080,"Stage":7081,"DataType":7082,"Room":7083,"ĠEVENT":7084,"CD":7085,"ĊĊĉĉĉĉ":7086,"|)":7087,"Ġpacket":7088,"Ġhome":7089,"urchase":7090,"cam":7091,"asis":7092,"TOKEN":7093,"PointerException":7094,"'re":7095,">\",":7096,"Ġoptimizer":7097,"arange":7098,"Ġstates":7099,"Ġoverride":7100,"Trigger":7101,"Ġcollect":7102,"ĠInvalid":7103,"MESSAGE":7104,"big":7105,"ampling":7106,"Ġcancel":7107,"Ġrepo":7108,"Ġparts":7109,"=_":7110,"iece":7111,"cart":7112,"tp":7113,"LENGTH":7114,"åĲİ":7115,"([\"":7116,"virtual":7117,"External":7118,"URCE":7119,"Phone":7120,"registry":7121,"Ġrelease":7122,"ĠProperty":7123,"Ġcopies":7124,"Ã§":7125,"contents":7126,"çĶ¨æĪ·":7127,"ĠRandom":7128,"eric":7129,"ĠArrays":7130,"Ġsummary":7131,"asset":7132,"Ġschedule":7133,"Split":7134,"EMA":7135,"Ġcamera":7136,"[]{":7137,"parts":7138,"ĠSw":7139,"ĠĊĠĠĠĠĠĠĠĠĠĠĠĠĠĠĠ":7140,"iance":7141,"Temp":7142,"Usage":7143,"Observer":7144,"Ġtasks":7145,"ea":7146,"roker":7147,"Ã£o":7148,"ĊĠĠĠĠĉ":7149,"Please":7150,"ulo":7151,"(\"[":7152,"ĠStream":7153,"Ð¾Ð²":7154,"Combo":7155,"........":7156,"ĠConfiguration":7157,"gregate":7158,"Ġcollections":7159,"Ġpromise":7160,"coords":7161,"scan":7162,"VIDED":7163,"ough":7164,"Ġmoment":7165,"Ġstandard":7166,"drawable":7167,"bean":7168,"Ġcurrently":7169,"fixture":7170,"Audio":7171,"Ġmost":7172,"Ġhar":7173,"velopment":7174,"amel":7175,"HEAD":7176,"ster":7177,"Ð·":7178,"Ġfragment":7179,"illi":7180,"renderer":7181,"nio":7182,"same":7183,"Ġsignal":7184,"tty":7185,"posed":7186,"Ġlon":7187,"sel":7188,"members":7189,"Ġunits":7190,"apps":7191,"ĠStatus":7192,"ĠTuple":7193,"Ġfake":7194,"nr":7195,"hello":7196,"æİ¥":7197,"stit":7198,"Scene":7199,"ĠPer":7200,"inu":7201,"å¼ı":7202,"DEX":7203,"wards":7204,"Payload":7205,"ĠMake":7206,"PRESS":7207,"Ġms":7208,"ĠSec":7209,"Ġpublish":7210,"INGS":7211,"/${":7212,"Encoder":7213,"ĠDO":7214,"'];":7215,"missing":7216,"geometry":7217,"æ³ķ":7218,"ĠCOPYRIGHT":7219,"drag":7220,"ino":7221,"ONG":7222,"Embed":7223,"Ġlater":7224,"åŀ":7225,"&&":7226,"vl":7227,"Ġmeasure":7228,"notify":7229,"maining":7230,"ĠSto":7231,"ĠLOGGER":7232,"è·":7233,"ĠArg":7234,"Camera":7235,"REE":7236,"æłĩ":7237,"Ġaff":7238,"UST":7239,"åĬ¡":7240,"Ġfactor":7241,"Subject":7242,"licit":7243,"amage":7244,"ident":7245,"Ġmult":7246,"ĠHTML":7247,"bi":7248,"Spring":7249,"[(":7250,"ĠGNU":7251,"ĠHel":7252,"ĠÐ²":7253,"ina":7254,"Ġtesting":7255,"¦Ĥ":7256,"ogram":7257,"Ġwin":7258,"Ent":7259,"ipy":7260,"ĠNotImplemented":7261,"unct":7262,"ĠExp":7263,"Initial":7264,"Throw":7265,"Ġrelation":7266,"findViewById":7267,"Ġrefresh":7268,"once":7269,"Ġcorresponding":7270,"Authorization":7271,"Ġstyled":7272,"Ġ'+":7273,"ĠBl":7274,"otype":7275,"Ġ(-":7276,"åıĤ":7277,"çłģ":7278,"icture":7279,"jupiter":7280,"ongoose":7281,"SM":7282,"ĠLabel":7283,"Idx":7284,"Ġsubmit":7285,"ables":7286,"Generic":7287,"Cloud":7288,"Ġcredentials":7289,"Ġvariant":7290,"sf":7291,"pic":7292,"Ġsyn":7293,"ĠDec":7294,"ĠDet":7295,"sym":7296,"Ġmarker":7297,"cho":7298,"anted":7299,"æĸĩä»¶":7300,"}',":7301,"Ġpoly":7302,"Lines":7303,"ĠUnion":7304,"Preferences":7305,"Ġonce":7306,"PARAM":7307,"Ġ{}'.":7308,"Ġnone":7309,"ERS":7310,"Delay":7311,"Ġred":7312,"subscribe":7313,"analysis":7314,"ĠUI":7315,"Metric":7316,"Ġsteps":7317,"Paths":7318,"ĠMeta":7319,"Ġabs":7320,"trl":7321,"Ġindic":7322,"javax":7323,"ircuit":7324,"external":7325,"ĠFilter":7326,"stub":7327,"}`);":7328,"}')":7329,"running":7330,"Asset":7331,"VM":7332,"Ø§":7333,"++++":7334,"Ġsync":7335,"upt":7336,"Ġshared":7337,"Middleware":7338,"Upper":7339,"Ġconstruct":7340,"ĠGame":7341,"che":7342,"HOST":7343,"Ġrank":7344,"flat":7345,"Ġgre":7346,"Ġbg":7347,"tl":7348,"gulp":7349,"ota":7350,"Insert":7351,"Ġquestion":7352,"prepare":7353,"Components":7354,"Mar":7355,"cookie":7356,"flater":7357,"Ġpartition":7358,"OO":7359,"Ġupper":7360,"descriptor":7361,"ROOT":7362,"optimizer":7363,"Analysis":7364,"ĊĠĠĠĠĠĠĠĠĠĠĠĠĠĠĠĠĠĠĠĠĠĠĠĠĠĠĠĠĠĠĠĠĠĠĠĠĠĠ":7365,"goog":7366,"pn":7367,"signal":7368,"Ġcss":7369,"åŀĭ":7370,"Hello":7371,"Ġpercent":7372,"Warning":7373,"Ġlicenses":7374,"AF":7375,"Browser":7376,"ĠPost":7377,"FFFF":7378,"Ve":7379,"Measure":7380,"mploy":7381,"reject":7382,"proc":7383,"ĠAnd":7384,"Pass":7385,"WT":7386,"éĻ¤":7387,"umbn":7388,"syn":7389,"jb":7390,"',['":7391,"ali":7392,"Ġcity":7393,"Ġ{})":7394,"WR":7395,"setValue":7396,"]/":7397,"RequestMapping":7398,"express":7399,":-":7400,"coming":7401,"tre":7402,"Ġalgorithm":7403,"Press":7404,"placeholder":7405,"confirm":7406,"operations":7407,"mu":7408,"ç¼":7409,"Ġlin":7410,"Encoding":7411,"queeze":7412,"Ġtw":7413,"Ġmodified":7414,"NON":7415,"ople":7416,"Ġsignature":7417,"Ġevt":7418,"prox":7419,"Ġwrap":7420,"Ġcoordinates":7421,"Ġdid":7422,"experiment":7423,"ëĭ":7424,"istribution":7425,"Ġmeans":7426,"ĠLIABILITY":7427,"ryption":7428,"Refresh":7429,"worker":7430,"week":7431,"Ġeslint":7432,"Ġpush":7433,"aves":7434,"sun":7435,"ĠId":7436,"php":7437,"NUMBER":7438,"Platform":7439,"Ġdefaults":7440,"ARCH":7441,"FAILED":7442,"BagConstraints":7443,"encoding":7444,"customer":7445,"Transfer":7446,">()":7447,"StringUtils":7448,"Ġedges":7449,">)":7450,"ãģĻ":7451,"counts":7452,"Transport":7453,"TRIBUT":7454,"snapshot":7455,"Atom":7456,"æµ":7457,"Board":7458,"getter":7459,"EntityManager":7460,"Ġ\"[":7461,"åĽ¾":7462,"Ġui":7463,"ĠGe":7464,"Ġstructure":7465,"Ġrequires":7466,"ĠDrop":7467,"stderr":7468,"parison":7469,"LD":7470,"redit":7471,"viders":7472,"Ġincluding":7473,"ECTION":7474,"enant":7475,"Ġsecret":7476,"ãĤĭ":7477,"Ġannotation":7478,"striction":7479,"More":7480,"plain":7481,"ĠLIC":7482,"Assign":7483,"Geometry":7484,"NODE":7485,"Ġsnapshot":7486,"pub":7487,"Find":7488,"Ġpanel":7489,"PP":7490,"=[\"":7491,"TC":7492,"Primary":7493,"ä»¥":7494,"Ġrecords":7495,"under":7496,"ampler":7497,"Ġunknown":7498,"èĥ½":7499,"Ã³":7500,"Ġfuture":7501,"connected":7502,"circle":7503,"Ġslot":7504,"ĠUN":7505,"Ġrepresentation":7506,"ĠNOTI":7507,"('_":7508,"pology":7509,"ĠCollections":7510,"-----":7511,"(',":7512,"Ġ(!(":7513,"enticated":7514,"projects":7515,"WIT":7516,"TS":7517,"diag":7518,"umul":7519,"relative":7520,"Customer":7521,"pow":7522,"(\"\");":7523,"ç«":7524,"ĠNull":7525,"legend":7526,"fixed":7527,"čĊĠĠĠĠĠĠĠĠĠĠĠĠĠ":7528,"çİ":7529,"abstract":7530,"ceed":7531,"DELETE":7532,"ellij":7533,"lg":7534,"Bad":7535,"TRACT":7536,"ĠContent":7537,"Boot":7538,"BR":7539,"Ġnamed":7540,"Cart":7541,"ASK":7542,"aaaa":7543,"Req":7544,"ifference":7545,"ĠConnection":7546,"Begin":7547,"Alignment":7548,"Ġuntil":7549,"ĠÑģ":7550,"requires":7551,"SUB":7552,"icipant":7553,"sa":7554,"ĠURI":7555,"Credentials":7556,"acer":7557,"ä¸Ģä¸ª":7558,"Ġtargets":7559,"Ġseg":7560,">/":7561,"Secret":7562,"Ġsmall":7563,"Kind":7564,"Ġpermit":7565,"orth":7566,"sid":7567,"ament":7568,"Ġoc":7569,"axes":7570,"gregation":7571,"æĭ":7572,"ĠextensionRegistry":7573,"ĊĠĠĠĠĠĠĊĠĠĠĠĠ":7574,"Ġque":7575,"Inf":7576,"charAt":7577,"templates":7578,"dn":7579,"Username":7580,"Ġvisible":7581,"Ġusage":7582,"Ġ'</":7583,"unded":7584,"Ġpol":7585,"Picker":7586,"shop":7587,"examples":7588,"Ġlocale":7589,"Ġturn":7590,"ĠDescri":7591,"Ġpygame":7592,"aven":7593,"ĠfindViewById":7594,"intellij":7595,"Ġol":7596,"packages":7597,"ĠProduct":7598,"Ġ###":7599,"\"]:":7600,"fname":7601,"Ġindent":7602,"IA":7603,"Returns":7604,"lyph":7605,"TF":7606,"Called":7607,"addAll":7608,"å§":7609,"')).":7610,"*(":7611,"Labels":7612,"requests":7613,"PU":7614,"Ġsepar":7615,")'":7616,"BEDS":7617,"ĠPart":7618,"Ġruntime":7619,"appings":7620,"Ġface":7621,"getCurrent":7622,"mg":7623,"Site":7624,"Ġiterator":7625,"unittest":7626,"ĠSelect":7627,"CESS":7628,"Ġnullable":7629,"Ġinside":7630,"DataSource":7631,"Ġshift":7632,"Ġcal":7633,"runner":7634,"('%":7635,"Push":7636,"ï¿":7637,"Prob":7638,"mag":7639,"ados":7640,"ĠTensor":7641,"bd":7642,"targets":7643,"spy":7644,"Ġbad":7645,"å»":7646,"Ġissue":7647,"ilation":7648,"bf":7649,")],":7650,"EE":7651,"æı":7652,"Ġfast":7653,"Ġconstant":7654,"Poly":7655,"Methods":7656,"reason":7657,"}]":7658,"house":7659,"erved":7660,"getM":7661,"=='":7662,"theta":7663,"\")).":7664,"ĠLICENSE":7665,"ĠCor":7666,"Payment":7667,"orph":7668,"vince":7669,"PTION":7670,"Two":7671,"')},":7672,"Bucket":7673,"band":7674,"BACK":7675,"Ġequ":7676,"ilon":7677,"sur":7678,"Ġuses":7679,"atsby":7680,"Ġbundle":7681,"Ġexternal":7682,"ĠConvert":7683,"Times":7684,">`":7685,"oring":7686,"Ġclone":7687,"land":7688,"getContext":7689,"cha":7690,"ocial":7691,"interop":7692,"ĊĠĠĠĠĠĠĠĠĠĠĠĠĠĠĠĠĠĠĠĠĠĠĠĠĠĠĠĠĠĠĠĠĠĠĠĠĠĠĠĠĠ":7693,"============":7694,"ceptor":7695,"distrib":7696,"Ġtimer":7697,"ĠĊĉĉ":7698,"Factor":7699,"ĠObjects":7700,"Ġcached":7701,"ĠSchema":7702,"Question":7703,"arp":7704,"inder":7705,"scriber":7706,"RGB":7707,"ãĤĴ":7708,"ĠfileName":7709,"uniform":7710,"Ġ:,":7711,"Ġeps":7712,"zoom":7713,"Ġfixed":7714,"currentTime":7715,"gpu":7716,"ĠFloat":7717,"\\'":7718,"transition":7719,"records":7720,"ĠMulti":7721,"LU":7722,"babel":7723,"Ġanimation":7724,"declare":7725,"Ġexclude":7726,"mul":7727,"transport":7728,"xff":7729,"ĊĠĠĠĠĠĠĠĠĠĠĠĠĠĠĠĠĠĠĠĠĠĠĠĠĠĠĠĠĠĠĠĠĠĠĠĠĠĠĠĠĠĠĠĠĠĠĠĠĠĠĠ":7730,"Ġsender":7731,"Ġyet":7732,"++){":7733,"ini":7734,"parsed":7735,"Ġalias":7736,"Ġcontributor":7737,"PA":7738,"Stub":7739,"ĠFind":7740,"touch":7741,"cesses":7742,"Ġexpr":7743,"idence":7744,"Ġgood":7745,"anchor":7746,"Ġadapter":7747,"~~~~~~~~":7748,"Ġmatching":7749,"FS":7750,"evt":7751,"åĳ":7752,"Artifact":7753,"filepath":7754,"locale":7755,"ĠArgument":7756,"YPE":7757,"------------------------------------------------":7758,"Answ":7759,"PASS":7760,"Ġ'$":7761,"Tri":7762,"ĠGoogle":7763,"GeneratedMessage":7764,"measure":7765,"ĠImmutable":7766,"marshall":7767,"Ġownership":7768,"({},":7769,"getInt":7770,"cessary":7771,"ializers":7772,"ĠAlex":7773,"clared":7774,"Rules":7775,"marker":7776,"Flags":7777,"figure":7778,"ysql":7779,"ĠLanguage":7780,"olute":7781,"compat":7782,"Ġactivation":7783,"dep":7784,"gi":7785,"Percent":7786,"Ġtoggle":7787,"ĠPh":7788,"Ġcc":7789,"Services":7790,"Balance":7791,"Ġconstants":7792,"Ġregarding":7793,"PREFIX":7794,"Extract":7795,"Ġrgb":7796,"squeeze":7797,"swagger":7798,"Ġleast":7799,"icient":7800,"lict":7801,"isArray":7802,"Matcher":7803,"des":7804,"Ġsolution":7805,"âķĲ":7806,"}{":7807,"Should":7808,"ĠJSONObject":7809,"Fix":7810,"Toggle":7811,"middleware":7812,"Ġbias":7813,"failed":7814,"contract":7815,"Peer":7816,"ĠModule":7817,"ĠNOTICE":7818,">=":7819,"Ġsn":7820,"ENV":7821,"fh":7822,"publish":7823,"ĠNotImplementedError":7824,"Checked":7825,"Ġstarting":7826,"Ġrequested":7827,"[:-":7828,"Ġautomatic":7829,"Ġcomb":7830,"Bitmap":7831,"rase":7832,"Ġtoo":7833,"Ġhide":7834,"Ġstage":7835,"ĠRemove":7836,"ĠDatabase":7837,"Ġli":7838,"Ġwere":7839,"è®¾ç½®":7840,"ierarch":7841,"attach":7842,"ä½ľ":7843,";\\":7844,"calls":7845,"BC":7846,"bundle":7847,"TIT":7848,"mony":7849,"Mult":7850,"Detalle":7851,"utter":7852,"Getter":7853,"OrBuilder":7854,"tegration":7855,"ĠParse":7856,"çŃ":7857,"]=":7858,"_)":7859,"slider":7860,"sha":7861,"Partition":7862,"anger":7863,"named":7864,"UPDATE":7865,"Ġtim":7866,"illed":7867,"ana":7868,"absolute":7869,"Ġhex":7870,"Writ":7871,"Ġlight":7872,"grpc":7873,"mobile":7874,"referred":7875,"ï¿½":7876,"sheet":7877,"bt":7878,"CUP":7879,"Family":7880,"Have":7881,":,":7882,"alleng":7883,"Ġpower":7884,"ua":7885,"quote":7886,"mak":7887,"Shared":7888,"startsWith":7889,"comb":7890,"Ġpickle":7891,"inite":7892,"åı·":7893,"ĠCard":7894,"Ġphone":7895,"instances":7896,"sender":7897,"vocab":7898,"etic":7899,"NA":7900,"Ġnormalize":7901,"dashboard":7902,"Inv":7903,"assertThat":7904,"animation":7905,"serializer":7906,"ĠDelete":7907,"ç»ĵ":7908,"It":7909,"ĠSign":7910,"æĹ¶éĹ´":7911,"course":7912,"Marker":7913,"Ġmed":7914,"ĠComp":7915,"reng":7916,"åº¦":7917,")){":7918,"Management":7919,"Ġrec":7920,"%(":7921,"FC":7922,"ili":7923,"letion":7924,"irror":7925,"Pa":7926,"ä½į":7927,"rep":7928,"ĠSk":7929,"mn":7930,"ĠBit":7931,"ĠRef":7932,"Ġdep":7933,"Ġforms":7934,"å½ķ":7935,"EY":7936,"`)":7937,"conditions":7938,"processor":7939,"Exit":7940,"mooth":7941,"Unique":7942,"Äĥ":7943,"ipher":7944,"æŁ¥":7945,"integer":7946,"Ġscan":7947,"Tim":7948,"Ġserialize":7949,"Ġequals":7950,"versions":7951,"Ġchecked":7952,"Ġ{!":7953,"dao":7954,"VIS":7955,"^^":7956,"é¡µ":7957,"Ġaxios":7958,"ĠEm":7959,"Ġglob":7960,"complex":7961,"ĠSession":7962,"Ġworker":7963,"tures":7964,"Ġpag":7965,"############":7966,"quant":7967,"coin":7968,"strategy":7969,"ARD":7970,"RC":7971,"Ġcountry":7972,"('[":7973,"rum":7974,"ientation":7975,"cons":7976,"Library":7977,"une":7978,"Ġtransition":7979,"Ġpa":7980,"contain":7981,"routes":7982,"Private":7983,"}:":7984,"Seconds":7985,"ĠUnit":7986,"$('#":7987,"Mat":7988,"mockito":7989,"ĠSQLException":7990,"å»º":7991,"Ġdot":7992,"datasets":7993,"ala":7994,"Initialized":7995,"zure":7996,"ĠåĪ":7997,"Ġfore":7998,"ĠAtom":7999,"ĠPermission":8000,"Ġblocks":8001,"ION":8002,"å¿":8003,"TABLE":8004,"ICAg":8005,"Ġsets":8006,"Pack":8007,"è±":8008,"ĠVer":8009,"monitor":8010,"zon":8011,"Ġproblem":8012,"Popup":8013,"Ġsklearn":8014,"oper":8015,")?":8016,"cyclerView":8017,"rength":8018,"packet":8019,"Ġcert":8020,"jac":8021,"Ċĉĉĉĉĉĉĉĉĉ":8022,"SECON":8023,"MetaData":8024,"BB":8025,"Ġast":8026,"NodeId":8027,"Med":8028,"illa":8029,"kn":8030,"umbnail":8031,"Ġagreements":8032,"iol":8033,"COLOR":8034,"Ctrl":8035,"={()":8036,"Go":8037,"Ġunicode":8038,"ĠAuthor":8039,"DAO":8040,"environment":8041,"vn":8042,"ador":8043,"Named":8044,"Ġmaster":8045,"deploy":8046,"\")[":8047,"ĠassertFalse":8048,"prod":8049,"Ġsage":8050,"Ġwarnings":8051,"ĠBack":8052,"dark":8053,"ç»Ħ":8054,"åĿ":8055,"kw":8056,"-+":8057,"mix":8058,"Ġexecutor":8059,"repeat":8060,"ysical":8061,"Filters":8062,"Ġtensorflow":8063,"dst":8064,"categories":8065,"ruptedException":8066,"aload":8067,"ĠhashCode":8068,"ĊĠĠĠĠĠĠĠĠĠĠĠĠĠĠĠĠĠĠĠĠĠĠĠĠĠĠĠĠĠĠĠĠĠĠĠĠĠĠĠĠ":8069,"nom":8070,"MODEL":8071,"CUR":8072,"Monitor":8073,"agraph":8074,"gray":8075,"tv":8076,"execution":8077,"Ġmem":8078,"Ġavoid":8079,"Ġcalling":8080,"ĠJob":8081,"ĠRES":8082,"trained":8083,"åĬ¨":8084,"Ġchoose":8085,"Ġbs":8086,"las":8087,"Ð¹":8088,"Ġdecimal":8089,"Ġpi":8090,"ival":8091,"checkpoint":8092,"ĠDATA":8093,"Tools":8094,"Permissions":8095,"åıĤæķ°":8096,"coord":8097,"Ġarticle":8098,"ĠWARRANTY":8099,"Commit":8100,"SERVER":8101,"Visitor":8102,"ĠNetwork":8103,"ively":8104,"æ±Ĥ":8105,"],[":8106,"hover":8107,"Ġvec":8108,")-":8109,"iper":8110,"Ġmade":8111,"Ġsell":8112,"stone":8113,"partition":8114,"pared":8115,"Ġdeadline":8116,"Ġscene":8117,"Cookie":8118,"los":8119,"Ġ\";":8120,"Ġplan":8121,"è±¡":8122,"signature":8123,"Ġdays":8124,"åıĳ":8125,"family":8126,"Ġbasic":8127,"Ġregex":8128,"Download":8129,"Super":8130,"Ui":8131,"Ġasset":8132,"Ġplease":8133,"Rep":8134,"OFF":8135,"cross":8136,"ĠWindow":8137,"esModule":8138,"Worker":8139,"Ġflask":8140,"za":8141,"ĠRest":8142,"Ġbackend":8143,"Iss":8144,"//*":8145,"ARG":8146,"FORMAT":8147,"issue":8148,"blog":8149,"ĠExt":8150,"<<":8151,"'})":8152,"TT":8153,"TEMP":8154,"Ġknow":8155,"crease":8156,"Ġda":8157,"ÃŃ":8158,"jobs":8159,"Ġminimum":8160,"antic":8161,"airport":8162,"roles":8163,"Ġsec":8164,"Wallet":8165,"lapse":8166,"Ġexact":8167,"/:":8168,"Collectors":8169,"ĠVariable":8170,"gg":8171,"brid":8172,"Ġsin":8173,"dropout":8174,"Ġé":8175,"Ġfailure":8176,"=\"#":8177,"Ġ{...":8178,"Ġgot":8179,"Convert":8180,"EVENT":8181,"Instruction":8182,"bold":8183,"sd":8184,"standard":8185,"Ġstill":8186,"versation":8187,"Norm":8188,"dividual":8189,"FORM":8190,"ij":8191,"Ġhold":8192,"isRequired":8193,"extends":8194,"veloper":8195,"CompParser":8196,"æľ¬":8197,"Ġ\"\");":8198,"setting":8199,"Decor":8200,"Ġstdout":8201,"Include":8202,"related":8203,"ĠHOLDER":8204,"phase":8205,"Ġcustomer":8206,"hasNext":8207,"ssl":8208,"bon":8209,"promise":8210,"Ġaverage":8211,"Ġtxt":8212,"normalize":8213,"definition":8214,"NAM":8215,"Ġden":8216,"sem":8217,"WISE":8218,"interopRequire":8219,"ĠÐ½":8220,"iet":8221,"pri":8222,"Literal":8223,"usage":8224,"CREATE":8225,"Loop":8226,"Loaded":8227,"Branch":8228,"SERVICE":8229,"NE":8230,"Ġstub":8231,">\");":8232,"ĠCan":8233,"ung":8234,"CHAN":8235,"Hex":8236,"Ġoper":8237,"ĠĠĠĠĠĠĠĠĠĠĠĠĠĠĠĠĠĠĠĠ":8238,"ĠGET":8239,"follow":8240,"dto":8241,"Subscription":8242,"irth":8243,"ĠAss":8244,"mut":8245,"eded":8246,"Ġsecurity":8247,"listen":8248,"Ġpat":8249,"Fire":8250,"Criterion":8251,"utc":8252,"Done":8253,"ĠĠĠĠĠĠĠĠĠĠĠĠĠĠĠĠĠĠĠĠĠĠĠĠĠĠĠĠĠĠĠĠĠĠĠĠĠĠĠĠĠĠĠĠĠĠĠĠĠĠĠĠĠĠĠĠĠĠĠĠĠĠĠĠ":8254,"ETHER":8255,"Ġep":8256,"ĠSubLObject":8257,"']),":8258,"ferred":8259,"ĠUUID":8260,"within":8261,"ê°":8262,"cycle":8263,"Ġkeyword":8264,"presentation":8265,"Ratio":8266,"design":8267,"inx":8268,"tail":8269,"Mo":8270,"iso":8271,"RA":8272,"Ġmid":8273,"scriptions":8274,"moment":8275,"mapper":8276,"Ġplugins":8277,"aring":8278,"Paint":8279,"Ġdeep":8280,"Ġspecial":8281,"destination":8282,"ptr":8283,"([[":8284,"Disabled":8285,"hostname":8286,"nx":8287,"EP":8288,"neighb":8289,"DU":8290,"Ġ*=":8291,"ĠTHIS":8292,"Hook":8293,"ĠEnum":8294,"Ġ':":8295,"picker":8296,"celer":8297,"extensions":8298,"SK":8299,"StateException":8300,"}).":8301,"Other":8302,"urations":8303,"Sets":8304,"override":8305,"Cmd":8306,"Ġthrown":8307,"cwd":8308,"lst":8309,"pause":8310,"arc":8311,"raise":8312,"rozen":8313,"subplot":8314,"shadow":8315,"uses":8316,"obot":8317,"mkdir":8318,"payment":8319,"Gap":8320,"ĠonChanged":8321,"Ġprocessing":8322,"åĵ":8323,"pkg":8324,"ĠINCLUDING":8325,"good":8326,"usion":8327,"reflect":8328,"ynchronous":8329,"æ¯":8330,"NECTION":8331,"Ġscores":8332,"ĠGenerated":8333,"character":8334,"Performed":8335,"Ġharmony":8336,"Ġalong":8337,"validator":8338,"ĠGL":8339,"UMN":8340,"stroke":8341,"exclude":8342,"ĠPROVIDED":8343,"brains":8344,"cached":8345,"\"/>":8346,"mq":8347,"Ġcs":8348,"Final":8349,"ĠDOM":8350,"itation":8351,".)":8352,"Ġreply":8353,"aking":8354,"ĠassertNotNull":8355,"Dev":8356,"Alias":8357,"Absolute":8358,"æĹ¥":8359,"inger":8360,"Supported":8361,"ĠWhy":8362,"Ġcalc":8363,"Ok":8364,"ussian":8365,"flatten":8366,"mx":8367,"ARK":8368,"ĠRel":8369,"bbox":8370,"elif":8371,"ĠSHALL":8372,"hour":8373,"Ġlinks":8374,"Ġlookup":8375,"Scheme":8376,"å§ĭ":8377,"Ġclip":8378,"yes":8379,"Origin":8380,"ĠDep":8381,"ĠOnly":8382,"ĠPlayer":8383,"ĠMAX":8384,"åĻ":8385,"TIM":8386,"ĠHashSet":8387,"ĠVAL":8388,"uzz":8389,"ï¼ī":8390,"Ġprepare":8391,"Ġhist":8392,"Windows":8393,"Dynamic":8394,"æ¬":8395,"Ġoprot":8396,"ä½¿":8397,"Ġimplemented":8398,"alloc":8399,"ners":8400,"aily":8401,"ç´":8402,"Running":8403,"ridge":8404,"ĠBuffered":8405,"pixel":8406,"Ġetc":8407,"redux":8408,"Nonnull":8409,"Ġsuffix":8410,"HOD":8411,"ĠBY":8412,"Ġserializer":8413,"ograph":8414,"MAIN":8415,"modified":8416,"containsKey":8417,"TRAN":8418,"ĠDAMAGES":8419,"Predicate":8420,"Ġpt":8421,"Serialized":8422,"ĠWhether":8423,"Connector":8424,"Ġcases":8425,"Constantes":8426,"Assignment":8427,"DateFormat":8428,"ĠToast":8429,"orig":8430,"=\"\"":8431,"Ġhapp":8432,"Keyword":8433,"Ġ$(\".":8434,"Cannot":8435,"Same":8436,"ĠPlease":8437,"cluded":8438,"unce":8439,"permissions":8440,"eras":8441,"aming":8442,"Depth":8443,"ĊĉĉĠĠĠ":8444,"Leg":8445,"luc":8446,"ï¼Ī":8447,"Cost":8448,"termine":8449,"Could":8450,"Ġretry":8451,"Regex":8452,"DC":8453,"Ġless":8454,">:":8455,"ĠEXPRESS":8456,"åĻ¨":8457,"Ġfp":8458,"cursive":8459,"WID":8460,"Ġqual":8461,"Ġuseful":8462,"iam":8463,"ISING":8464,"ĠCommon":8465,"Dimension":8466,"uber":8467,"ĠProperties":8468,"nost":8469,"vertex":8470,"third":8471,"Confirm":8472,"ĠPrint":8473,"LEFT":8474,"(`${":8475,"']))":8476,"åĮº":8477,"Fact":8478,"INDEX":8479,"Entries":8480,"compiler":8481,"Algorithm":8482,"Ter":8483,"Ġwritten":8484,"Tasks":8485,"Mockito":8486,"('../../":8487,"POINT":8488,"pointer":8489,"perform":8490,"Ġeq":8491,"ĠOperation":8492,"------":8493,"PROPER":8494,"logo":8495,"rypto":8496,"ĠCONTRACT":8497,"tri":8498,"subscription":8499,"alo":8500,"NaN":8501,"OperationException":8502,"inline":8503,"TERN":8504,"éĢļ":8505,">';":8506,"evaluate":8507,"Ġjavafx":8508,"ĠAlexa":8509,"}`,":8510,"urable":8511,"SUP":8512,"ENTER":8513,"tech":8514,"Country":8515,"ĠKEY":8516,"æľĢ":8517,"ĉĉĉĉĉĉĉĉ":8518,"Ġchoices":8519,"ellow":8520,"questions":8521,"Ġregistry":8522,"Prev":8523,"ĠFL":8524,"xl":8525,"éĿ¢":8526,"management":8527,"peer":8528,"(((":8529,"Ġgit":8530,"Watch":8531,"fol":8532,"mployee":8533,"Fac":8534,"kg":8535,"redis":8536,"checkbox":8537,"epochs":8538,"Ġvertex":8539,"Machine":8540,"WORK":8541,"âĶĢâĶĢâĶĢâĶĢ":8542,"Ġxs":8543,"ĠLIABLE":8544,"éĩı":8545,"ĠSty":8546,"partment":8547,"ancer":8548,"GROUP":8549,"Ġpixel":8550,"ç¨":8551,"FilePath":8552,"åħ³":8553,"hl":8554,"pograph":8555,"ħį":8556,"health":8557,"disk":8558,"è¿ĩ":8559,"rd":8560,"apis":8561,"rv":8562,"Ġconfirm":8563,"Ġnothing":8564,"tm":8565,"nc":8566,"Sim":8567,"ĴĮ":8568,"hemas":8569,"ball":8570,"Ġinvok":8571,"crete":8572,"sigma":8573,"gov":8574,"ÐµÑĢ":8575,"CF":8576,"æĬ":8577,"oy":8578,"Ð±":8579,"iration":8580,"Ġpylint":8581,"rotation":8582,"Ġretrieve":8583,"Ġpartial":8584,"bid":8585,"VersionUID":8586,"Images":8587,"ĠARISING":8588,"ĠĊĠ":8589,"umes":8590,"LAY":8591,"Ġpo":8592,"ftime":8593,"comments":8594,"facebook":8595,"Actual":8596,"ĠCriteria":8597,"CAS":8598,"ever":8599,"atial":8600,"MIS":8601,"ĠOS":8602,"Listeners":8603,"atory":8604,"Ġ\"</":8605,"suffix":8606,"glob":8607,"ivo":8608,"åĮĸ":8609,"pf":8610,"udo":8611,"Serializable":8612,"Pay":8613,"quences":8614,"ãģĨ":8615,"Ġencoder":8616,"asm":8617,"__[\"":8618,"ication":8619,"ĠBigDecimal":8620,"Ġ=================================================================":8621,"keras":8622,"Ġinf":8623,"Declaration":8624,"Updated":8625,"ç¬¦":8626,"Ġfocus":8627,"Ġnb":8628,"Release":8629,"Virtual":8630,"Ġpixels":8631,"ĠAccount":8632,"ĠWHETHER":8633,"wall":8634,"more":8635,"clusive":8636,"Plot":8637,"cii":8638,"å¤§":8639,"IgnoreCase":8640,"\\\",":8641,"ĠConstruct":8642,"Ġedu":8643,"Ġ\":":8644,"Sensor":8645,"Ġsleep":8646,"interfaces":8647,"SING":8648,"SPE":8649,"transpose":8650,"randint":8651,"ĠTEST":8652,"ployee":8653,"\"})":8654,"Ġwell":8655,"èĩ":8656,"!\")":8657,"Than":8658,"vim":8659,"handlers":8660,"learning":8661,"Ġcat":8662,"lists":8663,"gatsby":8664,"grees":8665,"abspath":8666,"Replace":8667,"erred":8668,"Ġidentity":8669,"PES":8670,"Variables":8671,"SED":8672,"encoded":8673,"Week":8674,"Ġnums":8675,"ADD":8676,"ifec":8677,"Throwable":8678,"Ġpkg":8679,"FUN":8680,"rient":8681,"Ġconfigure":8682,"Blocks":8683,"ComboBox":8684,"Hub":8685,"ampa":8686,"ikariConfig":8687,"equ":8688,"Ġsuccessfully":8689,"ĠBasic":8690,"Ġpara":8691,"keyword":8692,"Ġholder":8693,"_%":8694,"Fill":8695,"Ġmembers":8696,"ÐµÑĤ":8697,"upo":8698,"perm":8699,"andidates":8700,"ONT":8701,"wb":8702,"vertical":8703,"ido":8704,"ĠserialVersionUID":8705,"Ġjustify":8706,"RUN":8707,"GroupName":8708,"Ġpur":8709,"gateway":8710,"************************************************************************":8711,"States":8712,"NULL":8713,"pography":8714,"çĶŁ":8715,"ĠNULL":8716,"Ġchannels":8717,"Ġbeta":8718,"rivile":8719,"cards":8720,"elist":8721,"footer":8722,"Clear":8723,"Ġ'{}":8724,"Ġshutil":8725,"dings":8726,"oost":8727,"Ġdrag":8728,"ĠOTHERWISE":8729,"PLAY":8730,"ctrl":8731,"()):":8732,"Ġdeal":8733,"eder":8734,"chool":8735,"aunch":8736,"alyzer":8737,"unused":8738,"äºİ":8739,"olicies":8740,"Links":8741,"Ġuid":8742,"ifecycle":8743,"??":8744,"Illegal":8745,"æīĢ":8746,"iny":8747,"ante":8748,"Certificate":8749,"]{":8750,"apsed":8751,"iles":8752,"NONE":8753,"sources":8754,"Master":8755,"variant":8756,"Article":8757,"Ġgt":8758,"Ġtranslate":8759,"ĠRedistribution":8760,"Slide":8761,"enate":8762,"ĠTORT":8763,"Ġexpand":8764,"plies":8765,"bitField":8766,"Descriptors":8767,"Lib":8768,"ny":8769,"partial":8770,"Ġum":8771,"Padding":8772,"Ġpages":8773,"Ġrobot":8774,"MAN":8775,"vlet":8776,"Coord":8777,"âķĲâķĲ":8778,"Zoom":8779,"FAIL":8780,"intent":8781,"Ġ[])":8782,"Ġfiltered":8783,"ĠMark":8784,"Ġlr":8785,"joint":8786,"oauth":8787,"åĲĪ":8788,"workflow":8789,"tables":8790,"Mount":8791,"irs":8792,"ills":8793,"Ġsheet":8794,"asing":8795,"allery":8796,".');":8797,"Ġandroidx":8798,"Ġneighb":8799,"Ġnegative":8800,"Ġ'/'":8801,"When":8802,"ĠAUTH":8803,"Ġcontract":8804,"Ġcreating":8805,"Lite":8806,"posal":8807,"cording":8808,"puted":8809,"Codec":8810,"mazon":8811,"ORDER":8812,"CM":8813,"ĠSET":8814,"ãģĭ":8815,":[":8816,"ãģŁ":8817,"Ġautomatically":8818,"Sequential":8819,"UTE":8820,"pending":8821,"onto":8822,"Ġrand":8823,"ICT":8824,"anism":8825,"\")));":8826,"PRI":8827,"Swing":8828,"cipient":8829,"ĠAccess":8830,"ĠLayout":8831,"Ġauthentication":8832,"duced":8833,"Ġweek":8834,"ĠAg":8835,"scripts":8836,"ASF":8837,"Grad":8838,"Gateway":8839,"ĠReserved":8840,"Colors":8841,"IGN":8842,"fragment":8843,"wallet":8844,"rotate":8845,"assertIs":8846,"ByName":8847,"Ġartifact":8848,"MED":8849,"è®¤":8850,"Lookup":8851,"ĊĠĠĠĠĠĠĠĠĠĠĠĠĠĠĠĠĠĠĠĠĠĠĠĠĠĠĠĠĠĠĠĠĠĠĠĠĠĠĠĠĠĠ":8852,"ised":8853,"Creator":8854,"Ġstroke":8855,",),":8856,",)":8857,"ĠIs":8858,"DAT":8859,"Ġer":8860,"DOWN":8861,"]-":8862,"ByteArray":8863,"uv":8864,"]',":8865,"onical":8866,"èµ":8867,"ename":8868,"lision":8869,"aur":8870,"Preview":8871,"&#":8872,"ĠASF":8873,"Ġ{}\",":8874,"ĠCH":8875,"Immutable":8876,"fac":8877,"Ġcast":8878,"Ġconnected":8879,"Ġprior":8880,"Ġdirectly":8881,"ValueError":8882,"fold":8883,"ĠOther":8884,"Threshold":8885,"è¯¢":8886,"Answer":8887,"Ġdynamic":8888,"scheduler":8889,"Ġdy":8890,"inventory":8891,"ĠÐº":8892,"istr":8893,"Ready":8894,"getAll":8895,"ĠMO":8896,"CSS":8897,"Ġslice":8898,"abric":8899,"processed":8900,"lenium":8901,"Horizontal":8902,"addComponent":8903,"Ġnotify":8904,"continue":8905,"Ġdetail":8906,"Ġwrong":8907,"Ġèİ·åıĸ":8908,"isco":8909,"atype":8910,"$(\"#":8911,"illing":8912,"ards":8913,"Ġfinish":8914,"dynamic":8915,"hest":8916,"Reset":8917,"commun":8918,"LC":8919,"ADDR":8920,"ĠMax":8921,"getStatus":8922,"odb":8923,"Mesh":8924,"Ð¾Ð»":8925,"mes":8926,"ITS":8927,"mr":8928,"ĠĠĠĠĠĠĠĠĠĠĠĠĠĠĠĠĠ":8929,"Blank":8930,"ampaign":8931,"ica":8932,"Redirect":8933,"Repo":8934,"Ġcross":8935,"transl":8936,"Ġurllib":8937,"tar":8938,"Ġencoded":8939,"Ġzone":8940,"Loss":8941,"reward":8942,"ĠĠĠĠĠĠĠĠĠĊ":8943,"ĠRights":8944,"lems":8945,"scalar":8946,"Sec":8947,"stere":8948,"student":8949,"Ġvalidator":8950,"Indicator":8951,"GeneratedMessageV":8952,"è¯·æ±Ĥ":8953,"Ġpeer":8954,"çĽ®":8955,"BT":8956,"ama":8957,"tor":8958,"ä½¿çĶ¨":8959,"pot":8960,"xr":8961,"CONF":8962,"crypted":8963,"restore":8964,"Ġservices":8965,"devices":8966,"Pipeline":8967,"Ġrespon":8968,"èĢ":8969,"Requests":8970,"bp":8971,"JSONObject":8972,"opacity":8973,"Supplier":8974,"LICATION":8975,"Face":8976,"oi":8977,"Migration":8978,"BA":8979,"Days":8980,"miss":8981,"ĠHOLDERS":8982,"Prototype":8983,"ĠQtWidgets":8984,"WH":8985,"ris":8986,"Matchers":8987,"Structure":8988,"iving":8989,"tooltip":8990,"ICAgICAg":8991,"'^":8992,"Ġlinear":8993,"Ġdiag":8994,"Ġ:]":8995,"Reason":8996,"ĠdefaultValue":8997,"Members":8998,"bits":8999,"Ġmesh":9000,"amazonaws":9001,"vt":9002,"(\"../":9003,"ABEL":9004,"PY":9005,"Ġ\"/\"":9006,"using":9007,"čĊčĊĉĉ":9008,"Ġ\"'\",":9009,"workspace":9010,"Ã¤":9011,"average":9012,"LET":9013,"CLIENT":9014,"Ġignored":9015,"']);":9016,"ocab":9017,"ierarchy":9018,"Ġcharge":9019,"avatar":9020,"OTAL":9021,"Ġrepresenting":9022,"rx":9023,"Oper":9024,"ĠSymbol":9025,"Ð°Ð½":9026,"Ġ{{":9027,"Ġproper":9028,"Choice":9029,"Ġmemo":9030,"Ġ\"(":9031,"fcs":9032,"DT":9033,"[\\":9034,"ham":9035,"UserId":9036,"Ġadjust":9037,"embedding":9038,"ring":9039,"Ġregistered":9040,"Pe":9041,"ĠMon":9042,"Ġmight":9043,"dimension":9044,"Ġrenderer":9045,"HttpServletRequest":9046,"preview":9047,"deserialize":9048,"Ġwatch":9049,"Ġcent":9050,"å¯¹è±¡":9051,"Ġdecor":9052,"pick":9053,"Ġbig":9054,"Ġdx":9055,"Ġbbox":9056,"ĠACTION":9057,"Scan":9058,"getResource":9059,"Ġdesired":9060,",\\":9061,"quantity":9062,"ira":9063,"currentTimeMillis":9064,"peak":9065,"Ġcompleted":9066,"Ġpositive":9067,"Ġage":9068,"Features":9069,"ĠUnsupported":9070,"Ġrestriction":9071,"ĠWITH":9072,"Delta":9073,"noise":9074,"Ġbuilt":9075,"Coverage":9076,"SERT":9077,"ĠHandle":9078,"phere":9079,"Ġiprot":9080,"NET":9081,"Ġapplied":9082,"failure":9083,"Ġblob":9084,"ulk":9085,"crop":9086,"transfer":9087,"Ġorig":9088,"gres":9089,"igu":9090,"hat":9091,"ĠčĊ":9092,"Acc":9093,"avigator":9094,")')":9095,"Break":9096,"limiter":9097,"ENCE":9098,"Ġaxes":9099,"eep":9100,"}/{":9101,"MSG":9102,"ĠonCreate":9103,"need":9104,"Records":9105,"ukkit":9106,"statement":9107,"Ġmodal":9108,"Ġbinding":9109,"indent":9110,"Ġcover":9111,"wx":9112,"sensor":9113,"Without":9114,"senter":9115,"decoder":9116,"about":9117,"parametri":9118,"Ġbean":9119,"bone":9120,"GG":9121,"ASH":9122,"Modified":9123,"Ġchat":9124,"regular":9125,"SCH":9126,"sizes":9127,"cla":9128,"preter":9129,"ĠLocation":9130,"allenge":9131,"ensors":9132,"manifest":9133,"Rpc":9134,"Ġ!!":9135,"strftime":9136,"Ġentities":9137,"ouch":9138,"DIRECT":9139,"ĠTextView":9140,"oh":9141,"Ġcloud":9142,"LEMENT":9143,"Instances":9144,"added":9145,"Ġtra":9146,"ç±»åŀĭ":9147,"Ġpackages":9148,"æ¨":9149,"quot":9150,"lik":9151,"Ġthose":9152,"Ġworking":9153,"shell":9154,"Ġstrategy":9155,"Sender":9156,"ora":9157,"Ġws":9158,"Ġshell":9159,"HR":9160,"qdm":9161,"èİ·åıĸ":9162,"éħį":9163,"ãģ«":9164,"Ġpick":9165,"ĠMenu":9166,"ĠInternal":9167,"initializer":9168,"Help":9169,"åĬŁ":9170,"Ġslide":9171,"aps":9172,"Android":9173,"products":9174,"å®ŀ":9175,"Ms":9176,"Ġtk":9177,"Ġcreation":9178,"CLO":9179,"tz":9180,"crim":9181,"xpath":9182,"Ġevaluate":9183,"positions":9184,"Ġshare":9185,"Ġconsider":9186,"vanced":9187,"INVALID":9188,"Ġratio":9189,"getB":9190,"\")),":9191,"crypto":9192,"-+-+":9193,"OW":9194,"ľĢ":9195,"ĊĠĠĠĠĠĠĠĠĠĠĠĠĠĠĠĠĠĠĠĠĠĠĠĠĠĠĠĠĠĠĠĠĠĠĠĠĠĠĠĠĠĠĠĠ":9196,"ĠParameter":9197,"urity":9198,"aler":9199,"Ġcookie":9200,"Ġupdates":9201,"Ġphase":9202,"propTypes":9203,"Primitive":9204,"Ġsafe":9205,"Ġxy":9206,"á»":9207,"Filename":9208,"Assertions":9209,"horizontal":9210,"wave":9211,"coordinates":9212,"ĠPerson":9213,"Ġrotation":9214,"interopRequireDefault":9215,"COR":9216,"ç©":9217,"gm":9218,"calculate":9219,"geom":9220,"fade":9221,"sentence":9222,">}":9223,"Ġsym":9224,"Shadow":9225,"strings":9226,"itect":9227,"Ġ\"*":9228,"Ġsigma":9229,"repeated":9230,"VEL":9231,"igo":9232,"setVisibility":9233,"(\"'\"":9234,"splice":9235,"ĠConstants":9236,"ĠCache":9237,"ĠgetName":9238,"Ġns":9239,"Seq":9240,"iq":9241,"è·¯":9242,"reload":9243,"Receiver":9244,"WIDTH":9245,"workers":9246,"çĻ":9247,"rev":9248,"Like":9249,"walk":9250,"ĠTag":9251,"ensure":9252,"Ġzoom":9253,"ingleton":9254,"Ġlatest":9255,"VAR":9256,"jar":9257,"Ġ\").":9258,"Ġnecessary":9259,"ĠSte":9260,"wiki":9261,"Ġ\"../../":9262,"ĠRout":9263,"paces":9264,"=>{":9265,"/*!":9266,"IntegerField":9267,"Ġmac":9268,"BLOCK":9269,"parametrize":9270,"MI":9271,"Navigation":9272,"tax":9273,"ĠTransaction":9274,"sound":9275,"ĠConstructor":9276,"Src":9277,"Ġsur":9278,"Ġanalysis":9279,"GO":9280,"ĠĊĠĠĠĠĠ":9281,"%%":9282,"Sys":9283,"tabs":9284,"ĠFree":9285,"å°ı":9286,"Ġexperiment":9287,"getBytes":9288,"setName":9289,"metry":9290,"Ġshall":9291,"('@":9292,"cryption":9293,"ĠIterator":9294,"bat":9295,"existing":9296,"\\\">":9297,"Ġlwjgl":9298,"Ġdisk":9299,"multiple":9300,"Ġdetermine":9301,"Ġinject":9302,"ĠNe":9303,"fileName":9304,"ĠSettings":9305,"åĴĮ":9306,"Inventory":9307,"Such":9308,"toHave":9309,"ardware":9310,"ĠIO":9311,"decay":9312,"equalsIgnoreCase":9313,"bank":9314,"Share":9315,"Err":9316,"UES":9317,"éĢī":9318,"construct":9319,"usd":9320,"ĠfontSize":9321,"prove":9322,"Ġcompat":9323,"ä¾ĭ":9324,"Deployment":9325,"LP":9326,"ĠGenerator":9327,"gz":9328,"rating":9329,"toArray":9330,"łéĻ¤":9331,"]\",":9332,"Ġcos":9333,"deleted":9334,"ĠAsync":9335,"Alpha":9336,"andbox":9337,"}),":9338,"ĠAddress":9339,"Ġ'*":9340,"fmt":9341,"Received":9342,"separator":9343,"Ġvirtual":9344,"ĠÐ¸":9345,"Ġlists":9346,"Mac":9347,"Ġdimensions":9348,"Ġscipy":9349,"Unable":9350,"notes":9351,"åĨħ":9352,"Circle":9353,"Rank":9354,"ĠSER":9355,"å¼Ģ":9356,"enticate":9357,"CONTENT":9358,"Hint":9359,"ĠHttpResponse":9360,"distribution":9361,"Python":9362,"photo":9363,"ially":9364,"ooser":9365,"ĠÐ´":9366,"inct":9367,"ĠInputStream":9368,"Overlay":9369,"Slider":9370,"Reducer":9371,"Lang":9372,"Zero":9373,"activate":9374,"esis":9375,"Ġwarning":9376,"ylabel":9377,"xFF":9378,"getField":9379,"stride":9380,"äº¤":9381,"mous":9382,"Ġ\"$":9383,"Setup":9384,"ades":9385,"insertSchedule":9386,"openapi":9387,"Uuid":9388,"Vo":9389,"Ġextend":9390,"čĊĉĉĉčĊĉĉ":9391,"ipt":9392,"finish":9393,"Ġinvoke":9394,"Ġsomething":9395,"Sn":9396,"ĠPattern":9397,"Ġlearning":9398,"ECK":9399,"Footer":9400,"Ġprocessed":9401,"ĠdeploymentEntityManager":9402,"plor":9403,"ipart":9404,"isValid":9405,"Ġstarted":9406,"ĠFLAG":9407,"ĠIllegalStateException":9408,"Radio":9409,"TODO":9410,"Ġ}]":9411,"tras":9412,"ä¼ļ":9413,"uages":9414,"Ident":9415,"tele":9416,"Ġanchor":9417,"TEGER":9418,"ĠbackgroundColor":9419,"$',":9420,"dater":9421,"Âł":9422,"Ġdue":9423,"vinc":9424,"bins":9425,"Emit":9426,"ĠEnd":9427,"Sent":9428,"Ġcart":9429,"ĠâĢ":9430,"sph":9431,"Ġarrays":9432,"Define":9433,"war":9434,"retry":9435,"Ð°ÑĤ":9436,"čĊĠĠĠĠĠĠĠĠčĊĠĠĠĠĠĠĠ":9437,"Js":9438,"Inflater":9439,"flux":9440,"æĺ¯åĲ¦":9441,"INK":9442,"ĠIF":9443,"ercise":9444,"onymous":9445,"Ġmount":9446,"dummy":9447,"todo":9448,"Ġsensor":9449,"Ġmut":9450,"allowed":9451,"ĠĊĠĠ":9452,"Ġarch":9453,"ListItem":9454,"Protos":9455,"itespace":9456,"ĠBundle":9457,"Ġyaml":9458,"ActionListener":9459,"binding":9460,"getElementsBy":9461,"generic":9462,"Ġ$('":9463,"patterns":9464,"Ġpairs":9465,"Ġquant":9466,"ĠĠĠĠĠĠĠĠĠĠĠĠĠĠĠĠĠĠĠĠĠĠĠ":9467,"executor":9468,"ned":9469,"vey":9470,"Multiple":9471,")\")":9472,"UpperCase":9473,"ĠčĊĉ":9474,"ĠCOL":9475,"ApplicationContext":9476,"Ġproducts":9477,"rollers":9478,"Ġ){":9479,"Vue":9480,"Ġfront":9481,"fun":9482,"ĠActivity":9483,"ĠDjango":9484,"statusCode":9485,"yml":9486,"Ġ---":9487,"idad":9488,"Ġmo":9489,"ĠStorage":9490,"Rec":9491,"Ġ}],":9492,"ĠCloud":9493,"sTo":9494,"ĊĠĠĠĠĠĠĠĠĠĠĠĠĠĠĠĠĊĠĠĠĠĠĠĠĠĠĠĠĠĠĠĠ":9495,"ĠTemplate":9496,"closed":9497,"Clause":9498,"Ġ|=":9499,"tb":9500,"VIEW":9501,"Ġfails":9502,"Processing":9503,"RAY":9504,"Validate":9505,"radio":9506,"HashSet":9507,"NC":9508,"calendar":9509,"ipment":9510,"review":9511,"stereotype":9512,"gamma":9513,"Ġnav":9514,"wp":9515,"Parallel":9516,"Ġcomments":9517,"Ġher":9518,"endswith":9519,"Ġiteration":9520,"Sound":9521,"peek":9522,"accounts":9523,"=[]":9524,"basename":9525,"¦Ĥæŀľ":9526,"^\\":9527,"Ġworks":9528,"ëı":9529,"ĠÐ¾":9530,".\";":9531,"eting":9532,"ĠLogin":9533,"æĽ":9534,"Tokens":9535,"news":9536,"Wrap":9537,"trial":9538,"lucene":9539,"Ġconsumer":9540,"exchange":9541,"åĪĹè¡¨":9542,"ĠFrame":9543,"Software":9544,"ERY":9545,"è¿Ļ":9546,"ĠSave":9547,"special":9548,"è¿Ľ":9549,"lastic":9550,"TOP":9551,"Ġregular":9552,"ĠValidation":9553,"Hy":9554,"Ġobs":9555,"Vertical":9556,"fact":9557,"Logic":9558,"[])":9559,"serial":9560,"Ġinline":9561,"Ġnoise":9562,"Free":9563,"aclass":9564,"Student":9565,"cells":9566,"Tip":9567,"Registration":9568,"ĠHeader":9569,"ĠHome":9570,"Did":9571,"Ġcurrency":9572,"ailability":9573,"iro":9574,"lying":9575,"ĠMe":9576,"Ġchoice":9577,"Ġinstant":9578,"accuracy":9579,"urred":9580,"ILD":9581,"ĠAtomic":9582,"Ġclo":9583,"_);":9584,"artifact":9585,"ç©º":9586,"Suite":9587,"|,":9588,"maj":9589,"FIR":9590,"udget":9591,"Ġans":9592,"}`;":9593,"assertNotNull":9594,"ãģ¾":9595,"Tracker":9596,"CHECK":9597,"ĠNOTE":9598,"ĠĠĠĠĠĠĠĠĠĠĠĠĠĠĠĠĠĠ":9599,"Vars":9600,"displayName":9601,"Ġcomplex":9602,"Ġsubscription":9603,"activation":9604,"Ġroutes":9605,"hub":9606,"Ġprevent":9607,"å½ĵ":9608,"Ġí":9609,"ĠFont":9610,"Ġchecks":9611,"ersistent":9612,"ism":9613,"Wr":9614,"uent":9615,"Ġtransport":9616,"navigation":9617,"fixtures":9618,"flip":9619,"izard":9620,"ĊĠĠĠĠĠĠĠĠĠĠĠĠĠĠĠĠĠĠĠĠĠĠĠĠĠĠĠĠĠĠĠĠĠĠĠĠĠĠĠĠĠĠĠĠĠ":9621,"Ġclazz":9622,"à¥":9623,"ĠaddCriterion":9624,"čĊĠĠĠĠĠĠĠĠĠĠĠĠ":9625,"æĶ¹":9626,"Buffered":9627,"ĠDes":9628,"integration":9629,"goal":9630,"/\",":9631,"Ġ)}":9632,"dirs":9633,"TL":9634,"Statistics":9635,"Ġcourse":9636,"Ġcheckpoint":9637,"Ġexceptions":9638,"Po":9639,"ApiModel":9640,"Ġhour":9641,"Ġframes":9642,"aste":9643,"Modules":9644,"ĠSo":9645,"inheritDoc":9646,"ĠJS":9647,"ĠNullPointerException":9648,"/*.":9649,"Ġtre":9650,"acl":9651,"Ġavg":9652,"rename":9653,"Ġcols":9654,"Ġtempor":9655,"ĠTYPE":9656,"(...":9657,"Ġpriority":9658,"ĠStandard":9659,"Execute":9660,"TOTAL":9661,"ticks":9662,"ìĦ":9663,"ĠReference":9664,"locations":9665,":])":9666,"ĠCount":9667,"imp":9668,"}_":9669,"Ġcm":9670,"***":9671,"Ġaccording":9672,"xlabel":9673,"æľŁ":9674,"Ġtables":9675,"å¤±":9676,"converter":9677,"Backend":9678,"Ġpayment":9679,"(\"{":9680,"Toast":9681,"Ġallows":9682,"ĠDI":9683,"Ġgranted":9684,"ager":9685,"ĠFire":9686,"INPUT":9687,"ĠDropbox":9688,"Tele":9689,"Ġtheta":9690,"parallel":9691,"parentNode":9692,"ĠContainer":9693,"els":9694,"proj":9695,"Skip":9696,"jh":9697,"ORM":9698,"folio":9699,"čĊĠĠĠĠĠĠĠĠĠĠĠĠĠĠĠĠĠĠĠĠĠĠĠĠĠĠĠĠĠĠĠ":9700,"attention":9701,"äºº":9702,"ĠRunnable":9703,"ousel":9704,"Ġvisual":9705,"ĠOver":9706,"ĊĊĠĠĠĠ":9707,"ĠDefaults":9708,"Ġnd":9709,"Functions":9710,"Ġblue":9711,"æĢ§":9712,"Ġreward":9713,"esian":9714,"ĠDevice":9715,"IDE":9716,"ĠSTR":9717,"°ĥ":9718,"Deser":9719,"Surface":9720,"åľ°":9721,"èĬ":9722,"Workflow":9723,"Ġuk":9724,"ãģı":9725,"ersistence":9726,"backends":9727,"åºĶ":9728,"dependent":9729,"PASSWORD":9730,"UNK":9731,"sembly":9732,"edirs":9733,"ROL":9734,"addWidget":9735,"datab":9736,"leaf":9737,"Ġdecoder":9738,"ĠPos":9739,"äºĨ":9740,"$$":9741,"phi":9742,"ç¨ĭ":9743,"Strings":9744,"microsoft":9745,"CHAR":9746,"javascript":9747,"Ġprom":9748,"ĠMatch":9749,"live":9750,"Ġcandidate":9751,"hold":9752,"ĠEdit":9753,"Ġ----------------":9754,"ĠGlobal":9755,"æ¬¡":9756,"City":9757,"Ġpositions":9758,"!')":9759,"Ġreceive":9760,"istent":9761,"Partial":9762,"nowled":9763,"Ġcoords":9764,"baz":9765,"hit":9766,"ving":9767,"Completion":9768,"ibling":9769,"Ġinterpol":9770,"GA":9771,"Ġlogs":9772,"poss":9773,"xyz":9774,"ĠMatrix":9775,"propri":9776,"Mail":9777,"ACHE":9778,"']]":9779,"netes":9780,"ĠShort":9781,"levant":9782,"Ġ}}>":9783,"Used":9784,"ubernetes":9785,"Google":9786,"Ġattempt":9787,"machine":9788,"ĠKeyError":9789,"animate":9790,"Ġremaining":9791,"æĢģ":9792,"tenant":9793,"Ġextensions":9794,"windows":9795,"Ġclosed":9796,"solution":9797,"datas":9798,"ascii":9799,"Ġ{});":9800,"Ġ**/":9801,"Ġready":9802,"Toolbar":9803,"Ġcalendar":9804,"docker":9805,"Ġshuffle":9806,"general":9807,"Rotation":9808,"ĠMin":9809,"ĠDraw":9810,"ViewHolder":9811,"hom":9812,"Ľå»º":9813,"Ġpointer":9814,"ĠVue":9815,"mol":9816,"pyplot":9817,"ĠOne":9818,"which":9819,"æĸ¹æ³ķ":9820,"otos":9821,"spot":9822,"ĠDim":9823,"filtered":9824,"twitter":9825,"ĠThere":9826,"Ġdp":9827,"ActionEvent":9828,"æł¼":9829,"hooks":9830,"odos":9831,"ye":9832,"Ġentropy":9833,"SIGN":9834,"nested":9835,"large":9836,"unchecked":9837,"Ġom":9838,"Ġcorrectly":9839,"==\"":9840,"Self":9841,"ArgumentParser":9842,"ATCH":9843,"ĠWrite":9844,"Ġte":9845,"Codes":9846,"gdx":9847,"proved":9848,"Train":9849,"Ġdatasets":9850,"popup":9851,"sell":9852,"Ġdr":9853,"Ġbehavior":9854,"ĠArt":9855,"dropdown":9856,"logits":9857,"ĠHttpServlet":9858,"PREFER":9859,"Ġversions":9860,"constraints":9861,"Changes":9862,"ObjectName":9863,"FIN":9864,"ĠRequire":9865,"]));":9866,"processors":9867,"jsx":9868,"Ġdistribute":9869,")\");":9870,"gate":9871,"suario":9872,"Deep":9873,"newBuilder":9874,"!\",":9875,"ĊĊĠĠĠĠĠĠĠĠĠĠĠĠĠĠĠĠĠĠĠĠĠĠĠĠĠĠĠ":9876,"=${":9877,"Ġmongoose":9878,"Ġattach":9879,"highlight":9880,"?:":9881,"authentication":9882,"ArgsConstructor":9883,"Ġpending":9884,"gether":9885,"Ġhit":9886,"éĥ":9887,"ãĥ³":9888,"Transformer":9889,"AWS":9890,"Checker":9891,"Ġasyncio":9892,"Bool":9893,"ãģį":9894,"Ġaddr":9895,"Old":9896,"ìĹ":9897,"chrom":9898,"Ġsuccessful":9899,"PROPERTY":9900,"Ð³":9901,"Ġca":9902,"AAAA":9903,"FileSync":9904,"quid":9905,"Ġreduce":9906,"posts":9907,"Modifier":9908,"/{}":9909,"Ġta":9910,"Ġitself":9911,"Ġformatted":9912,"'}),":9913,"lng":9914,"Ġboot":9915,"PD":9916,"revision":9917,"ĠUtils":9918,"Ġblack":9919,"Ġč":9920,"ĊĠĠĠĠĠĠĠĠĠĠĠĠĠĠĠĠĠĠĠĠĠĠĠĠĠĠĠĠĠĠĠĠĠĠĠĠĠĠĠĠĠĠĠĠĠĠĠĠĠĠĠĠĠĠĠ":9921,"finished":9922,"inds":9923,"Decoder":9924,"åĪĻ":9925,"()){":9926,"ĠÃ":9927,"Fi":9928,"ìĭ":9929,"æ¨¡":9930,"getX":9931,"ceeded":9932,"PN":9933,"jetbrains":9934,"getParameter":9935,"ko":9936,"ĠGeneric":9937,"QueryParse":9938,"Now":9939,"SECONDS":9940,"Buf":9941,"Disk":9942,"IBLE":9943,"Ġminutes":9944,"launch":9945,"Ġmachine":9946,"--;":9947,"EMPTY":9948,"retrie":9949,"ãģ¨":9950,"Ġfinished":9951,"sky":9952,"ĠStore":9953,"Ġmatched":9954,"Ġmonitor":9955,"ĠWorld":9956,"Ġassigned":9957,"setProperty":9958,"Ġ\"{}":9959,"ivot":9960,"ĠRule":9961,"=-=-":9962,"cedure":9963,"}-":9964,"lan":9965,"ENABLE":9966,"hib":9967,"\"];":9968,"Ġredis":9969,"toUpperCase":9970,"claimer":9971,"logical":9972,"rdf":9973,"clock":9974,"Ġangular":9975,"fq":9976,"ĠChange":9977,"gp":9978,"Ġinspect":9979,"Pixel":9980,"TYPES":9981,"eno":9982,"_'":9983,"PK":9984,"jquery":9985,"')(":9986,"ĠÑ":9987,"linked":9988,"ĠQue":9989,"ĠAWS":9990,"Addr":9991,"Ġtransfer":9992,"Calcul":9993,"Ġnever":9994,"Clean":9995,"ano":9996,"Ġthree":9997,"gh":9998,"mos":9999,"getContent":10000,"ĠShow":10001,"Ġbits":10002,"ancy":10003,"Ġknown":10004,"Ġsix":10005,"InternalFrame":10006,"ĠRender":10007,"Put":10008,"Photo":10009,"GIN":10010,"Connected":10011,"ceil":10012,"hd":10013,"|{":10014,"Forward":10015,"nl":10016,"RESULT":10017,"ĠNON":10018,"Elem":10019,"Ġgeometry":10020,"Ġcp":10021,"creation":10022,"getParent":10023,"@@":10024,"Ä±":10025,"ĠAD":10026,"Destroy":10027,"ĠEnv":10028,"ĠSecurity":10029,"Ġdeploy":10030,"Ġtouch":10031,"ĠGr":10032,"ĠbeforeEach":10033,"ĠTABLE":10034,"Plane":10035,"paper":10036,"Ġhig":10037,"Ġdiscord":10038,"Ġprototype":10039,"ĠInitialize":10040,"Comparator":10041,"izing":10042,"issues":10043,"zy":10044,"oned":10045,"lectron":10046,"Ġmag":10047,"ĠUsed":10048,"IMAGE":10049,"coeff":10050,"Ġdump":10051,"¶Ī":10052,"ãģĮ":10053,"Manifest":10054,"éľĢ":10055,"substr":10056,"NAMES":10057,"Pending":10058,"emy":10059,"marks":10060,"ily":10061,"ni":10062,"sume":10063,"built":10064,"ulse":10065,"Ġbus":10066,"ĠChannel":10067,"uras":10068,"Scanner":10069,"ordered":10070,"amps":10071,"widgets":10072,"(\"_":10073,"Ġprecision":10074,"ernate":10075,"Mobile":10076,"*\\":10077,"[_":10078,"ToProps":10079,"Arrow":10080,")>":10081,"urer":10082,"lize":10083,"iator":10084,"Utilities":10085,"Ġsources":10086,"matcher":10087,"stand":10088,"Outer":10089,"('');":10090,"ato":10091,"ĠTool":10092,"ĠDataset":10093,"Ġgeneric":10094,"Qual":10095,"Ġkeras":10096,"Scheduler":10097,"ĠExpression":10098,"Ġincrement":10099,"velocity":10100,"ç§°":10101,"TX":10102,"ĠhikariConfig":10103,"backup":10104,"Nested":10105,"ResponseBody":10106,"Ġcompany":10107,"nbsp":10108,"ĠRow":10109,"vincia":10110,"ĠSerializable":10111,"dictionary":10112,"mf":10113,"chant":10114,"APPLICATION":10115,"LABEL":10116,"rgba":10117,"Ġtqdm":10118,"Ġpersons":10119,"Currency":10120,"ima":10121,"ajor":10122,"Ġexplicit":10123,"UTO":10124,"Diag":10125,"setEnabled":10126,"Using":10127,"Ġpredictions":10128,"hours":10129,"eve":10130,"Ġpid":10131,"Ġsentence":10132,"Classifier":10133,"ĠDropboxTypes":10134,"changes":10135,"Ġfac":10136,"Ġstudent":10137,"Ġpin":10138,"Void":10139,"Ġopacity":10140,"crit":10141,"ĠPARSER":10142,"terms":10143,"irmed":10144,"based":10145,":]<":10146,"makedirs":10147,"iry":10148,"ĠNotification":10149,"Funciones":10150,"ocused":10151,"ĠDescription":10152,"hemy":10153,"Vol":10154,"ä¿Ŀ":10155,"»ĺ":10156,"pairs":10157,"rent":10158,"Retry":10159,"mass":10160,"assertIn":10161,"alchemy":10162,"Css":10163,"Ġbuttons":10164,"Vec":10165,"æľį":10166,"')]":10167,">:]<":10168,"Pages":10169,"collections":10170,"IE":10171,"ategorical":10172,"elong":10173,"ĠRO":10174,"PURE":10175,"Ġcli":10176,"vv":10177,"ãĤ¹":10178,"ilarity":10179,"Ġworkspace":10180,"Ġinstalled":10181,"numbers":10182,"icky":10183,"dating":10184,"anit":10185,"imize":10186,"Ġadding":10187,"Ġmapper":10188,"gisters":10189,"Ġtakes":10190,"qs":10191,"choices":10192,"middle":10193,"itecture":10194,"copes":10195,"Sol":10196,"Separator":10197,"imag":10198,"weather":10199,"ĠEND":10200,"ifiable":10201,"migrations":10202,"Ġindividual":10203,"ìĿ´":10204,"SECRE":10205,"Ġmx":10206,"curve":10207,"Perm":10208,"suite":10209,"anim":10210,"Views":10211,"badlogic":10212,"Ġdestroy":10213,"BigDecimal":10214,"Age":10215,"Margin":10216,"Delegate":10217,"Neg":10218,"Live":10219,"LT":10220,"Tooltip":10221,">>>":10222,"ĠSend":10223,"Parts":10224,"Ġtransforms":10225,"DAY":10226,"$/,":10227,"answers":10228,"attack":10229,"Ġmu":10230,"inalg":10231,"ĠSp":10232,"LAST":10233,"Equ":10234,"motor":10235,"Dictionary":10236,"Ġdescri":10237,"avity":10238,"elcome":10239,"POS":10240,"specific":10241,"Priority":10242,"scheme":10243,"hu":10244,"getPath":10245,"setOnClickListener":10246,"Shader":10247,"Ð¸ÑĤ":10248,"ï¿½ï¿½":10249,"Gre":10250,"ĠĠĠĠĠĠĠĠĠĠĠĠĠĠĠĠĠĠĠĠĠ":10251,"iterals":10252,"Interceptor":10253,"Ġcoordinate":10254,"avigate":10255,"priority":10256,"Union":10257,"åºı":10258,"CADE":10259,"Ġfname":10260,"UMENT":10261,"cpp":10262,"Kit":10263,"Ġbalance":10264,"ãĦ":10265,"Ġworkflow":10266,"ilent":10267,"?.":10268,"half":10269,"ssh":10270,"arest":10271,">{@":10272,"ĠStruct":10273,"nums":10274,"ĠRecord":10275,"illiseconds":10276,"æĮĩ":10277,"Ġsupports":10278,"Health":10279,"éĩį":10280,"TRANS":10281,"ĠLinear":10282,"emp":10283,"ĠFirst":10284,"ĠRect":10285,"cx":10286,"Ġstmt":10287,"Stroke":10288,"Ġgets":10289,"__.__":10290,"Ġannotations":10291,"æ®":10292,"ĠSort":10293,"commend":10294,"%;":10295,"ĠPred":10296,"Buttons":10297,"threads":10298,"production":10299,"è¾ĵ":10300,"ĠSolution":10301,"Relative":10302,"Ġtv":10303,"pread":10304,"Geo":10305,"bal":10306,"pull":10307,"Merge":10308,"major":10309,"ught":10310,"additional":10311,"/_":10312,"ookies":10313,"Ġpublished":10314,"Instant":10315,"CY":10316,"WARNING":10317,"information":10318,"»ĺè®¤":10319,"Ġwrapped":10320,"business":10321,"yyyy":10322,"prompt":10323,"ListView":10324,"LAT":10325,"WindowConfiguration":10326,"Ġfigure":10327,"ìŀ":10328,"erance":10329,"Ġagainst":10330,"gif":10331,"éĽ":10332,"Const":10333,"çīĩ":10334,"LoggerFactory":10335,"Ġdeferred":10336,"ĠPlugin":10337,"ĠgetAll":10338,"letter":10339,"AppCompat":10340,"propriate":10341,"Ġtele":10342,"'\",":10343,"Ġdetermin":10344,"forge":10345,"ĠsavedInstanceState":10346,"Concept":10347,"aching":10348,"formatter":10349,"|\\":10350,"Ġconcat":10351,"gson":10352,"Ġfd":10353,"players":10354,"Testing":10355,"Setter":10356,"plica":10357,"fox":10358,"Ġaround":10359,"Words":10360,"Reply":10361,"outh":10362,"VISIBLE":10363,"Git":10364,"Preference":10365,"Quantity":10366,"AW":10367,"singleton":10368,"Ġlos":10369,"gc":10370,"ĠGenerate":10371,"gree":10372,"ĠInstance":10373,"Ġaccuracy":10374,"onal":10375,"Ġstderr":10376,"NOWN":10377,"munity":10378,"ĠlocalStorage":10379,"OBJECT":10380,"ians":10381,"echno":10382,"plicit":10383,"Indent":10384,"episode":10385,"uffers":10386,"ope":10387,"=\"{":10388,"buttons":10389,"Creation":10390,"åı£":10391,"TIAL":10392,"Ġinstruction":10393,"negative":10394,"ĠDIS":10395,"TableName":10396,"``.":10397,"ĊĊĠĠĠĠĠĠĠĠĠĠĠĠĠ":10398,"strength":10399,"eel":10400,"wheel":10401,"LayoutParams":10402,"AI":10403,"getState":10404,"Observable":10405,"ĠTests":10406,"mysql":10407,"gradient":10408,"moves":10409,"Ġpredicate":10410,"ĠSequence":10411,"NEW":10412,"ãģ¯":10413,"Ġcounts":10414,"Good":10415,"è½¬":10416,"HEADER":10417,"valuator":10418,"wind":10419,"vertices":10420,"Ġcomputed":10421,"Bal":10422,"REEN":10423,"æ³¨":10424,"Ġemit":10425,"gene":10426,"Ġconfigured":10427,"COLUMN":10428,"AE":10429,"ilenames":10430,"Opacity":10431,"urnal":10432,"='\"":10433,"Ġ\"&":10434,"mgmt":10435,"áĥ":10436,"Original":10437,"sence":10438,"Ġprime":10439,"gable":10440,"Ġ'&":10441,"essaging":10442,"Lists":10443,"_\"":10444,"SerializedName":10445,"ONLY":10446,"velope":10447,"çĬ":10448,"Bits":10449,"rott":10450,"DisplayName":10451,"Ġmm":10452,"________________":10453,"URN":10454,"bert":10455,"ARE":10456,"Ġreading":10457,"SR":10458,"Ġletter":10459,"Ġlik":10460,"ĠProto":10461,"Blob":10462,"SECRET":10463,"--------------":10464,"Course":10465,"ebook":10466,"ĠVis":10467,"SN":10468,"lodash":10469,"ĊĉĠĠĠĠĠĠĠĠĠĠĠ":10470,"Ġrep":10471,"Ġrunner":10472,"sap":10473,"MON":10474,"Ġdummy":10475,"ĠRegister":10476,"ROW":10477,"DESCRI":10478,"iants":10479,"upon":10480,"Exchange":10481,"Ġali":10482,"emoji":10483,"Pol":10484,"getColumn":10485,"Coin":10486,"Safe":10487,"edu":10488,"logout":10489,"viewer":10490,"psi":10491,"Ġwebpack":10492,"Ġgeo":10493,"Ġmail":10494,"SQLException":10495,"Ġgreater":10496,"medium":10497,"ippet":10498,"Install":10499,"Ġvars":10500,"Ġjj":10501,"quelize":10502,"è°ĥ":10503,"Catalog":10504,"ĠSU":10505,"repos":10506,"Dropdown":10507,"without":10508,"textContent":10509,"aussian":10510,"ITEM":10511,"ĠnumberOf":10512,"Ġdetect":10513,"Ġexecuted":10514,"#__":10515,"Ġcircle":10516,"SUPPORT":10517,"Ġboxes":10518,"overflow":10519,"ando":10520,"ĠTop":10521,"ĠIterable":10522,"Minimum":10523,"ĠCONNECTION":10524,"/(":10525,"RequestBody":10526,"Ġlaunch":10527,"cube":10528,"ĠHO":10529,">\";":10530,"Ġsvg":10531,"Ġdesign":10532,"Ġbackup":10533,"Ġ{\\":10534,"connector":10535,"probs":10536,"Force":10537,"dependencies":10538,"Ð¾ÑĢ":10539,"party":10540,"èĬĤ":10541,"CB":10542,"ĊĊĠĠĠĠĠĠĠĠ":10543,"Tables":10544,"(':":10545,"AK":10546,"èī":10547,"Based":10548,"Ġir":10549,"Ġcategories":10550,"Completed":10551,"(\"@":10552,"Issue":10553,"servers":10554,"Ġcells":10555,"Variant":10556,"åĵģ":10557,"ĠDateTime":10558,"secondary":10559,"(\":":10560,"ergy":10561,"='',":10562,"ÐµÐ½Ð¸":10563,"quet":10564,"VAC":10565,"many":10566,"isfile":10567,"getY":10568,"eby":10569,"increment":10570,"scape":10571,"between":10572,"ĠCalendar":10573,"lazy":10574,"problem":10575,"spacing":10576,"Cast":10577,"Contain":10578,"Star":10579,"Marshall":10580,"ĠIcon":10581,"Ġcycle":10582,"éĺ":10583,"éĥ¨":10584,"Ġlarge":10585,"Recipe":10586,"locator":10587,"-\\":10588,"çĬ¶":10589,"Graphics":10590,"Finished":10591,"Problem":10592,"beat":10593,"ãģª":10594,"Ġconverted":10595,"FIC":10596,"omet":10597,"getH":10598,"åŁ":10599,"Ġfeat":10600,"jectory":10601,"PREFERRED":10602,"Ġcompiler":10603,"Ġmb":10604,"ĠCOM":10605,"HttpRequest":10606,"Ġdisclaimer":10607,"onyms":10608,"RY":10609,"TypeError":10610,"BufferException":10611,"ĠAdmin":10612,"REF":10613,"sal":10614,"Ġexamples":10615,"Patch":10616,"Ġ\"]":10617,"TIMEOUT":10618,"nextInt":10619,"leet":10620,"æĥ":10621,"Ġaccounts":10622,"ĠTHREE":10623,"ici":10624,"encrypt":10625,"PM":10626,"Ġ(((":10627,"izations":10628,"anned":10629,"Ġlogged":10630,"Signal":10631,"æľįåĬ¡":10632,"Ġcompile":10633,"rier":10634,"Ġroll":10635,"TypeName":10636,"ImageView":10637,"Lot":10638,"__*/":10639,"Ġvs":10640,"ìł":10641,"Ġgoal":10642,"METHOD":10643,"Allowed":10644,"ees":10645,"ĠParser":10646,"qr":10647,"Drawer":10648,"XXXXXXXX":10649,"ĠResponseEntity":10650,"Producer":10651,"ĠQueue":10652,"Ġproc":10653,"ChangeListener":10654,"Ġsolid":10655,"ISO":10656,"Ġfluid":10657,"Ã§Ã£o":10658,"uro":10659,"Ġlogic":10660,"è®¡":10661,"ĠCurrent":10662,"Ġisn":10663,"è´¥":10664,"èĩª":10665,"ida":10666,"lbl":10667,"Ġcombin":10668,"ĠDialog":10669,"COD":10670,"----------":10671,"å¤Ħ":10672,"ProtocolBufferException":10673,"LR":10674,"deletion":10675,"ĊĠĠĠĠĠĠĠĠĠĠĠĠĠĠĠĠĠĠĠĠĠĠĠĠĠĠĠĠĠĠĠĠĠĠĠĠĠĠĠĠĠĠĠĠĠĠ":10676,"market":10677,"Dashboard":10678,"uel":10679,"BOT":10680,"scatter":10681,"TON":10682,"nel":10683,"Ġhook":10684,"tolist":10685,"Started":10686,"manage":10687,"Dr":10688,"cred":10689,"Typography":10690,"Ġrefer":10691,"InnerQueryParse":10692,"InnerQueryParseSupport":10693,"via":10694,"Ġserialized":10695,"ÑĨ":10696,"coded":10697,"classifier":10698,"xt":10699,"acao":10700,"variance":10701,"Ġâ":10702,"isNot":10703,"aba":10704,"pagation":10705,"rowse":10706,"pip":10707,"Ġouter":10708,"ĠlocalVar":10709,"...,":10710,"poll":10711,"batis":10712,"Ġear":10713,"ĠOptions":10714,"concatenate":10715,"CASCADE":10716,"ä¿®":10717,"ley":10718,"Tempor":10719,"ĠDisplay":10720,"///":10721,"InvalidProtocolBufferException":10722,"Dependency":10723,"Ġslug":10724,"Ġtexture":10725,"dfs":10726,"Ġcoeff":10727,"Ġvertical":10728,"Ġwhite":10729,"åŃĹç¬¦":10730,"candidate":10731,"ĠUnsupportedOperationException":10732,"aver":10733,"ĠRole":10734,"WITH":10735,"overlay":10736,"ky":10737,"squ":10738,"ĠProgress":10739,"LONG":10740,"setVisible":10741,"Motor":10742,"visual":10743,"hyper":10744,"allclose":10745,"ĊĠĠĠĠĠĠĠĠĠĠĠĠĊĠĠĠĠĠĠĠ":10746,"Ġfrequency":10747,"verity":10748,"ĠThese":10749,"Else":10750,"Ġpay":10751,"Ġmaterials":10752,"pickle":10753,"Ġbetter":10754,"å¸Ĥ":10755,"GS":10756,"INGE":10757,"HttpClient":10758,"ĠTransform":10759,"PON":10760,"Ġresize":10761,"INFR":10762,"/.":10763,"story":10764,"Ġnom":10765,"Entities":10766,"cms":10767,"edDict":10768,"Ġparsing":10769,"ĠContact":10770,"Ġsimul":10771,"Ġrestore":10772,"AccessorTable":10773,"IDs":10774,"Annotations":10775,"Keyboard":10776,"$('.":10777,"Ġthreading":10778,"Ġpot":10779,"Ġlab":10780,"Ġgeneral":10781,"<=":10782,"linalg":10783,"ResultSet":10784,"Ġ]);":10785,"configs":10786,"getObject":10787,"organization":10788,"ReLU":10789,"arer":10790,"ei":10791,"Ġdevices":10792,"spi":10793,"works":10794,"DK":10795,"Ġfact":10796,"ÐµÐ¼":10797,"Zip":10798,"Ġhighlight":10799,"stor":10800,"ĊĉĉĊ":10801,"Ġactor":10802,"uario":10803,"[[":10804,"INGEMENT":10805,"Unsupported":10806,"INCLUDING":10807,"Composite":10808,"Commands":10809,"today":10810,"Programming":10811,"SHA":10812,"bos":10813,"Ġsess":10814,"Added":10815,"Ġactually":10816,"Anchor":10817,">');":10818,"Ġmaybe":10819,"PAGE":10820,"parents":10821,"TreeNode":10822,"Business":10823,"heading":10824,"LEVEL":10825,"ĠQtGui":10826,"Low":10827,"Destination":10828,"Describe":10829,"ki":10830,"esome":10831,"ĠOption":10832,"anging":10833,"micro":10834,"Ġmp":10835,"ĠdataType":10836,"going":10837,"Utf":10838,"mic":10839,"Ġpathlib":10840,"ãĤĬ":10841,"Ġcam":10842,"libs":10843,"vp":10844,"åĲįç§°":10845,"CN":10846,"Purchase":10847,"çĽ¸":10848,"clusters":10849,"agicMock":10850,"Ġruns":10851,"ĠĊĉĉĉ":10852,"usc":10853,"CheckBox":10854,"Closed":10855,"ulf":10856,"unicode":10857,"Ġrepresents":10858,"æĪĲåĬŁ":10859,"ĠRuntimeError":10860,"æ²":10861,"precision":10862,"Retri":10863,"ĠExpect":10864,"Ġtm":10865,"MOVE":10866,"aria":10867,"completed":10868,"ĠLoggerFactory":10869,"...\")":10870,"sprite":10871,"rootScope":10872,"Less":10873,"omial":10874,"ĠPort":10875,"lb":10876,"vi":10877,"ADDRESS":10878,"lish":10879,"sendMessage":10880,"Viewer":10881,"ĠjLabel":10882,"ĠStyle":10883,"UTC":10884,"Ġcut":10885,"Ġshadow":10886,"Ġtodo":10887,"LOGGER":10888,"={`":10889,"hasClass":10890,"Ġroles":10891,"Ġmanifest":10892,"Ġsquare":10893,"Ġhereby":10894,"Between":10895,"Sprite":10896,"cases":10897,"detach":10898,"Infos":10899,"ĠgetId":10900,"Ġaria":10901,"topics":10902,"è¯ģ":10903,"ĊĉĉĉĉĊĉĉĉ":10904,"shutdown":10905,"Phase":10906,"Linked":10907,"fi":10908,"getF":10909,"movie":10910,"setColor":10911,"iversity":10912,"Ġjest":10913,"Ġgamma":10914,"claim":10915,"detection":10916,"åħ¬":10917,"echo":10918,"EventType":10919,"Ġlimitation":10920,"Ġappropriate":10921,"Ġmakes":10922,"DataSet":10923,"Translation":10924,"attle":10925,"Ġquantity":10926,"maximum":10927,"orders":10928,"Hide":10929,"Alt":10930,"Numeric":10931,"must":10932,"ĠCategory":10933,"ociation":10934,"sidebar":10935,"*}":10936,"Apply":10937,"Ġ'(":10938,"coverage":10939,"(\"\",":10940,"Ġhours":10941,"ContentType":10942,"icular":10943,"ĠTarget":10944,"INFRINGEMENT":10945,"Ġable":10946,"EXP":10947,"Ġresolution":10948,"Been":10949,"MQ":10950,"ByteBuffer":10951,"Ġpx":10952,"Ġdelegate":10953,"Ġlegend":10954,":</":10955,"how":10956,"]\\":10957,"Ġvocab":10958,"Ġevaluation":10959,"translation":10960,"ĠUP":10961,"scss":10962,"ĠReport":10963,"ĠstartTime":10964,"Ġlisteners":10965,"serialized":10966,"Ġtenant":10967,"closest":10968,"Ġlarg":10969,"icles":10970,"vendor":10971,"ĠItemStack":10972,"å¤±è´¥":10973,"ND":10974,"Ġmis":10975,"Ġpc":10976,"chrome":10977,"duces":10978,"Must":10979,"men":10980,"aped":10981,"positive":10982,"getDe":10983,"ĠUSER":10984,"Generate":10985,"ëĭ¤":10986,"Orient":10987,"Stamp":10988,"matched":10989,"strictEqual":10990,"ĠMigration":10991,"simul":10992,">\")":10993,"JLabel":10994,"Ġcrop":10995,"Ġtermin":10996,"HEIGHT":10997,"SSL":10998,"mis":10999,"æ¶Ī":11000,"Ġresolved":11001,"rightness":11002,"ķĨ":11003,"Ġops":11004,"ĠProfile":11005,"Ġ}))":11006,"Roles":11007,"/#":11008,"calibr":11009,"pw":11010,"ĠFeature":11011,"Usuario":11012,"ĠCompute":11013,"åŃĲ":11014,"Invocation":11015,"Ġoccurred":11016,"Ġhalf":11017,"Ð¾Ð´":11018,"Ġprovides":11019,"avorite":11020,"AsString":11021,"Hist":11022,"Ġobtaining":11023,"Ġaws":11024,"ĠCLA":11025,"Ġec":11026,"ĠNumeric":11027,"Clicked":11028,"èī²":11029,"beam":11030,"hop":11031,"interpol":11032,"ĠHow":11033,"Organization":11034,"bukkit":11035,"Ġcoord":11036,"fm":11037,"phab":11038,"Reals":11039,"iloc":11040,"Pager":11041,"ionError":11042,"ãģ§":11043,"Ġzz":11044,"PIO":11045,"Ġenergy":11046,"nat":11047,"ĊĉĠĠ":11048,"å·²":11049,"study":11050,"Ġqueries":11051,"ĠLinked":11052,"surface":11053,"Ġwarn":11054,"ILL":11055,"Highlight":11056,"jdbc":11057,"auge":11058,"æ®µ":11059,"dro":11060,"ãĥĪ":11061,"Ġportions":11062,"EMAIL":11063,"texture":11064,"Ġ***":11065,"STRU":11066,"May":11067,"Pat":11068,"Rew":11069,"ĠuseEffect":11070,"Ġcatalog":11071,"apon":11072,"urnished":11073,"caption":11074,"heat":11075,"findOne":11076,"zilla":11077,"ctor":11078,"åĪ¶":11079,"ysics":11080,"DateTimeField":11081,"atisf":11082,"Remov":11083,"Ġmerged":11084,"Locator":11085,"selenium":11086,"ĠConv":11087,"versed":11088,"listdir":11089,"Cr":11090,"biz":11091,"Ġprompt":11092,"WA":11093,"ĠCallback":11094,"TRA":11095,"ARRAY":11096,"ç³":11097,"Ġstatistics":11098,"Ġasynchronous":11099,"compress":11100,"Ġgradient":11101,"livery":11102,"jwt":11103,"ĠgetDefault":11104,"shuffle":11105,"ĠassertNull":11106,"Under":11107,"Verify":11108,"Ġwhom":11109,"Shift":11110,"detect":11111,"è½½":11112,"Launch":11113,"Ġparallel":11114,"CONN":11115,"Pressed":11116,"\">'":11117,"ĠStack":11118,"INSERT":11119,":/":11120,"quick":11121,"Ġvertices":11122,"Ġbug":11123,"ĠNE":11124,"}`)":11125,"è¯¥":11126,"OPER":11127,"TOOL":11128,"|\"":11129,"authorized":11130,"chars":11131,"Ġderived":11132,"ening":11133,"guid":11134,"poration":11135,"FFER":11136,"ĠCLAIM":11137,"Curve":11138,"ĠRegExp":11139,"RT":11140,"setLayout":11141,"ãģ¦":11142,"aux":11143,"utoff":11144,"setItem":11145,"ailing":11146,"Pin":11147,"Visit":11148,"implement":11149,"ĠRedistributions":11150,"ĠCallable":11151,"hint":11152,"ĠDynamic":11153,"Copyright":11154,"Finder":11155,"vault":11156,"enumer":11157,"ĠEN":11158,"Ġstrip":11159,"Ġprojection":11160,"CV":11161,"Ġmt":11162,"!!!!":11163,"Ġjobs":11164,"clients":11165,"Distribution":11166,"Ġ].":11167,"Ġwallet":11168,"FLAGS":11169,"Ġsubstant":11170,"ĠDist":11171,"secure":11172,"ĠZfcs":11173,"Ġtd":11174,"Ġ```":11175,"Ġreceiver":11176,"kl":11177,"Ġcharset":11178,"Ġinitialized":11179,"RENT":11180,"Ġ*,":11181,"ARGET":11182,"subnet":11183,"åĲĮ":11184,"æľº":11185,"izers":11186,"angles":11187,"Ñħ":11188,"))))":11189,"onom":11190,"Ġfun":11191,"markdown":11192,"capture":11193,"Seg":11194,"å®¹":11195,"algorithm":11196,"deprecated":11197,"ä¼ł":11198,"ĠAlert":11199,"MN":11200,"exe":11201,"chr":11202,"anisation":11203,"RunWith":11204,"Notifications":11205,"Ġcreates":11206,"uation":11207,"NumberOf":11208,"éģ":11209,"Ġrv":11210,"Ġorganization":11211,"Ġiterate":11212,"Ġmix":11213,"\"<":11214,"rat":11215,"Ġcriteria":11216,"Logging":11217,"]]:":11218,"places":11219,"ĠAmazon":11220,"GENER":11221,"Attachment":11222,"Ġscheduler":11223,"Capture":11224,"çº¿":11225,"Fee":11226,"ĠMan":11227,"STA":11228,"discord":11229,"ĠInterruptedException":11230,"Sources":11231,"Ġ./":11232,"Vent":11233,"Ġsq":11234,"Ġgeneration":11235,"alib":11236,"Front":11237,"servations":11238,"AU":11239,"ĠSUB":11240,"smart":11241,"databind":11242,"TypeId":11243,"Ġdataframe":11244,"tempor":11245,"\"};":11246,"OIN":11247,"argo":11248,"transforms":11249,"ĠImportError":11250,"Bin":11251,"Ġresponses":11252,"Ġ\"\\\"":11253,"ĠBook":11254,"=\"_":11255,"XR":11256,"?\",":11257,"puter":11258,"ban":11259,"frequency":11260,"Ġdependency":11261,"å¸¸":11262,"BN":11263,"decimal":11264,"Ġstarts":11265,"havi":11266,"Inline":11267,"spaces":11268,"/<":11269,";\"":11270,"Ġsuc":11271,"ĠEmail":11272,"Ġmarket":11273,"LES":11274,"onCreate":11275,"ĠtableName":11276,"')}":11277,"Company":11278,"controls":11279,"OUTPUT":11280,"Dd":11281,"Compound":11282,"utilities":11283,"Dispatcher":11284,"=>":11285,"Ġsong":11286,"Behavior":11287,"SDK":11288,"ĠBatch":11289,"izable":11290,"every":11291,"amilton":11292,"Small":11293,"ivalent":11294,"given":11295,"toolbar":11296,"Maximum":11297,"Ġrotate":11298,"ĠSl":11299,"BS":11300,"ApiModelProperty":11301,"INI":11302,"Ġcf":11303,"cule":11304,"setId":11305,"take":11306,"Ġtol":11307,"asarray":11308,"ĠDEAL":11309,"ĠBSD":11310,"ORIZ":11311,"Positive":11312,"Ġconverter":11313,"ĠLE":11314,"Ġhostname":11315,"Ġhandlers":11316,"netty":11317,"Tax":11318,"mong":11319,"æŁ¥è¯¢":11320,"edores":11321,"Ġcontributors":11322,"Ġseparate":11323,"Tw":11324,"cov":11325,"consumer":11326,"Pause":11327,"placement":11328,"Collector":11329,"ĠPOST":11330,"ENTIAL":11331,"leave":11332,"ACTIVE":11333,"unpack":11334,"predictions":11335,"ĠGit":11336,"ĠAL":11337,"does":11338,"Clip":11339,"Mutable":11340,"Ġ(%":11341,"LIMIT":11342,"ReadOnly":11343,"VEN":11344,"getNode":11345,"acon":11346,"Ġdetection":11347,"Retention":11348,"Sem":11349,"Ġsubstantial":11350,"Sig":11351,"pover":11352,"djangoproject":11353,"CACHE":11354,"perience":11355,"criminator":11356,"dv":11357,"Ġdocs":11358,"uggestion":11359,"DP":11360,"ĠEntry":11361,"decl":11362,"ĠparseFrom":11363,"Iterable":11364,"peech":11365,"setTitle":11366,"ĠStop":11367,"swig":11368,"firebase":11369,"sparse":11370,"Ġpdf":11371,"PACE":11372,"codec":11373,"bridge":11374,"possible":11375,"MUL":11376,"digest":11377,"Employee":11378,"++]":11379,"ä»£":11380,"aged":11381,"toList":11382,"mybatis":11383,"enums":11384,"ublicense":11385,"SHORT":11386,"software":11387,"ãģķ":11388,"MY":11389,"tempts":11390,"Ġsupplied":11391,"ĠAUTHORS":11392,"|()":11393,"inp":11394,"lices":11395,"Ġsublicense":11396,"åĪłéĻ¤":11397,"ĠTimeUnit":11398,"Ġnormalized":11399,"MediaType":11400,"ĠDEALINGS":11401,"ĠĊĠĠĠĠĠĠĠĠĠĠĠĠĠĠĠĠĠĠĠ":11402,"Ġcms":11403,"Ġarc":11404,"receive":11405,"ĠEach":11406,"latitude":11407,"ĠERROR":11408,"LOB":11409,"Win":11410,"Ġattention":11411,"CONTROL":11412,"Comments":11413,"sy":11414,"endsWith":11415,"Console":11416,"Dot":11417,"Ġ([":11418,"MEM":11419,"Ġthreads":11420,")**":11421,"ĊĠĠĠĠĠĠĠĠĠĠĠĠĠĠĠĠĠĠĠĠĠĠĠĠĠĠĠĠĠĠĠĠĠĠĠĠĠĠĠĠĠĠĠĠĠĠĠĠ":11422,"Grupo":11423,"Der":11424,"Blue":11425,"ĠLinkedList":11426,"}));":11427,"fee":11428,"station":11429,"ĠCONTRIBUT":11430,"(/\\":11431,"ĠNONINFRINGEMENT":11432,"LATE":11433,"Uid":11434,"Estado":11435,"?',":11436,"ExtensionRegistry":11437,"Handlers":11438,"Ġrepeat":11439,"entrySet":11440,"sessment":11441,"Ġreferences":11442,"authorization":11443,"ISH":11444,"flate":11445,"kill":11446,"xi":11447,"ĠgetUser":11448,"Ġ\",\"":11449,"Ġ'');":11450,"adoc":11451,"Ġflat":11452,"ĠSELECT":11453,"Bi":11454,"spark":11455,"uplicates":11456,"prise":11457,"skill":11458,"ç¬¬":11459,"çĬ¶æĢģ":11460,"Ġspect":11461,"æıĲ":11462,"STEM":11463,"ĠAndroid":11464,"buy":11465,"TIP":11466,"Plus":11467,"QtCore":11468,"Ġwhole":11469,"hosts":11470,"jButton":11471,"Ġexchange":11472,"NLS":11473,"nick":11474,"Ġabort":11475,"subprocess":11476,"rammar":11477,"Emitter":11478,"minutes":11479,"ĠCONTRIBUTORS":11480,"ection":11481,"arity":11482,"Ġbi":11483,"Ġxhr":11484,"icult":11485,"Ø§Ù":11486,"Ġstock":11487,"tein":11488,"Jav":11489,"ĠFetch":11490,"gd":11491,"}/>":11492,"deployment":11493,"hbase":11494,"setData":11495,"imgs":11496,"CIAL":11497,"moid":11498,"Ġmiddle":11499,"Principal":11500,"Ġsuite":11501,"Make":11502,"çķ":11503,"æ¡":11504,"ĠGu":11505,"sections":11506,"compareTo":11507,"hp":11508,"Tokenizer":11509,"Ġmodification":11510,"Ġcallbacks":11511,"CID":11512,"ĠSample":11513,"Ġproduction":11514,"RM":11515,"Ġtooltip":11516,"Ġbusiness":11517,"Dependencies":11518,"%',":11519,"ĠInst":11520,",(":11521,"Coded":11522,"ratch":11523,"OPEN":11524,"Polygon":11525,"riends":11526,"instruction":11527,"Ġhandling":11528,"ĠArguments":11529,"isk":11530,"Ġair":11531,"Ġoverwrite":11532,"setOn":11533,"Ġstar":11534,"ĠAT":11535,"temperature":11536,"Regression":11537,"uptools":11538,"Audit":11539,"riction":11540,"cas":11541,"éľĢè¦ģ":11542,"ipedia":11543,"ÐºÐ°":11544,"Ġss":11545,"CENTER":11546,"moving":11547,"ä½ĵ":11548,"Ġmapped":11549,"azel":11550,"AMPLE":11551,"ĠChecks":11552,"Callable":11553,"Ġ//$":11554,"ä¿®æĶ¹":11555,"IAL":11556,"orientation":11557,"aptor":11558,";/":11559,"CAP":11560,"Defined":11561,"ĠConnect":11562,"Ġsen":11563,"Ġperformance":11564,"Ġcapture":11565,"Ġdocuments":11566,"Ġauthors":11567,"paredStatement":11568,"ê¸":11569,"Deleted":11570,"\\\":\\\"":11571,"Ñİ":11572,"ðĿ":11573,"Den":11574,"osen":11575,"filePath":11576,"density":11577,"warnings":11578,"uer":11579,"idade":11580,"getWidth":11581,"Steps":11582,"čĊĉĉĉĉĉĉĉ":11583,"ĠRESULT":11584,"Air":11585,"Average":11586,"ĠgetValue":11587,"etro":11588,"Formatt":11589,"pixels":11590,"Ġtax":11591,"indexes":11592,"($(":11593,"ĠSm":11594,"tracker":11595,"ENTITY":11596,"water":11597,"ĠRequired":11598,"ĠOtherwise":11599,"à¹":11600,"TagName":11601,"ĠCar":11602,"½æķ°":11603,"schemas":11604,"setObjectName":11605,"ĠAttributes":11606,"ialect":11607,"âĢĻ":11608,"Logs":11609,"newInstance":11610,"Cycle":11611,"NEL":11612,"Ã¼":11613,"Ġtrim":11614,"sat":11615,"VT":11616,"Indices":11617,"scaling":11618,"Ġ{/*":11619,"symbols":11620,"ĠTy":11621,"inuous":11622,"Ġ{*}":11623,"Ġincludes":11624,"ĠÂ":11625,"validators":11626,"InstanceId":11627,"OrCallback":11628,"ìļ":11629,"Terminal":11630,"Modify":11631,"nth":11632,"plane":11633,"ĠDimension":11634,"=\",":11635,"Ġscheme":11636,"ĠShould":11637,"adjust":11638,"ĠAuthentication":11639,"getBlock":11640,"aby":11641,"Ġ/=":11642,"âĸĳ":11643,"Training":11644,"Ġhyper":11645,"song":11646,"timezone":11647,"Ġsimulation":11648,"kafka":11649,"ä¸²":11650,"Capacity":11651,"Once":11652,"Ġconstraints":11653,",))":11654,"axios":11655,"masks":11656,"longitude":11657,"Ġcare":11658,"fff":11659,"shapes":11660,"SW":11661,"Alarm":11662,"Ġappear":11663,"Ġfmt":11664,"Resize":11665,"Extensions":11666,"multiply":11667,"cident":11668,"resolution":11669,"ActionPerformed":11670,"åħĥ":11671,"capacity":11672,"FROM":11673,"çľ":11674,"Ġsem":11675,"ĠHE":11676,"Ptr":11677,"ĠRange":11678,"QUAL":11679,"keywords":11680,"',['../":11681,"Ctx":11682,"Ġfreq":11683,"Ġurls":11684,"tran":11685,"Ġnotes":11686,"Ġretain":11687,"\\/\\/":11688,"Alter":11689,"ĠMo":11690,"Models":11691,"traction":11692,"redient":11693,"Ġnavigation":11694,"yellow":11695,"Ġgreen":11696,"ENS":11697,"Ġpopup":11698,"Units":11699,"ACCESS":11700,"Ġchecking":11701,"Clock":11702,"ĉĉĉĉĉ":11703,"Ġsurface":11704,"seek":11705,"å¾Ĺ":11706,"lv":11707,"Ġord":11708,"dense":11709,"ê²":11710,"Ġkeywords":11711,"resolved":11712,"ĠPassword":11713,"ĠnestedInnerQueryParseSupport":11714,"ĠHandler":11715,"visibility":11716,"imitives":11717,"ĠByteArray":11718,"indicator":11719,"Ġvery":11720,"Your":11721,"ĠBinary":11722,"ĠnewValue":11723,"ĠMicrosoft":11724,"BAD":11725,"preds":11726,"alyze":11727,"avar":11728,"charset":11729,"Stock":11730,":\")":11731,"Ġindexes":11732,"Ð»Ð¸":11733,"æį¢":11734,"undo":11735,"ABASE":11736,"Ġcertificate":11737,"ĠĠĠĠĠĠĠĠĠĠĠĠĠĠĠĠĠĠĠĠĠĠĠĠ":11738,"Turn":11739,"eql":11740,"Ġgulp":11741,"har":11742,"getHeight":11743,"Clazz":11744,"\">{":11745,"setP":11746,"Ġgive":11747,"OURCE":11748,"crets":11749,"Ġmar":11750,"TIV":11751,"gem":11752,"sock":11753,"truth":11754,"ĊĉĊĉ":11755,"Ġ[{\"":11756,"coped":11757,"çĻ»":11758,"ATEG":11759,"Movie":11760,"'){":11761,"keySet":11762,"ªĮ":11763,"igrate":11764,"ĠCell":11765,"Ġflush":11766,"Writable":11767,"music":11768,"ĠCore":11769,"ĊĠĠĠĠĠĠĠĠĠĠĠĠĠĠĠĠĠĠĠĠĠĠĠĠĠĠĠĠĠĠĠĠĠĠĠĠĠĠĠĠĠĠĠĠĠĠĠĠĠ":11770,"Anim":11771,"Specification":11772,"_{}":11773,"orse":11774,"LOAT":11775,",,":11776,"Ġflatten":11777,"modify":11778,"ĠSql":11779,"Black":11780,"Ġic":11781,"Ġtools":11782,"zA":11783,"ivar":11784,"agram":11785,"PROJECT":11786,"SETT":11787,"Ġconversion":11788,"FileSystem":11789,"ova":11790,"Parcel":11791,"PG":11792,"recv":11793,"ç³»":11794,"ĠFormat":11795,"Hot":11796,"IOS":11797,"ĠDown":11798,"Ġ%%":11799,"phrase":11800,"ExtensionRegistryLite":11801,"mas":11802,"áº":11803,"Ġcaller":11804,"EditText":11805,"?[":11806,"yo":11807,"protoc":11808,"Ġsyntax":11809,"},{":11810,"degree":11811,"Ġrespect":11812,"perf":11813,"SG":11814,"ĊĊĉĉĉĉĉ":11815,"ĠCalculate":11816,"Ġformatter":11817,"æĽ´":11818,"HH":11819,"aze":11820,"ĠCluster":11821,"Hidden":11822,"Numbers":11823,"setFont":11824,"Inputs":11825,"perim":11826,"Ġauthorization":11827,"Products":11828,"rer":11829,"embeddings":11830,"PUB":11831,"Characteristic":11832,"Ġ\"\\\\":11833,"(\"\")":11834,"eces":11835,"Ġposts":11836,"Where":11837,"Gradient":11838,"Ġpg":11839,"Ġfunct":11840,"getSelected":11841,"heads":11842,"Extractor":11843,"ĠNUM":11844,"\":{":11845,"ç®Ĺ":11846,"Round":11847,"anning":11848,"Guard":11849,"poses":11850,"ESSION":11851,"utorial":11852,"Ti":11853,"ĠCSS":11854,"Foo":11855,"Ġseedu":11856,"thers":11857,"Market":11858,"Blur":11859,"ĠCL":11860,"concept":11861,"Delimit":11862,"dependency":11863,"Ġdeprecated":11864,"did":11865,"camel":11866,"Ġscalar":11867,"Ġĉĉ":11868,"ĠparseFloat":11869,"Ant":11870,"MARK":11871,"online":11872,"Follow":11873,"ĠOP":11874,"minimum":11875,"ĠServlet":11876,"Syn":11877,"pod":11878,"charge":11879,"FieldBuilder":11880,"Chooser":11881,"={(":11882,"_[":11883,"Ġcallable":11884,"linspace":11885,"istant":11886,"Ġnumeric":11887,"writeField":11888,"Implementation":11889,"attrib":11890,"ĠCur":11891,"Ġwave":11892,"Revision":11893,"glyph":11894,"Ġsalt":11895,"ĠStep":11896,"CAL":11897,"Receive":11898,"Cent":11899,"artist":11900,"Mean":11901,"uni":11902,"Lex":11903,"Ġrc":11904,"Routes":11905,"IZE":11906,"PACK":11907,"bars":11908,"ç¼ĸ":11909,"Ġhappen":11910,"bur":11911,"æ¸":11912,"TRUE":11913,"jj":11914,"analytics":11915,"ĠCorporation":11916,"containers":11917,"ĠgetData":11918,"Ġjoint":11919,"There":11920,"CHANGE":11921,"Ġdc":11922,"RET":11923,"ĠMET":11924,"QUE":11925,"æŃ£":11926,"æº":11927,"ItemStack":11928,"expanded":11929,"responses":11930,"Ġtoday":11931,"sessions":11932,"?\\":11933,"FIRST":11934,"·»":11935,"started":11936,"Claim":11937,"Ġarchive":11938,"Ġhover":11939,"numeric":11940,"fw":11941,"PIPE":11942,"echa":11943,"Ġru":11944,"savefig":11945,"retrieve":11946,"prom":11947,"ĠRetri":11948,"Ġlocations":11949,"Previous":11950,"Ġing":11951,"ternative":11952,"Ġinvoked":11953,"rection":11954,"ĊĉĠĠĠĠĠĠĠĠĠ":11955,"ĠCA":11956,"ĠPlot":11957,"ANY":11958,"Ġ------------------------------------------------":11959,"abbit":11960,"rain":11961,"atives":11962,"SOURCE":11963,"distribute":11964,"[@":11965,"Ġrospy":11966,"å½ĵåīį":11967,"drive":11968,"('/')":11969,"æĵ":11970,"ĠMockito":11971,"Ġclock":11972,"rew":11973,"Ġband":11974,"Ġalloc":11975,"Actor":11976,"setBackground":11977,"Ġhelpers":11978,"alty":11979,"benchmark":11980,"å¤ļ":11981,"vehicle":11982,"ializes":11983,"sqlite":11984,"Velocity":11985,"oct":11986,"Ġthird":11987,"IME":11988,"broadcast":11989,"iteration":11990,"éĶĻ":11991,"Ġpull":11992,"getenv":11993,"ãģĵ":11994,"ĠIE":11995,"ĠRoute":11996,"deps":11997,"åı¯ä»¥":11998,"exact":11999,"Fit":12000,"may":12001,"Ġquote":12002,"outube":12003,"lapsed":12004,"offer":12005,"dh":12006,"Ġmatcher":12007,"<>":12008,"ably":12009,"Ġvisitor":12010,"Docs":12011,"ãģĤ":12012,"FB":12013,"SHO":12014,"Ġ%.":12015,"åħ¨":12016,"Hour":12017,"gender":12018,"rp":12019,"ĠBitmap":12020,"Ġguild":12021,"Ġask":12022,"ï¼ģ":12023,"stable":12024,"here":12025,"ĠbitField":12026,"DL":12027,"Ġsep":12028,"affic":12029,"lm":12030,"imshow":12031,"PathVariable":12032,"Compare":12033,"Ġargv":12034,"Ġdivision":12035,"'ll":12036,"ç¡":12037,"lications":12038,"Ã³n":12039,"·»åĬł":12040,"isNull":12041,"untries":12042,"ĠFlow":12043,"Cards":12044,"éĴ":12045,"itelist":12046,"itories":12047,"bing":12048,"dit":12049,"?,":12050,"Ġhint":12051,"Solution":12052,"|}":12053,"orderbook":12054,"ĠObservable":12055,"Ġtb":12056,"//#":12057,"swap":12058,"äºĭ":12059,"ĠExecution":12060,"Ticket":12061,"Archive":12062,"See":12063,"Notify":12064,"west":12065,"providers":12066,"losses":12067,"Ġgoog":12068,"Ĥ¨":12069,"roc":12070,"Redis":12071,"received":12072,"recipe":12073,"three":12074,"Ġ/^":12075,"coll":12076,"Ġtogether":12077,"ACH":12078,"findBy":12079,"oracle":12080,"Ġreact":12081,"('{":12082,"Ġii":12083,"FUNC":12084,"Syntax":12085,"ĠMov":12086,"Ð¶":12087,"Ġfurnished":12088,"ewidth":12089,"å±ŀ":12090,"ìĭľ":12091,"ildcard":12092,"nf":12093,"findById":12094,"VICES":12095,"adr":12096,"---------":12097,"Ġtranslation":12098,"getDate":12099,"çİ°":12100,"ragments":12101,"findAll":12102,"alg":12103,"-------------":12104,"ĠSingle":12105,"ĠRemote":12106,"localStorage":12107,"elementAt":12108,"GetMapping":12109,"ĠFiles":12110,"Ġcurve":12111,"styled":12112,"=\"+":12113,"openg":12114,"RequestParam":12115,"eros":12116,"Demo":12117,"Ġoutside":12118,"reports":12119,"registration":12120,"trunc":12121,"aches":12122,"ãĤĮ":12123,"Ġsqlalchemy":12124,"eled":12125,"Contains":12126,"getSimple":12127,"ascade":12128,"Ġtemperature":12129,"documents":12130,"callbacks":12131,"Slice":12132,"ĠPop":12133,"ittle":12134,"pletable":12135,"å¤ĦçĲĨ":12136,"Lng":12137,"tex":12138,"Ġgetting":12139,"Placement":12140,"crest":12141,"*.":12142,"Ġwho":12143,"\")))":12144,"[^":12145,"pv":12146,"lope":12147,"sampling":12148,"specifier":12149,"Conditions":12150,"Ġembedding":12151,"ë¡":12152,"Ġmovie":12153,"pur":12154,"ĠXml":12155,"atern":12156,"LOCATION":12157,"ĠEnvironment":12158,"Cert":12159,"getResources":12160,"ĠMongo":12161,"eper":12162,"Ġcnt":12163,"ATURE":12164,"Matches":12165,"PROP":12166,"Ġsymbols":12167,"instrument":12168,"Ġpause":12169,"gold":12170,"§è¡Į":12171,"=\"'":12172,"Ġke":12173,"AbsolutePath":12174,"INTEGER":12175,"Enumer":12176,"Deliver":12177,"å¯Ĩ":12178,"éķ":12179,"Ġdifference":12180,"Ġng":12181,"Ġlonger":12182,"Interfaces":12183,"Ġcapacity":12184,"igure":12185,"ĠCopy":12186,"Ġenough":12187,"Ġvelocity":12188,"ingerprint":12189,"Deprecated":12190,"Sink":12191,"ATER":12192,"ĠTrack":12193,"FOUND":12194,"ulator":12195,"IDD":12196,"ĠÐ·":12197,"æīĢæľī":12198,"projection":12199,"\"]),":12200,"softmax":12201,"ulary":12202,"union":12203,"Ġ\\\\":12204,"é¢ĺ":12205,"pline":12206,"AXB":12207,"())).":12208,"Ġaux":12209,"Ð¾Ð¼":12210,"Ġenumerable":12211,"Fast":12212,"Gatt":12213,"Backup":12214,"ĠControl":12215,"åĩ½æķ°":12216,"Ġhorizontal":12217,"Ġabc":12218,"nowledge":12219,"VED":12220,"hm":12221,"toHaveBeen":12222,"ì§":12223,"Ġtail":12224,"Ġconnections":12225,"removed":12226,"Ġrx":12227,"Minutes":12228,"Ġlst":12229,"EAR":12230,"Ġparticular":12231,"species":12232,"ĠĠĠĠĠĠĠĠĠĠĠĠĠĠĠĠĠĠĠĠĠĠ":12233,"RF":12234,"bm":12235,"ĠAv":12236,"ĠjSON":12237,"Configs":12238,"Ġti":12239,"atures":12240,"Cal":12241,"levels":12242,"backward":12243,"POSI":12244,"++++++++":12245,"Ġescape":12246,"brand":12247,"æĿ¥":12248,"ĠTab":12249,"Ġarrow":12250,"Ġ\".\"":12251,"trade":12252,"Ġdetected":12253,"Tre":12254,"à¦":12255,"Ġindicator":12256,"km":12257,"ĠfilePath":12258,"ĠOK":12259,"ORMAL":12260,"elih":12261,"Bo":12262,"prior":12263,"unsqueeze":12264,"ansion":12265,"serialization":12266,"ĠScript":12267,"pal":12268,"Reached":12269,"addGroup":12270,"weets":12271,"IndexOf":12272,"aky":12273,"Ġwhose":12274,"!\"":12275,"Combin":12276,"Hit":12277,"proval":12278,"provide":12279,">\".":12280,"Presenter":12281,"hz":12282,"Ġdelimiter":12283,"Ġvalor":12284,"About":12285,"manual":12286,"kv":12287,"'m":12288,"Ġwon":12289,"airline":12290,"ĊĊĊĊĠĠĠ":12291,"Li":12292,"æĸŃ":12293,"central":12294,"\"',":12295,"fits":12296,"ä¸»":12297,"Ġanything":12298,"Ġæĺ":12299,"pref":12300,"bench":12301,"ĠTeam":12302,"Rectangle":12303,"ĊĠĠĠĠĊĠĠĠĠĠĠĠ":12304,"Ġut":12305,"elihood":12306,"Ġbo":12307,"Ð½Ñĭ":12308,"icial":12309,";}":12310,"ĠSPE":12311,"wa":12312,"Trade":12313,"ester":12314,"ĠMar":12315,"ERO":12316,"MC":12317,"Ġlive":12318,"(<":12319,"Ġfilepath":12320,"åºĵ":12321,"{\\":12322,"queries":12323,"Ġjwt":12324,"ãĤ¤":12325,"={}":12326,"Interaction":12327,"è¡¨ç¤º":12328,"Uint":12329,"Ġlazy":12330,"Ġctypes":12331,"ĠNow":12332,"Ø±":12333,"Ġattack":12334,"osp":12335,"Ġssl":12336,"flash":12337,"Fake":12338,"gap":12339,"feedback":12340,"TITLE":12341,"Ġtransl":12342,"ĊĠĠĠĠĠĠĠĠĠĠĠĠĠĠĠĠĠĠĠĠĠĠĠĠĠĠĠĠĠĠĠĠĠĠĠĠĠĠĠĠĠĠĠĠĠĠĠĠĠĠĠĠĠĠĠĠĠĠĠ":12343,"ĠTry":12344,"ena":12345,"adin":12346,"CSV":12347,"onChange":12348,"Ġinherit":12349,"locked":12350,"calcul":12351,"Ġbelong":12352,"quis":12353,"finity":12354,"rices":12355,"sive":12356,"ServiceImpl":12357,"Edges":12358,"eslint":12359,"SEQU":12360,"Ġll":12361,"dns":12362,"ELEMENT":12363,"Defaults":12364,"blur":12365,"xxxx":12366,"USED":12367,"ĠCharacter":12368,"Ġspaces":12369,"Ġ'\\\\":12370,"ÐµÐ»":12371,"CES":12372,"Ġæł":12373,"Ġnx":12374,"functional":12375,"Ġaddresses":12376,"Lazy":12377,"spection":12378,"nu":12379,"Ġseen":12380,"kb":12381,"ICE":12382,"Epoch":12383,"Ġhard":12384,"Maps":12385,"Ġsegments":12386,"Conversion":12387,"Ġsinon":12388,"Bank":12389,"ships":12390,"æĻ":12391,"Propagation":12392,"iggers":12393,"produce":12394,"Ġ!(":12395,"Ġprocessor":12396,"clicked":12397,"aptcha":12398,"ubble":12399,"ĠDefine":12400,"segments":12401,"Ġrecent":12402,"Templates":12403,"VACANT":12404,"Ġshown":12405,"receiver":12406,"âĢĿ":12407,"ĠDecimal":12408,"ĠFr":12409,"attery":12410,"sib":12411,"ErrorMessage":12412,"statistics":12413,"imap":12414,"Ġsizes":12415,"currPos":12416,"cognition":12417,"Orientation":12418,"deepEqual":12419,"cus":12420,"vention":12421,"eto":12422,"Ġpub":12423,"Ġsound":12424,"Controls":12425,"qt":12426,"Ġclassifier":12427,"Layers":12428,"Ġoccurs":12429,"toFixed":12430,"OutOf":12431,"Ġitertools":12432,"ĠCond":12433,"Projects":12434,"yarn":12435,"é»ĺè®¤":12436,"'d":12437,"always":12438,"ĠLevel":12439,"Ġdisplayed":12440,"you":12441,"Ġpw":12442,"SpringBoot":12443,"Ġdd":12444,"Ġextended":12445,"Ġterminal":12446,"vation":12447,"Decode":12448,"Ġlinked":12449,"slots":12450,"got":12451,"ĠAtt":12452,"Comparison":12453,"ãģ¤":12454,"textarea":12455,"ALSE":12456,"Ġtemplates":12457,"solid":12458,"Ġtp":12459,"Typed":12460,"+\\":12461,"BUTTON":12462,"solver":12463,"iated":12464,"\"){":12465,"sage":12466,"assignment":12467,"combo":12468,"(?:":12469,"Mag":12470,"Ġplayers":12471,"StartTime":12472,"Ġ/\\.":12473,"nh":12474,"=',":12475,"udents":12476,"seudo":12477,"pix":12478,"fort":12479,"ology":12480,"ĠPackage":12481,"Attach":12482,"digit":12483,"éĻĲ":12484,"filer":12485,"ÑĪ":12486,"OptionPane":12487,"apple":12488,"DOC":12489,"ĠÑĤ":12490,"Ġfamily":12491,"Does":12492,"()+":12493,"ĠgetC":12494,"meth":12495,"ĊĊĊĠĠĠĠĠĠĠĠĠĠĠ":12496,"ĠGo":12497,"Ġpredicted":12498,"Will":12499,">')":12500,"tone":12501,"Exact":12502,"FACT":12503,"andra":12504,"Runnable":12505,"ĠJavaScript":12506,"ĠgetS":12507,"įä½ľ":12508,"Helpers":12509,"addle":12510,"Expand":12511,"Robot":12512,"dimensions":12513,"Ġsigned":12514,"MBOL":12515,"([])":12516,"TASK":12517,"Ġfontsize":12518,"'});":12519,"/\\":12520,"ĠSV":12521,"ĠTEXT":12522,"Ġdefaultdict":12523,"formats":12524,"Workspace":12525,"ializing":12526,"RPC":12527,"kin":12528,"Ġant":12529,"scaled":12530,"AutoField":12531,"mongo":12532,"Counts":12533,"Ġepochs":12534,"toHaveBeenCalled":12535,"literals":12536,"Spinner":12537,"}(":12538,"))]":12539,"ĠExtract":12540,"RuntimeException":12541,"creator":12542,"åĮħ":12543,"ãĤī":12544,"iki":12545,"sktop":12546,"zm":12547,"Ġtear":12548,"ĠHamilton":12549,"cleanup":12550,":],":12551,"CLA":12552,"ims":12553,"ĠINTO":12554,"SUPPORTED":12555,"bac":12556,"Authenticated":12557,"Feedback":12558,"games":12559,"Review":12560,"keyCode":12561,"quality":12562,"nos":12563,"ĠĊĠĠĠĠĠĠĠĠ":12564,"andatory":12565,"etype":12566,"Ġpm":12567,"ĠComment":12568,"aid":12569,"Ġreview":12570,"éĽĨ":12571,"Lab":12572,"nitude":12573,"Accounts":12574,"uler":12575,"lename":12576,"resume":12577,"Ġship":12578,"gridBagConstraints":12579,"ederation":12580,"fusc":12581,"Throws":12582,"ained":12583,"æĦ":12584,"Strict":12585,"!\\":12586,"stitute":12587,"Construct":12588,"è®°":12589,"bulk":12590,"visioning":12591,"wav":12592,"aspect":12593,"Ġenc":12594,"ãĤ¯":12595,"oting":12596,"('')":12597,"Ġprojects":12598,"éħįç½®":12599,"fish":12600,"ĠPsi":12601,"ĠFragment":12602,"Ġcleanup":12603,"HttpStatus":12604,"ĠFlask":12605,"ĠAttributeError":12606,"ulated":12607,"ÅŁ":12608,"Ġhealth":12609,"})();":12610,"Ġtempfile":12611,"Ġhot":12612,"ATTR":12613,"Ġduplicate":12614,"Utility":12615,"cer":12616,"Correct":12617,"Mvc":12618,"dstore":12619,"Prove":12620,"Drive":12621,"locals":12622,"']}":12623,"collapse":12624,"ĠChat":12625,"Ġpretty":12626,"XmlElement":12627,"uts":12628,"ĠDon":12629,"employee":12630,"webkit":12631,"Ġil":12632,"HttpResponse":12633,"ordinator":12634,"Avatar":12635,"ĠByteBuffer":12636,"periments":12637,"QUERY":12638,"Lin":12639,"PPO":12640,"Ġvals":12641,"subset":12642,"ĠINTER":12643,"Decorator":12644,"Ġmultiplier":12645,"Ġfil":12646,"Ġsprite":12647,"tokenizer":12648,"Ġsy":12649,"ĠCLI":12650,"Subscriber":12651,"\"]').":12652,"Ġclaim":12653,"White":12654,"digits":12655,"Ġ\":\"":12656,"Ġboundary":12657,"Ġpreview":12658,"Ġsoft":12659,"Ġrecipe":12660,"Ġcpu":12661,"æľĪ":12662,"agg":12663,"HashCode":12664,"terminal":12665,"normalized":12666,"specs":12667,"jPanel":12668,"audit":12669,"xhr":12670,"()];":12671,"è§£":12672,"Es":12673,"frozen":12674,"--)":12675,"Animator":12676,"Clone":12677,"Ġxmlns":12678,"Cross":12679,"Ġentire":12680,"sz":12681,"Ġcoin":12682,"ĠisValid":12683,"Ġpref":12684,"BUFFER":12685,"Skill":12686,"èĢħ":12687,"SVG":12688,"savedInstanceState":12689,"åĽ¾çīĩ":12690,"Ġepsilon":12691,"Ġones":12692,"Detector":12693,"Sur":12694,"npy":12695,"classification":12696,"ErrorCode":12697,"Ġmaps":12698,"Some":12699,"lc":12700,"setTimeout":12701,"Seed":12702,"ElementType":12703,"Ġassume":12704,"setBlock":12705,"ĠTAG":12706,"guide":12707,".%":12708,"ĠWord":12709,"shard":12710,"Weather":12711,"Ġtraceback":12712,"è¯ķ":12713,"Ġchars":12714,"UAL":12715,"Ġ/*#__":12716,"ç»ĵæŀľ":12717,"ĠFIX":12718,"Credential":12719,"misc":12720,"ĠQuest":12721,"Ġpress":12722,"ĠVert":12723,"getSimpleName":12724,"slip":12725,"Ġbins":12726,"GT":12727,"èĬĤçĤ¹":12728,"BooleanField":12729,"Ġna":12730,"Shop":12731,"Special":12732,"][<":12733,"čĊĠĠĠĠĠĠ":12734,"Ġassignment":12735,"munication":12736,"Ġoutfile":12737,"Tabs":12738,"Ġintegr":12739,"Bounding":12740,"danger":12741,"Transactional":12742,"TARGET":12743,"Ops":12744,"ĠTType":12745,"čĊčĊĠĠĠĠĠĠĠĠĠĠĠĠĠĠĠ":12746,"disconnect":12747,"postgres":12748,"Ġchunks":12749,"decorate":12750,"ĠCSV":12751,"ĠgetClass":12752,"Ġmemoized":12753,"='/":12754,"-{":12755,"AML":12756,"COM":12757,"PONSE":12758,"resolver":12759,"delegate":12760,"ĊĉĉĠ":12761,"`\\":12762,"Ġai":12763,"Walk":12764,"aloader":12765,"Spy":12766,"ptime":12767,"Ġmetavar":12768,"Ġassum":12769,"Ġfh":12770,"Unexpected":12771,"=[],":12772,"åķĨ":12773,"pch":12774,"atable":12775,"getitem":12776,"ĠOrderedDict":12777,"()])":12778,"Ġdeserialize":12779,"Ġpopulate":12780,"uggestions":12781,"Ġide":12782,"controllers":12783,"ç®¡":12784,"don":12785,"stamp":12786,"isp":12787,"ĠJPanel":12788,"Ġtimedelta":12789,"æĿĥ":12790,"Placeholder":12791,"vote":12792,"hamcrest":12793,"ìĬ":12794,"Coords":12795,"Callbacks":12796,"Ġregistration":12797,"ĠSize":12798,"ĠTR":12799,"ĠJLabel":12800,"(.":12801,"æĪĸ":12802,"ĠNon":12803,"Requested":12804,"arios":12805,"streams":12806,"staff":12807,"Cached":12808,"å¢":12809,"ĠĊĠĠĠĠĠĠĠĠĠĠĠĠĠĠĠĠĠĠĠĠĠĠĠ":12810,"getSource":12811,"Ġmaint":12812,"uan":12813,"RB":12814,"Ġrepr":12815,"NullPointerException":12816,"Ġprobability":12817,"Instrument":12818,"ĠAnnotation":12819,"jp":12820,"observation":12821,"ĠOrg":12822,"UNKNOWN":12823,"goto":12824,"reached":12825,"REAM":12826,"oa":12827,"ĠDeb":12828,"PropTypes":12829,"senger":12830,"tage":12831,"ĠBox":12832,"yield":12833,"fluid":12834,"ADMIN":12835,"Ġquick":12836,"Ġdigits":12837,"Ġinventory":12838,"dog":12839,"éªĮ":12840,"ĠClose":12841,"Resolution":12842,"Logo":12843,"ĠStatic":12844,"ä»»":12845,"OPTIONS":12846,"rr":12847,"ĠfieldName":12848,"easy":12849,"rivacy":12850,"Ġsha":12851,"Compiler":12852,"Ġepisode":12853,"STRUCT":12854,"fft":12855,"CALL":12856,"predicate":12857,"RecyclerView":12858,"planes":12859,"ĠNAME":12860,"agents":12861,"Ġfallback":12862,"ining":12863,"Checkbox":12864,"Mem":12865,"ĠSum":12866,"Additional":12867,"unnel":12868,"ĠBot":12869,"iframe":12870,"Ġthings":12871,"ĠGiven":12872,"Ġseparator":12873,"uge":12874,"Positions":12875,"was":12876,"Ġmass":12877,"AccessToken":12878,"ĠInstant":12879,"isdir":12880,"getChild":12881,"Ġdropout":12882,"Unt":12883,"Ġcalculated":12884,"ĠĠĠĠĠĊĠĠĠĠ":12885,"ĠdataSource":12886,"Compute":12887,"ĠVirtual":12888,"iber":12889,"mor":12890,"unto":12891,"Ġphi":12892,"Ġwire":12893,"leting":12894,"Hover":12895,"Ġrelationship":12896,"Protection":12897,"Ġprod":12898,"Connections":12899,"GP":12900,"wi":12901,"ê³":12902,"iding":12903,"ĠNormal":12904,"exion":12905,"Ġmc":12906,"čĊĠĠĠĠĠĠĠĠĠĠĠĠĠĠĠĠĠ":12907,"uby":12908,"Ġproperly":12909,"numberOf":12910,"axe":12911,"Ġoverflow":12912,"Party":12913,"argmax":12914,"ĠequalTo":12915,"adj":12916,"Ġwalk":12917,"åŃĺåľ¨":12918,"Ġrhs":12919,"OTE":12920,"ãģĻãĤĭ":12921,"CHO":12922,"Ġlongitude":12923,"ĠEdge":12924,"Ġpatterns":12925,"inspect":12926,"atomic":12927,"Ġaffili":12928,"gal":12929,"ĠMove":12930,"Ġrejected":12931,"AddVersion":12932,"ĠDataFrame":12933,"Ġrendered":12934,"ĠBr":12935,"Ġtech":12936,"Ġsubset":12937,"sensitive":12938,"ĠRaises":12939,"Ġimp":12940,"Ġtokenizer":12941,"Ġdi":12942,"tau":12943,"Å£":12944,"Ġjo":12945,"ĠOp":12946,"ivative":12947,"Ġcd":12948,"')))":12949,"Publisher":12950,"Ġsit":12951,"LOCAL":12952,"ĠAC":12953,"Provincia":12954,"Energy":12955,"âĪ":12956,"Prod":12957,"PrototypeOf":12958,"spawn":12959,"Ġcontrols":12960,"money":12961,"mongodb":12962,"``,":12963,"ViewGroup":12964,"Ġincorrect":12965,"ĠAuthors":12966,"Ġtemporary":12967,"Ġanim":12968,"Ġsending":12969,"Ġidentify":12970,"QueryParser":12971,"isation":12972,"Ġ--------------------------------":12973,"Ġavatar":12974,"ĠMIN":12975,"getLast":12976,"Integration":12977,"æŃ¤":12978,":\\/\\/":12979,"rink":12980,"urrence":12981,"Rating":12982,"PECT":12983,"(\"\\\\":12984,"EF":12985,"plorer":12986,"Brand":12987,"ĠAllow":12988,"COMMAND":12989,"SCHEMA":12990,"Mgr":12991,"memo":12992,"ĠDel":12993,"Projection":12994,"ĠtestGet":12995,"eye":12996,"uz":12997,"FILTER":12998,"ktop":12999,"æĿ¡":13000,"assertNot":13001,"iolation":13002,"assertNull":13003,"Ġsubnet":13004,"runs":13005,"ĠImplement":13006,"Flux":13007,"Ġfc":13008,"NG":13009,"hxr":13010,"ĠAdds":13011,"Ġgetter":13012,"Ġcolour":13013,"assandra":13014,"phabet":13015,"æºĲ":13016,"LANG":13017,"ullet":13018,"remaining":13019,"trip":13020,"ĠPair":13021,"Locked":13022,"iguous":13023,"ickness":13024,"Definitions":13025,"ä¹ī":13026,"ĠBufferedReader":13027,"lwjgl":13028,"Ġorientation":13029,"Ġbuilding":13030,"æķĪ":13031,"iot":13032,"syntax":13033,"azelcast":13034,"navbar":13035,"ĠIDs":13036,"flink":13037,"oted":13038,"ÑĢÐµ":13039,"album":13040,"ĠFore":13041,"batches":13042,"âĢĶ":13043,"Ġordered":13044,"Ġpaint":13045,"linux":13046,"deepcopy":13047,"Ġleaf":13048,"\"/":13049,"getColor":13050,"åıĺ":13051,"Ġimports":13052,"OLD":13053,"[...,":13054,"urb":13055,"npc":13056,"ĠThen":13057,"Design":13058,"Suffix":13059,"Ġsi":13060,"Ġdates":13061,"AUTO":13062,"care":13063,"Ġvectors":13064,"ãĥ«":13065,"uetoothGatt":13066,"distributed":13067,"]|":13068,"êµ":13069,"logies":13070,"DOMAIN":13071,"Ġ';":13072,"tweet":13073,"Ġinitialization":13074,"Ġiterations":13075,"Ġwaiting":13076,"Ġunderlying":13077,"cookies":13078,"Ġmobile":13079,"enda":13080,"å¹¶":13081,"æĥħ":13082,"Ġdeclaration":13083,"herits":13084,"Ġtar":13085,"Ġ<>":13086,"MISSION":13087,"Ġlatitude":13088,"Ġtransformation":13089,"ĠES":13090,"DEVICE":13091,"Ġ`<":13092,"ĠĠĠĠĠĠĠĠĠĠĠĠĠĠĠĠĠĠĠĠĠĠĠĠĠĠĠ":13093,"Ġkw":13094,"ternate":13095,"jit":13096,"readcr":13097,"ĠOff":13098,"Ġscripts":13099,"Exports":13100,"ç»Ł":13101,"Ġremain":13102,"ugment":13103,"Ev":13104,"Ġiv":13105,"iring":13106,"tan":13107,"resid":13108,"enticator":13109,"tensorflow":13110,"BM":13111,"ĠÐ½Ð°":13112,"Meter":13113,"pagination":13114,"æĶ¯":13115,"getConfig":13116,"...\");":13117,"querySelectorAll":13118,"upgrade":13119,"OptionsDefine":13120,"Ġgene":13121,"ĠgetP":13122,"%\",":13123,"cript":13124,"timest":13125,"åģ":13126,"Ġeff":13127,"ETCH":13128,"ĠEditor":13129,"ĊĠĠĠĠĊĠĠĠĠĊĠĠĠ":13130,"Ċĉĉĉĉĉĉĉĉĉĉĉ":13131,"Bridge":13132,"Ġeverything":13133,";//":13134,"etched":13135,"findall":13136,"Styled":13137,"IX":13138,"Ġgap":13139,"csrf":13140,"TES":13141,"Resp":13142,"inate":13143,"Scalar":13144,"connections":13145,"Ġpip":13146,"Capability":13147,"atile":13148,"Ġcube":13149,"Gate":13150,"getT":13151,"pyi":13152,"yl":13153,"FX":13154,"lengths":13155,"wikipedia":13156,"¾ç¤º":13157,"DEP":13158,"iline":13159,"Jo":13160,"aggregate":13161,"Ġbb":13162,"Fixture":13163,"Mappings":13164,"LIGHT":13165,"fabric":13166,"Ġà¤":13167,"parsers":13168,"epsilon":13169,"colour":13170,"ĠEmpty":13171,"ored":13172,"AddVersionParent":13173,"ranges":13174,"¹æį®":13175,"ĠCase":13176,"IllegalArgumentException":13177,"anty":13178,"getFile":13179,"entropy":13180,"Matching":13181,"Ġleave":13182,"/')":13183,"ĠTreeNode":13184,"Ġcred":13185,"edis":13186,"nostic":13187,"Ġannot":13188,"isPresent":13189,"Ð½Ð°":13190,"wire":13191,"checker":13192,"ABC":13193,"arter":13194,"Ġ{//":13195,"Leaf":13196,"ĠVerify":13197,"enance":13198,"ĠTerm":13199,"addActionListener":13200,"liver":13201,"Ġimmediate":13202,"organ":13203,"iterations":13204,"ĠTestCase":13205,"regions":13206,"evaluation":13207,"food":13208,"ClassLoader":13209,"Starting":13210,"(\"{}":13211,"abstractmethod":13212,"updates":13213,"Mut":13214,"ĠEngine":13215,"////////////////////////////////////////////////////////////////":13216,"ĠPosition":13217,"ucers":13218,"('/',":13219,"gorithms":13220,"Ġgithub":13221,"ributed":13222,"but":13223,"Ġsolver":13224,"IGH":13225,"................":13226,"getDefaultInstance":13227,"})(":13228,"Locations":13229,"############################################################################":13230,"ĠElastic":13231,"WRITE":13232,"Ġul":13233,"aternion":13234,"salt":13235,"isions":13236,"getActivity":13237,"Ġcombined":13238,"éļ":13239,"globals":13240,"ĠSimpleDateFormat":13241,"patient":13242,"MEN":13243,"ĠBlocks":13244,"setUp":13245,"ĠProgram":13246,"TICAL":13247,"ĠMetadata":13248,"JsonObject":13249,"ĊĊĉĠĠĠ":13250,"Ġsecondary":13251,"Frequency":13252,"ibraries":13253,"TAB":13254,"ĠREQU":13255,"npm":13256,"Jobs":13257,"ĠFILE":13258,"compose":13259,"Ġ'../../../":13260,"formance":13261,"Digest":13262,"bullet":13263,"Ġphoto":13264,"Aff":13265,"ATTRIBUT":13266,"Subtype":13267,"plash":13268,"================================================":13269,"quit":13270,"Ġmanually":13271,"ĠMult":13272,"HandlerContext":13273,"Ġlicensed":13274,"Ġclicked":13275,"ĠtearDown":13276,"jpeg":13277,"ĊĊĠĠĠĠĠĠĠĠĠĠĠĠĠĠĠĠĠĠĠĠĠĠĠĠĠĠĠĠĠĠĠ":13278,"HAND":13279,"Ñī":13280,"čĊĠĠĠĠĠĠĠĠĠĠĠĠĠĠĠĠ":13281,"orElse":13282,"chunks":13283,"ucle":13284,"News":13285,"interaction":13286,"Ġaffiliates":13287,"four":13288,"Ġvehicle":13289,"ParseException":13290,"Ġinp":13291,"]'":13292,"()-":13293,"ĠWith":13294,"Binder":13295,"Damage":13296,"HOME":13297,"trust":13298,"Ġcorresponds":13299,")</":13300,"...')":13301,"SIB":13302,"(%":13303,"ĠGO":13304,"ĠSwitch":13305,"computed":13306,"ĠVER":13307,"!',":13308,"è¾ĵåħ¥":13309,"tegers":13310,"ĠBad":13311,"čĊčĊĉĉĉ":13312,"commended":13313,"dispose":13314,"Ġpeak":13315,"é«":13316,"Ġrelevant":13317,"tel":13318,"(\"\"\"":13319,"Ġflash":13320,"}))":13321,"umid":13322,"msgs":13323,"~~~~~~~~~~~~~~~~":13324,"Pick":13325,"URATION":13326,"RIC":13327,"getChildren":13328,"ĠCart":13329,"spin":13330,"arranty":13331,"alformed":13332,"Leave":13333,"Shell":13334,"Ġground":13335,"spon":13336,"social":13337,"ita":13338,"ftp":13339,"ForType":13340,"nlp":13341,"Ġintern":13342,"setStyle":13343,"Facturas":13344,"aud":13345,"ViewModel":13346,"ATT":13347,"Ġgoing":13348,"ExecutorService":13349,"è¯¯":13350,"icing":13351,"OPTION":13352,"å°Ĩ":13353,"ĠADD":13354,"tbody":13355,"getBoolean":13356,"suc":13357,"thumb":13358,"Ġdocker":13359,"Vehicle":13360,"ctype":13361,"getFull":13362,"Dec":13363,"NER":13364,"definitions":13365,"GI":13366,"Ġ*/}":13367,"ĠVideo":13368,"æĵįä½ľ":13369,"getMax":13370,"WEB":13371,"graphql":13372,"Bearer":13373,"SYMBOL":13374,"TEMPLATE":13375,"basis":13376,"ĠCRE":13377,"\"'":13378,"Ġupgrade":13379,"setType":13380,"Attempt":13381,"rivilege":13382,"inja":13383,"imo":13384,"lood":13385,"ipv":13386,"wc":13387,"ĠHost":13388,"Ġoverlap":13389,"ĠExpected":13390,"Cat":13391,"SUM":13392,"\\\"\\":13393,"pletableFuture":13394,"hive":13395,"getRequest":13396,"Deserializer":13397,"Ġevalu":13398,"Ġobserver":13399,"LINK":13400,"ĠIM":13401,"percentage":13402,"getConnection":13403,"Ġgov":13404,"='+":13405,"Ġadds":13406,"waitFor":13407,"sto":13408,"minus":13409,"Ġcodes":13410,"ircular":13411,"References":13412,"}>{":13413,"izz":13414,"ãģ¿":13415,"################################################":13416,"[:]":13417,"pearance":13418,"Ġè®¾ç½®":13419,"Ġcomm":13420,"ĠBar":13421,"ĠAlso":13422,"what":13423,"Cells":13424,"Complex":13425,"ĠMust":13426,"Notes":13427,"HS":13428,"parable":13429,"åŃĹç¬¦ä¸²":13430,"afari":13431,")},":13432,"iti":13433,"keyboard":13434,"Ã¶":13435,"street":13436,"Ġassets":13437,"Ġtaken":13438,"alibaba":13439,"Ġoverlay":13440,"Documents":13441,"cipes":13442,"Quant":13443,"Generation":13444,"insertion":13445,"izar":13446,"overlap":13447,"artbeat":13448,"Adjust":13449,"urther":13450,"Activo":13451,"alone":13452,"STOP":13453,"tcp":13454,"Ġflip":13455,"Ġstuff":13456,"Coordinates":13457,"getFirst":13458,"Ġconnector":13459,"hance":13460,"palette":13461,"æī§è¡Į":13462,"omb":13463,"\":{\"":13464,"Symbols":13465,"hibernate":13466,"chh":13467,"ĠSome":13468,"Ġscenario":13469,"attachment":13470,"SYSTEM":13471,"Ġndarray":13472,"Mid":13473,"Sdk":13474,"PW":13475,"intValue":13476,"Ġcontained":13477,"Atomic":13478,"Ġtran":13479,"åĪĽå»º":13480,"URIComponent":13481,"OAuth":13482,"versal":13483,"'<":13484,"ema":13485,"ĠMay":13486,"']).":13487,"ĠSim":13488,"sphinx":13489,"BLACK":13490,"subplots":13491,"ContentView":13492,"Ð¾Ð±":13493,"NIL":13494,"Ġsal":13495,"Ġminute":13496,"MappingURL":13497,"Ġctrl":13498,"asse":13499,"Ġreload":13500,"Ġgateway":13501,"Svg":13502,"mv":13503,"Ġtimezone":13504,"ĠgetType":13505,"Ġacross":13506,"Ġdecoded":13507,"ĠBigInteger":13508,"ĠNumericNodeId":13509,"yr":13510,"Ġregions":13511,"Gets":13512,"notifications":13513,"Ġreplacement":13514,"ĠAx":13515,"gregator":13516,"IndexQueryParser":13517,"GroupId":13518,"ĠSupport":13519,"ĠWindows":13520,"Ùħ":13521,"Ship":13522,"cdn":13523,"PROCESS":13524,"OXY":13525,"hits":13526,"idxs":13527,"CLE":13528,"hh":13529,"ESTAMP":13530,"slippage":13531,"IndexQueryParserTests":13532,"Ġ');":13533,"Ġslider":13534,"ATIONS":13535,"median":13536,"Ġtimest":13537,"Ġrev":13538,"Ġiterable":13539,"Pad":13540,"Ġguess":13541,"Motion":13542,"Ġresolver":13543,"EventHandler":13544,"Tracking":13545,"Ġfe":13546,"nodeType":13547,"Undefined":13548,"Finish":13549,"Ġpod":13550,"Imp":13551,"xhtml":13552,"ĠStringBuffer":13553,"UserName":13554,"Ġdatas":13555,"Ġqueryset":13556,"NotFoundError":13557,"readlines":13558,"FILES":13559,"Ġsimilar":13560,"iser":13561,"parseFrom":13562,"Sri":13563,"RestController":13564,"USTOM":13565,"************************":13566,"ĠĊĠĠĠĠĠĠĠĠĠ":13567,"ĠRad":13568,"Ġpermitted":13569,"Logged":13570,"roken":13571,"Serial":13572,"ĠsourceMappingURL":13573,"CKET":13574,"Dimensions":13575,"REL":13576,"getIn":13577,"ĠTw":13578,"Ġobservation":13579,"iculty":13580,"FacturasProve":13581,"replaceAll":13582,"Ġfraction":13583,"extended":13584,"fieldName":13585,"Ġthing":13586,"Cam":13587,"Ġsolve":13588,"photos":13589,"Plain":13590,"dup":13591,"Ġbuy":13592,"Ð¾ÑĤ":13593,"çŃī":13594,"setString":13595,"ĠHelper":13596,"Ġpprint":13597,"Ġincoming":13598,"Ð¸Ñģ":13599,"Sorted":13600,"Ġattached":13601,"REST":13602,"OXYGEN":13603,"}},":13604,"ACCOUNT":13605,"working":13606,"playlist":13607,"Ġlevels":13608,"Ġstrides":13609,"ĠStringUtils":13610,"acher":13611,"ROP":13612,"ĠTitle":13613,"è¿Ľè¡Į":13614,"ĠĠĠĠĊĠĠĠ":13615,"Extended":13616,"rock":13617,"Cons":13618,"Versions":13619,"Then":13620,"ĠController":13621,"lu":13622,"occ":13623,"submission":13624,"ĠKeyword":13625,"ĠÐ¼":13626,"rown":13627,"elines":13628,"Ġinteraction":13629,"ĠSetup":13630,"/,":13631,"Ġswap":13632,"Ġfunctools":13633,"Latch":13634,"velopers":13635,"ëĬ":13636,"SPACE":13637,"ç´ł":13638,"Ġcertain":13639,"Ġcombine":13640,"Ġbid":13641,"abort":13642,"ensemb":13643,"Transl":13644,"Orders":13645,"nm":13646,"StringBuilder":13647,"Ġlista":13648,"Mongo":13649,"ucation":13650,"+\"/":13651,"getAbsolutePath":13652,"ĠInterface":13653,"Ġinplace":13654,"Authority":13655,")\";":13656,"pretrained":13657,"transformer":13658,"istency":13659,"resnet":13660,"=\"${":13661,"Money":13662,"getLocal":13663,"sites":13664,")==":13665,"friend":13666,"ste":13667,"ches":13668,"Ġfour":13669,"ĠLo":13670,"Attrs":13671,"Greater":13672,"ĠSIG":13673,"Queries":13674,"Offer":13675,"ĠVALUES":13676,"MARY":13677,"Ġ{:":13678,"NORMAL":13679,"chag":13680,"Ġencrypted":13681,"visor":13682,"heo":13683,"Decl":13684,")`":13685,"bow":13686,"Initialization":13687,"unary":13688,"ç®¡çĲĨ":13689,"*\",":13690,"aje":13691,"qq":13692,"Ġtt":13693,"BI":13694,"Disable":13695,"Ġcwd":13696,"Ġrevision":13697,"pkl":13698,"temporal":13699,"ĠPOS":13700,"ĠmarginTop":13701,"|=":13702,"makeText":13703,"ĠcontentType":13704,"*******":13705,"YYYY":13706,"trast":13707,"decorators":13708,"áĦ":13709,"Ġtgt":13710,"opens":13711,"datap":13712,"Managed":13713,"Ġredistribute":13714,"Ġsel":13715,"ĠExamples":13716,"Ġtuples":13717,"BatchNorm":13718,"áħ":13719,"dataframe":13720,"hero":13721,"Interpol":13722,"Ð½Ð¾":13723,"terminate":13724,"Relationship":13725,"Ġothers":13726,"FLOAT":13727,"Ġ\"${":13728,"Removed":13729,"Ins":13730,"outline":13731,"Ġlex":13732,"Ġmuch":13733,"preads":13734,"dkv":13735,"jq":13736,"Ġ$(\"":13737,"behavior":13738,"getG":13739,"Ġsetattr":13740,"kenaa":13741,"StateToProps":13742,"gain":13743,"chai":13744,"Ġpopulation":13745,"ĠSM":13746,"ya":13747,"Ġcx":13748,"ĠMer":13749,"Letter":13750,"initialized":13751,"Ġplane":13752,"oku":13753,"Heading":13754,"Ġrestart":13755,"modifiable":13756,"corr":13757,"Initialize":13758,"BIN":13759,"thumbnail":13760,"Experiment":13761,"Ġgui":13762,"ĠTotal":13763,"tagName":13764,"Foreground":13765,"å·¥":13766,"CONNECT":13767,"objs":13768,"TRAIN":13769,"FD":13770,"Ġcaption":13771,"keleton":13772,"Ġdefinitions":13773,"population":13774,"Ġpb":13775,"ĠFace":13776,"Ġjsonify":13777,"Aggregation":13778,"WIND":13779,"SCRI":13780,"Psi":13781,"Ġreally":13782,"ĠJButton":13783,"aits":13784,"ĠstartActivity":13785,"Assets":13786,"pointment":13787,"ĠgetCurrent":13788,"aaaaaaaa":13789,"night":13790,"wl":13791,"Ġesc":13792,"readline":13793,"BOX":13794,"Ġboto":13795,"Ġ####":13796,"toJSON":13797,"Spacing":13798,"BigInteger":13799,"ç½ĳ":13800,"Delivery":13801,"Ġreturning":13802,"Increment":13803,"getElementsByTagName":13804,"Ġreplaced":13805,"will":13806,"æĮĩå®ļ":13807,"Requirement":13808,":`~":13809,"Ġtrade":13810,"Percentage":13811,"Slf":13812,"Append":13813,"ĠShared":13814,"Ġsparse":13815,"ĠREST":13816,"+'/":13817,"IRED":13818,"CURE":13819,"Ġdark":13820,"Opts":13821,"Ŀå§ĭ":13822,"Ġpersist":13823,"_'+":13824,"clazz":13825,"ticket":13826,"Nom":13827,"plaint":13828,"ENAME":13829,"Excel":13830,"persist":13831,"obe":13832,"ĠSchedule":13833,"Ġpeople":13834,"Ġdegrees":13835,"__))":13836,"ĠNames":13837,"readonly":13838,"Ġ?,":13839,"Ġfloating":13840,"Oc":13841,"Clo":13842,"Ġserializers":13843,"NotExist":13844,"ĠUri":13845,"åŃĹæ®µ":13846,"Ġindicates":13847,"ĠuserName":13848,"Ġhope":13849,"=\"\",":13850,"EDIT":13851,"Ġproduced":13852,"DECL":13853,"Ġspecifies":13854,"Ġslow":13855,"BAR":13856,"neighbors":13857,"InProgress":13858,"Ġqs":13859,"é¡¹":13860,"ĠMemory":13861,"ĠHas":13862,"CLAIM":13863,"ODS":13864,"meter":13865,"inflate":13866,"roi":13867,"Ġbounding":13868,"picture":13869,"Indexes":13870,"translated":13871,"Ġintegration":13872,"means":13873,"Analyzer":13874,"Ġnor":13875,"compressed":13876,"getR":13877,"agem":13878,"Ġdefines":13879,"Ġresulting":13880,"cjh":13881,"¤æĸŃ":13882,"dap":13883,"eor":13884,"Ġsr":13885,"atoms":13886,"FAILURE":13887,"Ġdemo":13888,"å¦Ĥæŀľ":13889,"ĠCUP":13890,"']):":13891,"corpus":13892,"FXML":13893,"CMD":13894,"Ġ'}":13895,"lix":13896,"Tra":13897,"()>":13898,"Ġpp":13899,"Ġcircuit":13900,"Ġeu":13901,"Ġcoll":13902,"Ġemployee":13903,"ãĥĥ":13904,"Ð¾Ðº":13905,"ĠčĊĉĉĉ":13906,"-'":13907,"jas":13908,"heap":13909,"FacturasProveedores":13910,"Ġcredential":13911,"ĠAudio":13912,"PAY":13913,"('',":13914,"ĠMODE":13915,"Ġ$('<":13916,"FOLDER":13917,"tap":13918,"pret":13919,"rawl":13920,"éĢģ":13921,"Band":13922,"published":13923,"RESOURCE":13924,"æµĭ":13925,"^^^^":13926,"ĠâĶ":13927,"ĠPRI":13928,"Updates":13929,"community":13930,"isSet":13931,"both":13932,"ĠValidate":13933,"Neighb":13934,"Expecting":13935,"elm":13936,"ĠFast":13937,"What":13938,"FALSE":13939,"Into":13940,"fraction":13941,"?\"":13942,"defs":13943,"Ġmv":13944,"TestUtils":13945,"Initializer":13946,"listeners":13947,"readFileSync":13948,"Ġclassification":13949,"ENDING":13950,"ĠOB":13951,"rappe":13952,"nombre":13953,":{}":13954,"isNaN":13955,"scrollTop":13956,"TERNAL":13957,"trins":13958,"Ġsoup":13959,"Ġtrunc":13960,"pretty":13961,"tribution":13962,"CURRENT":13963,"Pull":13964,"ignite":13965,"stitution":13966,"soup":13967,"represent":13968,"ĠAPP":13969,"frac":13970,"ĠPlatform":13971,"Ġconfigs":13972,"ara":13973,"Ġ();":13974,"people":13975,"Ġkeyboard":13976,"moveTo":13977,"æĶ¾":13978,"éĩĮ":13979,"cion":13980,"mongoose":13981,"Reser":13982,"Ġcipher":13983,"Trust":13984,"UInt":13985,"Ġ{:.":13986,"pcion":13987,"ically":13988,"ĠpageSize":13989,"Ġindicating":13990,"clause":13991,"Ġxrange":13992,"groupby":13993,"ularity":13994,"Ġliteral":13995,"ĠTypes":13996,"enes":13997,"Ġmk":13998,"Ġrpc":13999,"pressed":14000,"tipo":14001,"ãģĬ":14002,"Ġsmooth":14003,"ĠOpt":14004,"Ġhandles":14005,"-\"":14006,"ĠScanner":14007,"Termin":14008,"amento":14009,"æľª":14010,"ç«¯":14011,"'%":14012,"banner":14013,"seen":14014,"ĠBASE":14015,"STATIC":14016,"SB":14017,"aser":14018,"chan":14019,"poser":14020,"smooth":14021,"ĠMaterial":14022,"ĠHH":14023,"createText":14024,"\"]);":14025,"Chars":14026,"Ġ\"-\"":14027,"Te":14028,"ĠReal":14029,"Ġprepend":14030,"åĨĻ":14031,"aciones":14032,"Ġgc":14033,"InterruptedException":14034,"Ġattachment":14035,"throwIf":14036,"Ġsecure":14037,"sequ":14038,"Ġpaper":14039,"mpp":14040,"BIT":14041,"ĊĠĠĠĠĠĠĠĠĠĠĠĠĠĠĠĠĠĠĠĠĠĠĠĠĠĠĠĠĠĠĠĠĠĠĠĠĠĠĠĠĠĠĠĠĠĠĠĠĠĠ":14042,"marshaller":14043,"Hours":14044,"prime":14045,"Ġpoll":14046,"ALLOW":14047,"eacher":14048,"TimeUnit":14049,"åĨħå®¹":14050,"sch":14051,"enk":14052,"Ġsetuptools":14053,"Capabilities":14054,"Upgrade":14055,"Valor":14056,"ollo":14057,"Ġ@@":14058,"ufact":14059,"ENABLED":14060,"Ġchosen":14061,"books":14062,"gas":14063,"ê°Ģ":14064,"Ġæĺ¯":14065,"motion":14066,"uning":14067,"ndim":14068,"ä¿ĿåŃĺ":14069,"getMethod":14070,"Ġmajor":14071,"Inspect":14072,"Ġgd":14073,"broker":14074,"å±ŀæĢ§":14075,"vectors":14076,"stem":14077,"Ġins":14078,"ĠmethodName":14079,"ĠCustomer":14080,"bpm":14081,"Ġaspect":14082,"Urls":14083,"GC":14084,"Sibling":14085,"ĠCounter":14086,"Iteration":14087,"Ġretrieved":14088,"wf":14089,"ĠReflect":14090,"ê¸°":14091,")=>{":14092,"emptyList":14093,"cuts":14094,"aurant":14095,"mapped":14096,"startTime":14097,"precation":14098,"éķ¿":14099,"ĠPRE":14100,"ĠWARNING":14101,"Ġfully":14102,"ĠÃ©":14103,"iÃ³n":14104,"iful":14105,"PATTERN":14106,"Human":14107,"timedelta":14108,"Ġgold":14109,"LayoutInflater":14110,"Plugins":14111,"Ġissues":14112,"spinner":14113,"ography":14114,"Ġpast":14115,"slow":14116,"vh":14117,"lier":14118,"Vm":14119,"PARAMET":14120,"fre":14121,"čĊĉĉĉĉĉĉĉĉ":14122,"ĠARE":14123,"qualified":14124,"æĮģ":14125,"erical":14126,"Ġwarranty":14127,"wm":14128,"sequences":14129,"ActionBar":14130,"ç¡®":14131,"ĠInfo":14132,"ĠerrorMessage":14133,"Ġhp":14134,"requirements":14135,"preadsheet":14136,"DN":14137,"{{":14138,"hard":14139,"Ġrecursive":14140,"Ãº":14141,"ĠNoSuch":14142,"Blocking":14143,"Categories":14144,"jc":14145,"atal":14146,"[]>":14147,"FP":14148,"Quality":14149,"xls":14150,"putExtra":14151,"Transactions":14152,");//":14153,"rstrip":14154,"zi":14155,"Terms":14156,"æŀĦ":14157,"feats":14158,"wrapped":14159,"Am":14160,"ams":14161,"Ġbroadcast":14162,"Ġpercentage":14163,"Shard":14164,"ccion":14165,"Ġinc":14166,"ĠUniversity":14167,"Ġ[(.":14168,"Ġgrpc":14169,"Ġtrial":14170,"Singleton":14171,"å¥":14172,"ë¥":14173,"']]],":14174,"AnalysisTest":14175,"sampler":14176,"matching":14177,"Ġdirectories":14178,"Marshaller":14179,"å¾Ħ":14180,"çº§":14181,"ë¡ľ":14182,"into":14183,"Serialize":14184,"ROLE":14185,"ĠInitial":14186,"charts":14187,"compatible":14188,"Frames":14189,"Ġquality":14190,"getSession":14191,"Ġ[...":14192,"ĠSetting":14193,"ZZ":14194,"Deploy":14195,"jboss":14196,"ĠIntern":14197,"clusion":14198,"íķĺ":14199,"eig":14200,"rnn":14201,"orient":14202,"Printer":14203,"NOTI":14204,"onymsAnalysisTest":14205,"GrupoActivo":14206,"Mutation":14207,"googleapis":14208,"iteritems":14209,"Ġparty":14210,"ä»İ":14211,"Bg":14212,"Latest":14213,"wrong":14214,"nostics":14215,"Need":14216,"setMessage":14217,"ĠClear":14218,"Ġå®":14219,"Palette":14220,"Negative":14221,"Ġlogits":14222,"ĠJOIN":14223,"checks":14224,"UDE":14225,"cmp":14226,"ĠRegion":14227,"VARI":14228,"Dummy":14229,"ĠAssertionError":14230,"ĠTim":14231,"pathname":14232,"Ġpipe":14233,"ĠfirstName":14234,"ĠlastName":14235,"retch":14236,"tiles":14237,"âĸĳâĸĳ":14238,"é«ĺ":14239,"sip":14240,"anity":14241,"Ġspecies":14242,"copyright":14243,"éĶĻè¯¯":14244,"æĦı":14245,"ĠDebug":14246,"Until":14247,"ĠUsers":14248,"MX":14249,"Std":14250,"Ġunless":14251,"Particle":14252,"Pref":14253,"Ġdensity":14254,"rst":14255,"ĠUint":14256,"aptive":14257,"$\\":14258,"Jar":14259,"LETED":14260,"ĠHy":14261,"plicas":14262,"Ġconsidered":14263,"autiful":14264,"CPU":14265,"SriFacturasProveedores":14266,"arb":14267,"Za":14268,"ĠGridBagConstraints":14269,"ĠBytes":14270,"umbs":14271,"Ġfixture":14272,"keeper":14273,"unge":14274,"ĠcreatedAt":14275,"Ġaliases":14276,"getattr":14277,"èģ":14278,"addListener":14279,"Coordinate":14280,"getCode":14281,"icipants":14282,"getEntity":14283,"elt":14284,"Ġconsum":14285,"tableName":14286,"Ġ_('":14287,"BUILD":14288,"erator":14289,"Ġgraphql":14290,"kh":14291,"arante":14292,"Candidate":14293,"Ġdegree":14294,"formatted":14295,"Directive":14296,"Ġsubmission":14297,"Autor":14298,"Yes":14299,"Ġclients":14300,"Ġ'-'":14301,"Ġswiper":14302,"Ġdepends":14303,"Ġist":14304,"Ġeth":14305,"ĠNav":14306,"Ġalignment":14307,"bosity":14308,"čĊĉĠĠĠ":14309,"certificate":14310,"fav":14311,"gwt":14312,"lore":14313,"ĠDEBUG":14314,"æĶ¶":14315,"ĠSTART":14316,"MATCH":14317,"openc":14318,"Desktop":14319,"gallery":14320,"TV":14321,"ĠOAuth":14322,"ĠHttpServletResponse":14323,"FIER":14324,"umulator":14325,"letes":14326,"squareup":14327,"dem":14328,"ĠALL":14329,"ĠOracle":14330,"PrimaryKey":14331,"addresses":14332,"([]":14333,"dag":14334,"é¡µéĿ¢":14335,"æ²¡":14336,"xp":14337,"firstName":14338,"icients":14339,"Ġincrease":14340,"Ġhooks":14341,"ãĤ¿":14342,"minor":14343,"*/,":14344,"ogo":14345,"Charge":14346,"RESPONSE":14347,"asa":14348,"WHITE":14349,"iar":14350,"thresh":14351,"contentType":14352,"cyc":14353,"Visual":14354,"ĊĠĠĠĠĠĠĠĠĠĠĠĠĠĠĠĠĠĠĠĠĠĠĠĠĠĠĠĠĠĠĠĠĠĠĠĠĠĠĠĠĠĠĠĠĠĠĠĠĠĠĠĠĠ":14355,"Ġpolygon":14356,"Ġfunctionality":14357,"STM":14358,"human":14359,"icion":14360,"Cliente":14361,"Colour":14362,"iversal":14363,"kk":14364,"Pic":14365,"inverse":14366,"Station":14367,"å¹´":14368,"Ġconcept":14369,"ĠDescribe":14370,"Ġhuman":14371,"åĲĳ":14372,"Provide":14373,"excel":14374,"Ġmodifier":14375,"tmpdir":14376,"ĠunknownFields":14377,"reaction":14378,"Arn":14379,"eo":14380,"Topology":14381,"ĠCalled":14382,"Persistence":14383,"Square":14384,"ToF":14385,"ais":14386,"alive":14387,"generation":14388,"çĶŁæĪĲ":14389,"-+-+-+-+":14390,"Ġmoves":14391,"criteria":14392,"jLabel":14393,"vr":14394,"STREAM":14395,"arrays":14396,"cities":14397,"SESSION":14398,"Calls":14399,"Fijo":14400,"}\");":14401,"utures":14402,"Ġapprox":14403,"throwIfReached":14404,"ĠProtocol":14405,"histogram":14406,"Ġgender":14407,"EXCE":14408,"GUI":14409,"ĠLimit":14410,"ObjectType":14411,"Ġ'.'":14412,"ĠSkip":14413,"Ġinverse":14414,"getcwd":14415,"adv":14416,"aco":14417,"Ġspawn":14418,"developer":14419,"rio":14420,"prog":14421,"ĠcomponentDid":14422,"Alive":14423,"Todo":14424,"VATE":14425,"Ġtc":14426,"âĶĢâĶĢâĶĢâĶĢâĶĢâĶĢâĶĢâĶĢ":14427,"Ro":14428,"è¨":14429,"æ´":14430,"Ġplain":14431,"åĿĢ":14432,"OVER":14433,"TW":14434,"\")]":14435,"Try":14436,"fonts":14437,"caps":14438,"æ¯ı":14439,"publisher":14440,"ĠFull":14441,"ROLL":14442,"Javadoc":14443,"MAC":14444,"ãĥ©":14445,"åħ¶":14446,"Ġsequences":14447,"Ġcompletion":14448,"å®Į":14449,"areaNo":14450,"amodel":14451,"ĠRepository":14452,"plitude":14453,"Ġ','":14454,"Pi":14455,"Ġstudy":14456,"Cy":14457,"gather":14458,"è¶":14459,"baseline":14460,"Streams":14461,"ĠresultSet":14462,"/?":14463,"Ġcrypto":14464,"Ġsock":14465,"ValidationError":14466,"Ġtweet":14467,"ynomial":14468,"ĠSTATE":14469,"infos":14470,"Īĺ":14471,"Ġray":14472,"ĠPoly":14473,"ĠRouter":14474,"icket":14475,"äºĭä»¶":14476,"Ġinvocation":14477,"UBLE":14478,"Ġframework":14479,"Smart":14480,"recogn":14481,"Ġnl":14482,"inecraft":14483,"Attack":14484,"ĠSocket":14485,"STOR":14486,"CHANNEL":14487,"Mirror":14488,"Sel":14489,"portal":14490,"PLACE":14491,"ylim":14492,"Ġinstrument":14493,"polygon":14494,"Soft":14495,"æĺ¾ç¤º":14496,"Ġcapt":14497,"FY":14498,"ĠProvider":14499,"Roll":14500,"ITER":14501,"jetty":14502,"Ġequivalent":14503,")];":14504,"oma":14505,"ObjectMapper":14506,"Readable":14507,"Broadcast":14508,"Fe":14509,"Ġlbl":14510,"ĠTimer":14511,"RequestId":14512,"ĠConf":14513,"Participant":14514,"Ġcards":14515,"Ġquestions":14516,"ides":14517,"ĠJSONArray":14518,"IES":14519,"ĠBean":14520,"\")){":14521,"ĠjustifyContent":14522,"TA":14523,"Ġls":14524,"Ġrm":14525,"Ġpatient":14526,"([^":14527,"bidden":14528,"Ġajax":14529,"ĠbyteArray":14530,"DATABASE":14531,"ased":14532,"Ãª":14533,"Ġ*************************************************************************":14534,"Ġservers":14535,")+'":14536,"setdefault":14537,"testng":14538,"ĠPrivate":14539,"Resume":14540,"Ġvisited":14541,"istrator":14542,"Icons":14543,"Ġur":14544,"addChild":14545,"birth":14546,"Ġbenchmark":14547,"Ġstation":14548,"ĠGeo":14549,"Cols":14550,"Ġdoing":14551,"even":14552,"ĠMat":14553,"DBC":14554,"ĠEnter":14555,"getService":14556,"addItem":14557,"åıª":14558,"Ġclusters":14559,"Ġapps":14560,"CreateModel":14561,"ĊĠĠĠĠĉĉ":14562,"imeType":14563,"ĠsetId":14564,"cljs":14565,"getResponse":14566,"alls":14567,"skin":14568,"éĶ®":14569,"Wrong":14570,">@":14571,"wer":14572,"Ġbasis":14573,"ĠTri":14574,"éĢļè¿ĩ":14575,"SEARCH":14576,"<?>>":14577,"Publish":14578,"ĠPass":14579,"ODY":14580,"çĻ»å½ķ":14581,")+\"":14582,"transactions":14583,"Aspect":14584,"Uniform":14585,"Ġplaylist":14586,
[...]
